#version: 0.2
Ë ·
Ġ Ġ
Ġ ì
Ġ ë
Ġ t
ì Ŀ
i n
Ġ a
h e
ĠĠ ĠĠ
r e
o n
í ķ
e r
ë ĭ
Ġ ê
a t
Ġ s
Ġt he
o r
e n
Ġ c
ì Ĺ
Ġ w
e s
i t
ìĿ ´
o u
a n
i s
ë Ĭ
Ġ f
a l
Ġ p
ê ³
in g
ëĭ ¤
a r
Ġ b
ëĬ Ķ
Ġ o
e d
n d
ê °
Ġ í
l e
Ġ m
Ġ d
ì Ħ
i on
ì §
Ġt o
Ġ in
ì ļ
i c
a s
ìĹ Ĳ
íķ ĺ
ì ŀ
Ġa nd
Ġo f
ì ł
r o
ê³ ł
ĠĠĠĠ ĠĠĠĠ
ĠĠ Ġ
ë ¡
ìĿ Ħ
Ġì ŀ
ë ı
ì ĭ
Ġ h
ì ķ
e t
ê ¸
s t
en t
c t
ë¡ ľ
ì ĸ
Ġt h
ê° Ģ
e l
ë ¦
o m
ê ²
i l
ì§ Ģ
Ġ n
Ġ l
ë §
Ġ re
ìĦ ľ
Ġì Ŀ
Ī ëĭ¤
íķ ľ
ë ¥
ëı Ħ
ë ĵ
ì ľ
ë Ĥ
ìĸ ´
ìĿ Ģ
ìĿ ĺ
Ġ e
ì Ĭ
i d
a m
ê¸ °
Ġì ķ
ìļ Ķ
Ġê °
Ġ y
Ġì ł
Ġë §
Ġ g
ë¦ ¬
Ġ I
v e
Ĥ ¬
o t
i m
a c
. .
o l
i g
â Ģ
Ġ T
Ġ S
a d
íķ ´
Ġ is
Ġ 1
ë ©
u s
u t
Ġy ou
ë¥ ¼
u r
ë į
ë Ŀ
o w
Ġf or
ã ħ
at ion
Ġë °
Ī ĺ
Ë· .
ê µ
a y
ë ł
ëĿ ¼
Ġ C
v er
l y
Ġ A
Ġ on
ëĭ Īëĭ¤
Ġb e
ìĭ ľ
³ ´
Į Ģ
ìľ ¼
Ġ (
ë °
ë ¬
ë ¶
£ ¼
Ġs t
ì Ľ
ê² Į
u l
· ¸
c e
u n
ë ŀ
Ġì ĭ
ĠìĿ ´
Ġì Ĺ
i f
Ë· ,
s e
o d
ìķ Ħ
c h
it h
ìĿ ¸
ì ĺ
Ġ 2
Ġê ²
ì ĥ
Ġë Ĥ
a g
Ġìŀ Ī
ìĬ ¤
ĠĠĠĠ ĠĠĠ
ë© ´
Ġth at
- -
ëĤ ĺ
i r
ëĵ ¤
Ġ =
a b
Ġw ith
t er
e m
Ġë ĭ
Ġ M
Ġì ĺ
ë Ł
Ġì §
Ġê ³
Ġ v
Ġ it
q u
at e
Ġc on
u m
ìŀ Ĳ
Ġ P
ìľ¼ ë¡ľ
r i
Ġa l
p e
ì ²
Ġp ro
ë§ Į
Ġa s
Ġa n
es t
Ġ he
í ĸ
h t
ì ¹
ì Ĥ¬
Ġ B
Ġì Ħ
t h
a p
es s
ë ²
ì £¼
Ġ íķĺ
ìŀ ¥
Ġì Ĥ¬
Ġd e
ĉ ĉ
ãħ ĭ
il l
ëį °
Ġ "
er s
is t
Ë·. Ë·
Ġì Īĺ
) ;
k e
ou t
Ġw h
ê ±
ou r
o c
Ġì ĥ
Ġë ¶
an d
Ġê° Ģ
í Ļ
< /
í Ĭ
Ġw e
Ġa re
e w
= "
Ġ or
ëĭ Ī
o p
ì Ļ
ë ĮĢ
Ġê ¸
Ġìķ Ħ
re s
Ġ D
Ġc om
âĢ Ļ
ìĹĲ ìĦľ
ë ³´
ì Ĩ
ê³ ¼
Ġë ª
Ġ W
a in
he r
ìĿ ¼
Ġ r
Ġë ĵ
êµ ¬
o s
Ġê ·¸
Ġ H
ë ª
u p
Ġ F
as s
or t
o re
ìĽ Ĳ
Ġe x
ë¶ Ģ
Ġ {
ìł ķ
¹ Ħ
en d
í ĥ
ct ion
i v
ì °
í ĺ
Ġ R
Ġ $
n t
Ġ íķ
ĠT he
Ġ L
ìĥ ģ
ì Īĺ
Ġa t
ĠĠĠĠĠĠĠĠ ĠĠĠĠĠĠĠĠ
ê ¹
l d
ro m
ë Ĳ
ìĬ µ
/ /
ë ħ
íĬ ¸
e x
- Ë·
Ġì ĸ
an t
p l
Ġth is
a ve
ar t
Ġs e
it y
Ġë ³´
am e
m ent
Ġc l
ìł ľ
ë ³
Ġ Ð
Ġ E
ãħĭ ãħĭ
Ġì ľ
Ġ N
ëĵ ľ
Ġ G
Ġ '
ig ht
Ġ <
ìļ ©
p t
Ġë ı
u b
Ġê² ĥ
Ġ us
al l
u re
Ġê µ
Ġw as
u e
Ġ \
Ġëĭ ¤
ë Ħ
Ġyou r
Ġë ĮĢ
ag e
Ġ *
ë ¯
Ġì ¢
in e
Ġìĭ ľ
ê ·¸
i ve
u st
Ġë ¬
ìł Ħ
Ġ 0
í Ķ
ëı Ļ
¤ ĳ
Ġf rom
Ġì °
Ġ íķľ
o g
Ġb y
ì Ĥ
Ġn ot
e ct
Ġt r
Ġ 3
¡ °
ìĬµ ëĭĪëĭ¤
Ġc an
Ġê¸ °
Ġs h
Ġc h
Ġh ave
ìł ģ
i es
ĠëĤ ĺ
í Į
ac k
Ë· )
Ġë Ĳ
t r
Ġì ļ
ê° Ħ
ë¬ ¸
ìĻ Ģ
ĠĠĠĠĠĠĠĠ ĠĠĠ
ìĦ ±
ê± °
ë¬ ´
Ġ Ċ
u d
Ġ O
Ġì§ Ģ
ëŁ ¬
Ð ¾
Ġì Ĩ
ê¹ Į
ìĹ ¬
ìĦ ¸
i al
ì¹ ĺ
i z
Ġê ±
ëĬĶ ëį°
* *
Ġ le
ë £
Ġ }
ë§ Ī
Ġìł Ħ
g e
ab le
a v
-- --
p ort
ar d
ìķ ¼
ì§ Ħ
Ð °
ìļ °
el l
o st
ë¶ Ħ
in d
p er
Ġì £¼
íĻ Ķ
a re
r ou
íķĺ ê³ł
o k
ë ¹Ħ
ìĺ ¤
f f
c l
í Ħ
ì ¶
´ Ģ
Ġìł ķ
om e
ou ld
a ct
ìŀ ħ
ëł ¤
Ġ âĢ
ìĹ Ī
ķ Į
" >
Ġ j
íķĺ ëĬĶ
Ġí Ļ
id e
Ġw ill
ìĨ Į
í ģ
Ġìŀ Ĳ
Ġ -
ìĭ ł
ur n
Ġ k
a k
Ë·, Ë·
e re
ul t
ìĿ Į
Ġal l
i p
s p
ic e
íĦ °
Ġìł ľ
or m
! !
í ŀ
Ġw or
as t
Ġë Ħ
Ġa b
.. .
Â ł
¨ ¹
êµ Ń
Ġì¢ ĭ
ëŀ ĺ
Ġ if
Ġp l
Ð µ
i re
Ġin t
Ġ en
Ġë į
Ġ #
( )
an s
c on
Ġd o
= =
ìĤ °
in t
íķ ł
ìĸ´ ìļĶ
Ġ íķ´
í Ĩ
Ġ J
c om
í ı
Ġìĺ ¤
Ð ¸
it e
im e
Ġn e
Ġëª ¨
i le
ì ¦
ĠĠĠĠ Ġ
ex t
he n
as e
ìĹ ħ
Ġë¶ Ģ
Ġcl ass
' s
ac e
íŀ Ī
ic h
ìĭ ¤
ļ Į
Ġë§ Ī
ê¸ Ī
Ġa d
T he
Ġ U
on e
Ġì ²
Ġcom p
ìĭ Ŀ
Ġì ¶
Ë· -Ë·
Ġ 4
Ġí ĺ
Ġìĸ ´
ãħ İ
ë¯ ¸
i b
ì§Ģ ë§Į
at ed
Ġë ³
ëĲ ĺ
i e
a il
ĠìĹ Ĩ
ig n
Ġìķ Ĭ
ìļ ´
al ly
Ġì ¹
Ġ :
Ġ un
ë© °
ì ħ
ìķ Ī
Ġm e
on g
ĳ Ĳ
Ġ im
Ġì Ļ
ëĤ ´
Ġìķ Ī
Ľ Ħ
ion s
ĠìĿ ¼
c c
at h
o ok
í İ
e p
g et
ë¬ ¼
Ġ 5
Ġb ut
ĠëĤ ´
b er
t her
ëħ Ħ
Ġë ²
a ke
ê³ µ
ê° ľ
ëĦ ¤
ëį Ķ
Ġë§ İ
Ġh as
ë Ķ
Ġg o
Ġ up
Ġìĥ Ŀ
t urn
ĠìĿ ¸
Ġê³ ł
Ð ½
Ġ out
íĸ ī
ê ·
Ġí ĸ
Ġë° Ķ
: Ë·
ìŀ Ī
Ġs o
í Ĵ
ĠìŀĪ ëĬĶ
Ġë§ Į
Ġìĥ ģ
an ce
e f
Ġì Ĭ
Ġ qu
Ġa p
ë¥ ´
Ġìľ Ħ
or d
ĠëĲ ĺ
y pe
Ġcon t
Ġê° Ļ
ëį ĺ
Ġì ¤ĳ
u nd
s o
i a
Ñ Ģ
at a
g h
© ëĭĪëĭ¤
ëª ħ
e ar
Ġë ¨¹
od e
ĠI n
ac h
Ġ K
ĠìĨ Į
íģ ¬
Ġ &
f orm
ìĥ Ŀ
ar y
ì° ¨
ou s
l l
ìľ ł
r y
er v
Ġë ķĮ
íķĺ ê²Į
Ġí ı
Ñ Ĥ
ëĭ ¨
Ġì Ĥ
Ë· }
Ġë Ķ
ĠT h
Ġëĵ ±
p ro
d u
Ġí Į
ìł Ģ
Ġ V
ver y
Ġn ew
ê° ģ
Ġm y
ĠìĹ ¬
Ġê³ µ
Ġon e
ì ¡°
í ħ
ê³ Ħ
" ,
Ġì Ľ
Ġê² ½
ìĿ´ ëĿ¼
ëĭ ¹
í ļĮ
an g
ìľ Ħ
Ñ ģ
ìĦ ł
ê² ½
Ġìŀ Īëĭ¤
st r
Ġí Ķ
Ġm ore
j ect
it ion
k s
Ġë ¹Ħ
il d
Ġwh ich
ë² Ī
l o
( Ë·
Ġthe ir
íĸ Ī
Ġë ¯
Ġ our
Ġre s
ation s
Ġthe y
e g
ou nt
ìĸ ĳ
ì² ´
ent s
Ġg et
en s
íĴ Ī
íĥ Ģ
Ġa r
ì ¤
Ġì ¡°
Ġëĵ ¤
ìŀħ ëĭĪëĭ¤
l ic
r a
) ,
ë° ©
res s
t e
re f
Ë· %
Ð¾ Ð
ìĺ ģ
Ġs u
Ġëį Ķ
_ Ë·
Ġêµ ¬
f t
ê ´Ģ
ìķ ĺ
ëĵ¤ ìĿ´
I n
ì Ī
Ġp er
ĠĠĠĠĠĠĠĠ ĠĠĠĠĠĠĠ
Ġm an
ìĿ´ ëĭ¤
íĸ Īëĭ¤
on t
ì ¤ĳ
o se
Ġìľ ł
ì ¡
Ġ Y
ow n
ëł Ī
ro w
ê² ł
ë§ ¤
Ġl i
ìĽ Ķ
_ {
Ġë§ Ĳ
Ġs p
ìł Ĳ
ì ½
ic al
Ġìĭ ł
re e
Ġë¶ Ħ
ëª ¨
ê± ´
ìĹ °
) .
Ġí ĥ
ê¹Į ì§Ģ
al ue
Ġh is
Ġd is
ëŀ Į
ĠìĬ ¤
un ction
p le
ìŀ ¬
ì² ľ
o ve
Ġan y
ì§ ĳ
Ġab out
er t
Ġe v
ìĹ Ń
Ġ /
Ġt ime
ìĭ ¬
Ġë§ Ľ
ê »
Ġ 6
ëŀ ĳ
Ġë Ĭ
en ce
or y
Ġë¬ ´
Ġo ther
Ġs c
l i
el y
Ë· :Ë·
ĠìĦ ł
p s
ëł ¥
Ġof f
Ġí Ĩ
íķ Ļ
re at
Ġìł Ģ
Ġ [
ìŀ ĳ
el f
---- ----
Ġê± °
Ġë° ©
or s
Ġp art
ing s
ar k
Ġal so
ë ¸
ic k
Ġê ¹
í ĭ
ì ¢
ĠS t
c k
ë§ Ĳ
Ġp r
Ġì§ Ħ
re d
Ġwor k
íķ´ ìĦľ
ëŁ °
o b
in k
ou nd
o v
Ġ .
Ã ©
Ġre turn
Ġìŀ ĺ
n e
ãħ ł
ë©´ ìĦľ
Ġd es
ëĲ ľ
í Ĥ
Ġëı Ħ
ul l
ë£ Į
Ġí ģ
ëĬ ¥
ay s
Ġìļ °
µ ľ
ë£ ¨
' ,
Ġw hen
d iv
oc k
Ġìĺ Ī
ĠI t
íĺ ¸
Ġë ©
ë¥ ¸
ë ĳĲ
Ġst r
ver s
íĶ Ħ
Ġìŀ ħ
Ġê ´Ģ
âĢ Ŀ
Ġëı Ļ
i ew
ë° Ķ
Ġë¯ ¸
Ġwh o
í Ĺ
Ġ ro
- >
íĶ ¼
ëĭ ĺ
iz e
Ġ +
ĠìĹ °
Ġ //
: :
Ġt e
ìļ ¸
Ġìķ Į
´ Ī
êµ Ĳ
Ġh ad
Ġs ome
ëĶ Ķ
p h
~ ~
Ġo ver
Ġthe m
íĮ Į
ol d
ìĸ´ ìĦľ
ë² Ħ
Ġë Ĩ
ub lic
ì¹ ´
ë¦¬ ê³ł
Ġk n
ĠC h
sp an
ì Ķ
he re
Ġë ¹
Ġ 7
ĺ Ĳ
ter n
ìĹĲ ëĬĶ
ëĭ¤ ê³ł
( "
e c
v el
cl ud
ì £
ì² Ń
et h
Ë· ;
ë ¹
ir st
Ġne ed
ĳ ľ
ëĤ ľ
l ow
ëł ĩ
Ġë ħ
Ġthe re
Ġ( Ë·
ãħİ ãħİ
ĠìĦ ¸
ĉĉ ĉĉ
ê° Ĳ
Ġa g
Ġli ke
Ī ë¬´
/ Ë·
ëĵ ł
us e
Ġbe en
ë ģ
ê² ĥ
Ġw ould
ì² ĺ
o ol
w e
ìĹ Īëĭ¤
ëĦ¤ ìļĶ
Ġwe re
ê² ©
pe c
Ġ 8
íĨ µ
Ġc ol
Ġë° ľ
Ġy ear
ìĽ Į
ĠìĦ ľ
Ġë§ ¤
s c
ë¡ Ŀ
Ġhe r
ë¯ ¼
Ġa m
ë ĥ
Ġê ·
is h
u g
.. ..
le ct
Ġ und
ë° ľ
ìĦ¸ ìļĶ
S t
ë° ĺ
íı ¬
ãħĭãħĭ ãħĭãħĭ
Ð »
Ġìĺ ģ
ì§ Ī
Ġs a
Ġí İ
y st
ê» ĺ
at er
ìĨ į
u al
ë¦ Ħ
Ġad d
Ġf e
{ \
ëĬ ĺ
Ġwh at
Ġp re
** **
r am
Ġs et
s et
pt ion
ëĭ¤ ëĬĶ
ĠìĥĿ ê°ģ
Ġth an
c es
Ġint o
ĠW e
Ġê° ľ
p ut
Ġit s
ìŀ Ħ
he d
ì ¸
í ĽĦ
ĠâĢ ľ
ì ¼
ë ´
Ġcom m
t t
ë² ķ
Ġí ĽĦ
ri b
ì¶ ľ
Ġ i
Ġì ¤
' t
s s
ĠìĿ ĺ
ìĹĲ ê²Į
a x
Ġíķ ł
Ġn o
Ġ </
Ġí Ĭ
if f
ad e
Ġ _
w o
Ġì¶ Ķ
E R
Ë· ]
ë¦ °
en er
Ġë° Ľ
Ġs up
Ġê³ Ħ
ì§ ģ
ĠTh is
ĠìĽ Ĳ
rou nd
o y
Ġp e
Ġìŀ ¥
ë³ ¸
ìĺ Ģ
ap p
Ġj ust
ê° ķ
Ġh ow
ê· ¼
yst em
on d
Ġì µľ
Ġe m
ã ģ
pe ct
ĠíĨ µ
: //
Ġl a
ig h
ëįĶ ëĿ¼
Ġa cc
Ġus e
ar i
o int
at es
Ġë Ī
it t
ĠëĶ °
Ġ 9
Ġpro v
l es
ë¶Ģ íĦ°
ĠìĤ¬ ëŀĮ
ì »
i el
i x
Ġë¬ ¸
f ter
Ģ ìĿ´
ë ķĮ
ic t
m l
er r
Ġon ly
Ġê° ķ
p ar
== ==
c ess
ìķ ½
n ing
an ge
T h
Ð º
^ ^
on s
í Ŀ
Ġ @
Ġíı ¬
if ic
( );
Ġì° ¨
Ġn ame
> <
íĭ °
Ġìĭ ¤
ì¦ Ī
Ġm ay
ĠìĦ ±
Ġre c
Ġë¬ ¼
Ġìĺ ¬
Ġ$ \
is e
n g
Ġo b
íħ Į
Ġ |
Ġë° °
ì£ ł
ë ĸ
ĠëĤ ¨
íĨ ł
Ġê° Ĳ
ê ¶
íĺ ķ
Ġde f
Ñ ĥ
Ġb l
l ine
Ġb u
íķĺ ê¸°
Ġê± ´
ëłĩ ê²Į
Ġìŀ ĳ
ìłģ ìĿ¸
íķ ©ëĭĪëĭ¤
Ġf irst
Ġì ±
s h
Ġb ack
Ġë¶ Ī
i an
ĠìĤ¬ ìļ©
Ġì Ī
Ġêµ Ń
our ce
w n
Ġm ake
ĠëĬ Ĳ
ĠëĦ Īë¬´
Ġì ¦
ë¦ ¼
ëĭ ¬
ì½ Ķ
rou gh
Ġhe l
is s
Ī ¬
Ġë° ĺ
er m
íİ ĺ
íĥ Ŀ
Âł Ċ
i ent
ê¸ ¸
ĠìŀĪ ìĬµëĭĪëĭ¤
Ġbe c
Ġëĵ¤ ìĸ´
Ġb et
Ġo p
Ġìŀ ¬
ëĤ ¨
Ġì »
ì ±
ëĤ ł
op le
Ġs erv
I N
ì¤ Ģ
´ ĳ
Ġg r
ìłģ ìľ¼ë¡ľ
ic es
th is
p r
um ber
Ġ ke
i o
Ġs he
t y
Ġl ook
Ġf unction
Ġ el
iel d
Ġëª »
Ġkn ow
êµ¬ ìļĶ
ri v
Ġb r
ê¸ ī
ĠíĶ ¼
t o
Ġë ĳĲ
w w
ìĺ Ī
Ġd iff
Ġì ½
ìł ¸
Ġm od
t d
a use
Ġp ublic
ë³ µ
íĤ ¤
Ġas s
Ġë ĺĲ
Ġre g
c re
_ _
Ġìł ģ
o od
y s
Ë· "
Ġp os
o id
ì¢ ħ
Ġf in
O N
Ġpro du
m ath
í ĳľ
ĠëķĮ ë¬¸
Ġre qu
at ing
( '
íķ ¨
Ġë ģ
Ġìļ Ķ
al s
b le
or k
ĠíĻ ķ
Ġë§İ ìĿ´
ĠâĢ ĵ
Ġthe n
Ġm ost
Ġw ant
ĠH e
ment s
Ġc o
ĠìĤ ´
Ġth rough
ì¶ Ķ
ĠìķĦ ëĭĪ
Ġcon s
i ed
ot h
f r
ib le
Ġa ct
Ġp h
ar g
Ġin clud
ìĦ Ŀ
> </
Ġund er
m er
Ġëħ ¸
Ġt wo
Ġíķ ¨
tr ing
Ġd ata
ĠĠĠĠĠĠĠĠĠĠĠĠĠĠĠĠ ĠĠĠ
ì¦ Ŀ
Ġse e
p os
Ġëĵ ľ
m a
e v
Ë· \
¨ ¸
Ġw ell
Ġin d
ëĵ ±
Ġthe se
f ul
Ġìĭ ¶
Ġê² °
ic s
Ġe very
Ġëĭ ¨
f ig
ou gh
ìĦ ¤
at ch
Ġpe ople
n ame
ëĭ µ
ul ar
Ġí Ŀ
ìĪ ł
Ġv alue
a ir
it ies
Ġre l
an c
ĠìĦ ¤
Ġhel p
. "
Ġ ent
Ġsh ould
Ġw here
E x
íĹ ĺ
{ Ë·
Ġa c
ë° °
Ġëĭ ¬
# #
íĥ ľ
r it
Ġì§ ĳ
Ġre m
ëŁ ¼
Ġíĺ Ħ
ìķĦ ìļĶ
ëĵ¤ ìĿĢ
ëŁ ī
re ad
ëŀ Ģ
Ð ²
íĺ Ħ
en c
u ch
Ġíĸ Ī
r ay
il ity
Ġíķĺ ëĬĶ
ĠY ou
Ġs pec
ìħ ĺ
Ġ !
ê¶ Į
Ġc ould
le t
= Ë·
t ext
Ġs m
Ġì° ¸
u res
it s
Ġin v
Ë· -
Ġs ub
ì¡ ±
ìł Ī
il y
ë¦¬ ëĬĶ
Ġl oc
r ap
ht t
) )
b l
Ġ end
íİ ¸
.. /
o x
ar ch
ĠìķĦ ìĿ´
Ġíķ Ħ
as h
i ous
Ġëĭ ¹
u ct
ê² °
e qu
ë Ĩ
ĠíĮ Į
ëĭ ´
Ġë ¸
at ic
ë§ Ľ
ìĺ ¨
Ġ very
ĠĠĠĠĠĠĠĠ Ġ
Ġw ay
ë¸ Į
íķľ ëĭ¤
en g
ì ´Ī
R E
Ġin st
Ġc all
an y
ur re
at or
Ġat t
u es
ð Ł
ë³´ ëĭ¤
Ġêµ Ĳ
íķĺ ìĹ¬
Ġ* /
ìĥ ī
c he
P ro
em ent
ess age
ìĸ µ
[ Ë·
ëħ ¸
at ive
ëĿ¼ ê³ł
pl ic
Ġfor m
Ġc he
t ing
Ġê³ ³
Ġíķĺ ê³ł
re turn
Ġex per
as ed
Ġst art
íĶ Į
ĠU n
Ġíİ ¸
c ol
Ġsu ch
ë° ķ
ãħł ãħł
ag es
ìĹĲ ëıĦ
S T
al e
c o
if e
n er
Ë· /Ë·
rou p
ì§Ģ ëĬĶ
Ġê° Ħ
} }
Ġman y
Ġê°Ģ ëĬ¥
ìľ¼ ë©´
Ġì¹ ´
Ġíķĺ ëĤĺ
ab el
n ce
ë ¨¹
ê¸° ëıĦ
Ġê²½ ìļ°
t s
Ġa fter
Ġtr ans
Ġst ud
Ġf ind
ĠI f
w ard
Ġr ight
Ġc re
ers on
ĠíĻ Ķ
Ġs im
ë³ Ħ
er y
t he
Ġev en
ìĭľ ê°Ħ
Ġn ow
Ġp ar
ī ´
o f
ut e
Ġgo od
ëª ©
ol og
íĮ Ĳ
Ġì¶ ľ
id ent
in ess
Ġsa id
ìĿ´ ëĤĺ
ìĻ ¸
form ation
s elf
ë Ī
Ġus ed
ê¸° ë¥¼
Ġìĸ ĳ
Ġdiff ere
Ġ â
Ġë§ ŀ
ĠíĬ ¹
b r
ow er
A T
ĉĉ ĉ
ë© Ķ
Ġ ,
Ġres ult
ation al
Ġë§Į ëĵ¤
ìĭľ ëĬĶ
ut ion
Ġl ong
d d
d ay
N ame
i er
ë¦ ½
t on
Ġt ype
Ġin ter
Ġre ad
íĮ ħ
Ġê³ ¼
êµ °
Ġm in
ot her
d er
h at
Ġd own
íķ ©
Ġa v
Ġ z
ak ing
ĠP ro
ol low
Ë· $
Ġg reat
ª ½
eth od
Ġì¢ĭ ìĿĢ
Â ·
Ġíķ¨ ê»ĺ
n a
Ġê²ĥ ìĿ´
ĠìĹ ´
ë¸ Ķ
t a
ìľ ¡
Ġf l
Ġí ŀ
Ġo wn
ì§ ľ
Ġe ff
· ¨
Ġì° ¾
ë¡ ł
íķĺ ì§Ģ
Ġn umber
a z
ì ģ
Ë· _
Ġb us
Ġì§ ģ
im port
an k
Ñ ı
ĠëĤ ł
ĠC om
n c
am p
Ġíģ ¬
ê² ¨
m s
ëĮĢ ë¡ľ
W e
Ġh and
Ġë Ŀ
ire ct
íĸ ¥
Ġìł Ĳ
Ġì¹ ĺ
e ad
Ġë ĸ
ëł ¨
s er
Ġh im
ìł ĳ
Ġyear s
ht ml
Ġh igh
f ore
vel op
íķĺ ë©´
ĵ °
Ġd et
ĠëķĮë¬¸ ìĹĲ
-------- --------
Ġd on
l ed
Ð ¼
ë¥ ĺ
ĠëĲ ľ
Ġh ref
Ġìĭľ ê°Ħ
íĻ ĺ
ere d
urre nt
r ight
Ġb est
ur ing
Ġc ar
ad d
Ġí Ĺ
Ġl ist
Ġsh ow
y le
Ġìĥ Ī
Ġus ing
od y
Ġa ut
ëĿ ½
ĠìĤ¬ ì§Ħ
i ence
Ġe ach
Ġì¢ĭ ìķĦ
im es
ri pt
Ġdo es
ìħ Ķ
Ġg u
" :
Ð ´
ĠëĮĢ íķľ
Ġë§Ľ ìŀĪ
v ent
Ġë° ı
ìĶ ¨
Ġd id
Ġpl ay
ĠìĨ Ĳ
I t
y m
Ġs ystem
Ġhe re
Ġm uch
Ġbec ause
ust om
Ġp res
Ġ$ Ë·
e e
d ef
Ķ ëĭ¤
Ġìļ ´
re n
Ġd el
Ñ ĸ
Ġìļ° ë¦¬
Ġë© Ķ
íķĺ ëĭ¤
ĠìĹ Ń
in s
f o
Ġb el
ĠíĶ Ħ
Ġde c
it ed
ìĨ ¡
I d
con d
Ġê± ¸
} ,
am es
ëĵ¤ ìĿĦ
Ġê°Ļ ìĿĢ
Ġìĭ Ŀ
el s
T ype
C ont
Ġë ´
ĠA r
ìĹ Ĩ
ìĤ ´
Ġs er
g an
ê ´ĳ
L E
Ġìłķ ë§Ĳ
Ġbe fore
Ġp ol
at ure
Ġì½ Ķ
a w
Ġí ļĮ
Ġ x
Ġí Ĵ
Ġs ur
O R
Ġì ´Ī
ìĿ¸ ëį°
Ġf ollow
Ġs elf
Ġd ay
ê¸° ê°Ģ
íı ī
Ġë ¦
Ġre f
u c
ĠĠĠĠĠĠĠĠĠĠĠĠĠĠĠĠ ĠĠĠĠĠĠĠĠĠĠĠĠĠĠĠĠ
Ġs ol
Ġìĭľ ìŀĳ
ìĿ´ ëĬĶ
in ce
in es
A R
e ver
Ġap p
ìħ ¨
e k
ĠìĻ Ħ
Ġ= >
ìĿ´ëĿ¼ ê³ł
ê° Ļ
ĠâĢ ĺ
Ġt ake
ëĵ¤ ìĿĺ
ã ĥ
Ġs om
Ġê¹ Ģ
et s
an n
í ļ
Ġìĸ´ ëĸ
Ġê² Į
ction s
Ġ )
Ġíĸ ī
Ġin formation
g ram
ĠìĿ Į
ëĬĶëį° ìļĶ
Ġc or
S tring
Ġg ener
Ġv al
Ġcon st
Ġì² ĺ
Ġdes ign
C on
Ġm on
ĠìĹ Ĳ
iz ed
Ġd i
ë§ Ŀ
ĠA nd
m in
a ult
ëĦ Ī
v iew
Ġëı Į
b s
ëįĶëĿ¼ êµ¬ìļĶ
ì¸ µ
t ain
Ġv is
ĠëĬĲ ëĤ
Ġm ade
Ġê ¼
Ġë§İ ìĿĢ
Ġíķ ©ëĭĪëĭ¤
t ype
um ent
Ġf am
ëĭµ ëĭĪëĭ¤
íķ Ń
Ġag ain
ìķĦ ìĦľ
ê¸° ìĹĲ
a ut
ĠìĻ ¸
Ġm em
we en
íĿ ¬
Ġì ´
Ġh ome
al ity
ou se
ë§ ī
Ġíı ī
ì ´
al se
ìĬ¤ íĬ¸
eg in
Th is
Ġin s
Ġf r
Ġdiffere nt
Ġs ame
ê¸ Ģ
i k
Ġf il
ëŀ ľ
u ally
v ar
ĠA l
ire d
w ay
ì ª½
ì¹ ¨
^ {
( \
b e
E N
id er
Ġwh ile
ĠëĿ ¼
Ġbe ing
Ġt est
C h
ĠìľĦ íķ´
Ġl ine
ë ī´
Ġ ed
Ġìłķ ëıĦ
e le
ì§Ģ ê³ł
Ġr un
ìĹ Ķ
Ġp erson
lo ad
Ġim port
er n
Ë· :
Ġch ar
ëĭĪ ê¹Į
ar n
ã Ģ
Ġíķ Ļ
Ġíĥ Ģ
C om
Ġê¸ Ī
ë ¨¸
, ,
**** ****
Ġ >
Ġth ink
Ġì¤ Ģ
ch n
ëĲĺ ìĸ´
p x
ëħ Ģ
Ġth ose
ĠF or
id th
} \
ëĬ Ĳ
Ġbus iness
par am
Ġpro cess
l and
at her
Ġë³ ¸
y p
ë° ±
Ġ ãħİãħİ
I D
p on
ê³ ³
Ġìķ ½
ĠìŀĪ ìĹĪ
Ġm ed
ìĹĲ ìļĶ
qu e
al th
Ġëĭ¤ ë¥¸
Ġv ari
in ed
Ġm ark
Ġíķľ ëĭ¤
Ġp oint
Ġde velop
Ġë°Ķ ë¡ľ
ĠëĪ Ī
Ġì¹ ľ
A L
ce pt
? ?
ëıĦ ë¡Ŀ
Ġìķ ŀ
ac he
I T
am ple
^ Ë·
it le
p ress
Ġbet ween
ĠëĨ Ĵ
Ġd ist
al k
Ġì² Ń
Ġprodu ct
Ġ est
ë¶ Ī
ë¦¬ ë¥¼
ĠìĹ Ħ
a h
Ġs k
o ver
ëłĪ ìĿ´
b egin
į ¼
Ġ= =
Ã ¡
m od
ĠÐ ¿
Ġë¦ ¬
Ġ `
ê·¸ ëŀĺ
âĢ Ķ
ĠT r
Ġs ign
Ġg iv
cl ass
l ass
Ġc ase
c ode
c ent
ĠìĤ °
ĠëĦ ĺ
Ñģ ÑĤ
Ġì¢ ħ
f unction
Ġl ast
A N
Ġf ound
ess ion
ê± ¸
ìĺ¤ ëĬĺ
Ġsup port
ê¹ Ģ
ch ool
íĻ ©
ëĿ¼ ëĬĶ
Ġc le
ê° Ī
ĠA n
ar s
ĠíķĦ ìļĶ
Ġ Q
ëĥ ¥
Ġto p
Ġwor ld
ë³ Ģ
ro l
Ġ err
r ic
} $
ìĭľ ë©´
ĠS h
Ġar t
ot t
R es
Ġëª ©
ëł ¸
as on
Ġìĭ ¬
ë¦ ´
Ġìłľ íĴĪ
Ġì§Ħ íĸī
ì° ½
Ġprov id
ë¦¬ ê°Ģ
Ġìĸ ¼
f or
ëŁ ½
íĻ ľ
ã Ĥ
ot e
Ġì¢ Ģ
ak es
ê¸ ´
ìĥ Ī
v al
Ġë Ĵ
ëĲĺ ëĬĶ
en se
+ Ë·
Ġíĺ ¸
Ġë³ Ģ
ce ption
Ġl ife
ì²ĺ ëŁ¼
re am
Ġc ount
Ġe as
¨ ¼
Ñ Į
L ist
b ack
ì» ¤
Ġb oth
Ġíŀ ĺ
ĠìŀĪ ìľ¼
g ht
Ġì² ´
o ot
ĠìĨ į
ĠE x
Ġì» ¤
cc ess
Ë· );
ìŀĪ ëĬĶ
Ġp ost
Ġë Ń
ĠëĶ Ķ
d ata
ë° ¥
Ġë² Ħ
Ġch ild
í Ī¬
Ġí Ī¬
../ ../
ëĵ Ŀ
riv ate
Ġa round
ì± ħ
ĠA s
ìĺ ¬
Ġì¤ Ħ
Ġ ãħĭãħĭ
Ġë§Ī ìĿĮ
ì¡ Į
Ġel se
ĠĠ Ċ
s on
per ty
ìĹĲìĦľ ëĬĶ
Ġì ī
m e
Ġë ¡
Ġì¦ Ŀ
ind ow
¾ ¸
ê·¸ ë¦¬ê³ł
ter s
Ġì° į
ĠëĶ° ëĿ¼
le ase
Ë· '
Ġ et
Ġê¸ ¸
c al
Ġc r
Ġre p
Ġtr ue
n ess
at t
eng th
ìĸ ¸
Ġê°Ģ ìŀ¥
S E
Ã ³
T o
íĬ ¹
Ġëį °
w ays
ar m
Ġtr y
==== ====
Ġê·¸ ëŁ°
d e
ìĿ´ íĬ¸
are nt
ĠëĬĲëĤ Į
Ġp ass
Ġ Ã
ìĿ´ ê³ł
Ġ Z
ê¸° ëĬĶ
g y
, "
~ Ë·
I C
ëĵ ¯
ìĬ ¹
l abel
are d
u le
ail able
ì ³
ĠëĪ Ħ
ì° ©
ĠíĻ ľ
A r
ëĭ¤ ê°Ģ
½ ĥ
Ġst ill
ì ī
as k
Ġpl ace
Ġre sp
Ġëĭ ´
Ġex t
ĠëĦ £
ĠN ew
ê±° ëĤĺ
Ġap pro
Ġí ħ
v en
ĠÐ ²
Ġc ustom
Ġw r
Ġle ad
h ip
if y
ë² ł
Ġm ain
Ġpro f
íķĺ ìĦ¸ìļĶ
ant s
rap h
ì¹ ľ
Ġv oid
ĠíĮ Ĳ
ìĻ Ķ
ro ll
ĠB ut
Ġpos s
Ġe le
"> <
Ġc our
Ġbu ild
ĠìĿ´ ìĥģ
c ed
l ess
pl ay
Ġc ent
Ġv ar
ì¶ ķ
Ġì ĵ°
Ġ --
a j
ëı ħ
ë³ ĳ
d ate
Ġë² Ī
Ġë ł
Ġm ust
Ġb re
Ġëª ħ
n ew
m an
ist s
Ġê· ¼
ìķĺ ëĭ¤
Ġpro gram
Ġle t
Ġb ook
Ġ id
es c
ë¶ ģ
is hed
Ġc are
Ã Ń
Ġpart ic
ëł ¹
íķ´ ìķ¼
Ë·) ,
ìĽ Ģ
p p
Ġsm all
ìĪ ľ
ĠìĪ ľ
ro ss
Ġëģ Ŀ
in al
Ġop en
oc i
_{ \
Ġe qu
ë° Ľ
us s
Ġ X
Ġl o
ÑĢ Ð°
ê°Ģ ëĬĶ
o le
ĠìĦł íĥĿ
Ġcomm un
i vers
Ġre ally
Ġto o
w are
ľ ´
le ft
" )
ri end
us h
ĠC on
Ñ ĭ
Ġre al
Ġë¸ Ķ
Ġí ļ
Ġë³ ¼
Ë· /
Ġo per
į ëĭĪëĭ¤
ĠìĿ´ ëłĩê²Į
ìķ ł
Ġf ree
ì§ ¸
a u
ĠìĿ´ ìļ©
av ing
Ġn ull
Ġall ow
ĠìķĦ ëĭ
f e
ĠíĨµ íķ´
Ġb o
Ġëĭ¤ ìĭľ
p re
Ġp ur
e y
tr ans
t en
Ġc urrent
av a
con t
ê°Ģ ì§Ģ
Ġpro ject
itt le
Ġo pt
íģ ¼
em s
ĠìĹĨ ëĬĶ
íķ´ ì£¼
S S
ë¡ľ ê·¸
Ġìĸ ¸
Ġf act
Ġpro ble
ĠìŀĪ ìĸ´
ot s
ĠĠĠĠĠĠĠĠĠĠĠĠĠĠĠĠ ĠĠĠĠĠĠĠ
er ing
ere st
Ġdis c
Ñ ĩ
ĠìŀĪ ìĸ´ìļĶ
Ġserv ice
Ġhe ad
u ff
Ġì± ħ
ëĭ¤ ë©´
Ġìĺ ¨
ww w
Ġf ile
Ð½ Ð¸
b ject
Ġíģ °
b ers
htt ps
ìĿ´ ì§Ģ
et a
b y
Ġgo ing
!! !
į ¨
n ot
Ġ ide
Ġê²ĥ ìľ¼ë¡ľ
t il
Ġte chn
fr ac
ê ¼
ë³ ¼
Ġê° ģ
Ġëª¨ ìĬµ
Ġwith out
w ork
Ġc ap
ĠThe y
ar get
ê° Ŀ
T r
) :
C T
Ġm ethod
Ġp at
com m
Ġad v
Ġê² Ģ
ĠS e
Ġê ¶
Ġav ailable
Ġë¹ ł
Ġs l
â ĸ
if ied
Ġf ew
ì¦ ĺ
ì± Ħ
re en
ĠìŀĪ ìĸ´ìĦľ
Ġte am
Ġor der
Ġì§Ģ ëĤľ
Ġh app
f l
ë ĺĲ
ver t
r r
Ġë¬¸ ìłľ
Ġd irect
eth ing
D ata
iz ation
íķĺ ë©°
Ġëª¨ ëĳĲ
âĢ ¦
Ġse cond
th ing
or g
Ġm at
A A
un g
ĠëĤĺ ìĺ¤
I f
ain ing
st and
ĠH ow
ë ĳ
ì ¿
ur al
Ġde p
ĠíĻ ĺ
Ġth ree
olog y
// //
Ġke ep
ìķ ¡
Ġh tt
ain s
ëģ ¼
ê³ł ìļĶ
Ġn ext
et er
ĠD e
" );
ĠëĴ ¤
it al
iv es
ìķ ħ
Ġì¡° ê¸Ī
Ġì± Ħ
ar ly
ĠĠĠĠ ĠĠ
str ing
ê² ¬
is ion
Ġal ways
ìĹĪ ìĸ´ìļĶ
l og
Ġí ĳľ
ke y
ĠìŀĪ ìĿĦ
r al
ìĿ µ
ou ght
ë§ ģ
ent ial
et y
ĠëĲ ł
D E
Ġeff ect
vers ion
Ġcont in
Ġper form
ìĹ ´
um m
Ġst and
s ub
Ġ Ñģ
Ġl ove
Ð¾Ð ²
Ġê·¸ ë¦¬ê³ł
Ġch o
Ġs ay
Ġqu est
Ġcon f
ĠìĹ ħ
ra w
s ource
Ġpl an
v ed
g r
enc y
íķĺ ì§Ģë§Į
v alue
Ġì º
m ed
g er
e q
ar ge
A s
Ġíķľ êµŃ
L L
Ġì¤Ģ ë¹Ħ
Ġs ure
Ġì¶ ©
Ġëĭ¤ ìĸĳ
m essage
Ġcom e
a it
Ġì ·¨
at us
em ber
Ġd r
Ġì¦ Ĳ
h or
Ġl ittle
' )
pl oy
Ġfe el
C ol
o pe
ĠP l
ë§Į ìĽĲ
le ction
ĠW h
Ġv iew
Ġke y
ĠìĿ´ ëŁ°
ì¡ ´
Ġw ater
Ġt ri
ĠìŀĲ ìĭł
Ġ' Ë·
op t
Ð ·
f ace
Ġê° Ī
is m
b o
Ġê°Ģ ê²©
ë ľ
Ġst ate
Ġëł Ī
Ġìķ ł
ì¸ ł
htt p
Ġle vel
Ġd uring
Ġë¶Ģ ë¶Ħ
i or
b ar
ê²ł ìĬµëĭĪëĭ¤
) $
Ġre ce
Ġìĺ¤ ëĬĺ
Ġsom ething
Ġan other
as es
ìĹĪ ëĬĶëį°
at s
ìķĦ ìĿ´
Ġt em
Ġob ject
Ġc ou
ĠS he
y n
Ġis s
le x
ëħ ķ
ail s
ìĸ ¼
Ġê²ĥ ìĿĢ
Ġp ut
A M
Ġcomp any
Ġor gan
ëģ Ķ
íķĺ ë©´ìĦľ
Ġth ings
Ġex pect
u ild
Ġf ield
ìĬ¤ íĥĢ
ĠíĨ ł
F or
Ġm ight
âĢ ĵ
ëĥ Ĳ
Ġìŀħ ëĭĪëĭ¤
re m
Ġf alse
ìĭľ ê³ł
erv ice
Ġint erest
Ġíĸ Īëĭ¤
ĠíĻķ ìĿ¸
Ġë° ķ
íķ ĳ
Ġ -Ë·
ĠĠĠĠĠĠĠĠ ĠĠĠĠĠ
ìĤ¬ ë¥¼
he ad
. Ë·
Ã ¤
=" Ë·
ìľ ¨
t ime
íı °
Ġê°Ļ ìķĦìļĶ
l oc
Ġìŀ Ħ
Ð ¿
re qu
Ġë³´ ê³ł
Ġev ent
mer ic
ì³ Ĳ
Ġche ck
Ġê²ĥ ìĿĦ
Ġbet ter
um n
s w
Ġ ve
g o
Ġs ince
Ġmon th
Ġm et
oc ument
ì¼ Ģ
Ġìŀ ¡
Ġmark et
Ġ ~
Ġo ld
ëĤĺ ëĬĶ
ì° ¬
Ġp rivate
or n
. _
Ð ¹
Ġloc al
Ġacc ess
Ë·) .
Ġíļ ¨
Ġap plic
o h
ì¢ ĭ
Ġstr ing
ere nce
Ġinclud ing
r m
ìĹĪ ìĬµëĭĪëĭ¤
Ġcre ate
] ,
ĠThe re
E D
ĠR e
( $
ĠìķĦëĭĪ ëĿ¼
ĠìķĬ ëĬĶ
Ġimport ant
Ġê·¸ ëŀĺ
a ction
Ġfam ily
ìĦ ¼
Ġp ay
Ġexper ience
Ġíĸ ¥
ĠëĦ ¤
Ġë° Ŀ
Ġwe ek
i que
i um
Ġl ight
g round
it ions
ĠìĤ ¼
Ġë§Įëĵ¤ ìĸ´
A n
Ë· ~Ë·
ord er
/ >
Ġt erm
íĺ Ģ
ĠC ol
ìŀĲ ê°Ģ
Ġê· Ģ
Ġë¸ Į
at ely
ĠF r
ì§Ģ ë¥¼
Âł Âł
Ġë ¿
Ġprov ide
í į¼
ro p
Ġf ull
in ter
ĠA ll
ĠëĲĺ ìĸ´
ëĵ¤ ëıĦ
Ġë¡ ľ
Ġin cre
c ite
ĠìĻ Ģ
am b
ĠI nd
tr act
u f
ì µľ
Ġhe alth
ĠìŀĪ ê³ł
ĠS o
r on
p or
Y ou
Ġwith in
íķ Ħ
ì¤ Ħ
v es
Ġë² ł
Ġê ´ĳ
R O
l ation
V alue
he s
Ġf riend
Ġì¶Ķ ì²ľ
n ect
Ġ u
g g
t op
íļ į
ic ally
A C
Ġt ext
Ġs ize
l er
) {
Ġc ert
. ,
Ġc ost
Ġ ?
Ġab le
Ġn on
op y
str uct
; ;
Ġre st
Ġë³ µ
Ġê¸ Ģ
it em
ìŀ¥ ìĿĦ
u ck
ë´ ī
ĳ ¸
ro id
ut es
b f
Ġt urn
Ġcon d
os s
ãħ ľ
s ize
ĠìĹ¬ ëŁ¬
ì° °
d a
ëĿ¼ ìĿ´
ab ility
se arch
ëĪ Ħ
ate g
ìĶ ©
ĠÐ ½
Ë· ">
i ents
if t
ë¹ ł
Ġg ive
Ġë°© ë²ķ
Ġì£¼ ë¬¸
Ġíķľ ë²Ī
Ġs chool
ir on
Ġne ver
as ter
Ġman ag
Ġg row
ìģ ĺ
t est
iss ion
Ġex pl
id d
r c
Ġpres ent
Ġserv ices
Ġì ¡
lo b
[ '
Ġh ard
íĥ ķ
Ġde v
Ġì§Ģ ê¸Ī
Ġê°Ļ ìĿ´
l ist
ur s
", "
Ġíħ Į
Ġp ower
ìĿ´ëĿ¼ ëĬĶ
Ġp op
Ġë¨¹ ê³ł
Ġë ĳ
Ġs pe
ï ¼
Ġdes c
Ġ es
um p
Ġë§ ī
ĠI s
Ġle ft
Ġd em
Ġc ode
ê¸° ë¡ľ
Ñ ħ
b b
ë¹Ħ ìĬ¤
ëł¤ ê³ł
íģ ´
a ff
ìĺĢ ëĭ¤
in a
ì º
Ġre port
our s
ìŀĲ ëĬĶ
O bject
ë³´ ê³ł
íĺ ¼
a pe
Ġ %
ac es
ĠìĤ¬ ëŀĳ
Ġs ing
ì£¼ ëĬĶ
ìļ ±
Ġí Ĥ
Ġch ange
it or
íķ´ ìļĶ
Ġin tern
l ing
Ġd er
Ġare a
ition al
re g
Ġë ¨¸
f ile
Ġfin al
ìŀ¥ ìĿ´
Ġê²ĥ ìĿ´ëĭ¤
ĠìķĬ ê³ł
Ġch ang
V iew
Ġspec ial
Ġì²ĺ ìĿĮ
ĠA meric
ìķ Į
Ġs it
Ġg ot
j s
c i
c le
ĠìĤ¬ ìĿ´
Ġëª¨ ëĵł
ĠíĶ Į
ê· ¹
Ġ| |
rr or
r ation
íĻ ķ
ëħ Ĳ
Ġìļ ©
Ġì°¾ ìķĦ
Ġro om
Ġì§Ħ ì§ľ
d s
r ist
p ly
Ġìł ĳ
one y
Ġë ľ
Ġas k
S et
Ġex p
ì§ Ŀ
, Ë·
ë³´ ëĭĪ
Ġl ess
iv ely
Ġíģ ´
oc us
Ġl ot
Ġg roup
ìĹ Ħ
ĠìľĦ íķľ
ì¼ ľ
Ĳ ëĭ¤
Ġb ig
ĠC l
ìĤ ¼
ì² ł
Ġm ov
¨ ìĸ´
n et
Ġus er
Ġìł Ī
íĮ ¨
ìľ¼ ë©°
Ġìķ ¼
Ġì´ Ŀ
Ġìŀ ł
F F
Ġs w
E T
ard s
ĠR es
Ġíķ Ń
Ġst yle
Ġl og
Ðµ ÑĢ
Ġì¤ĳ ìļĶ
ìĨ Ĳ
Ġm us
Ġì² ľ
ë¦ Ń
ëĵ¤ ìĹĲê²Į
end ing
ri ption
Ġm ult
Ġen g
Ġë ĥ
' m
us er
Ġ Â
ĠëĲĺ ëĬĶ
ater ial
ìķĪ ëħķ
ĠìĿ´ ìķ¼
Ġì§ Ī
an e
ë´ ¤
· °
ĠìĦľ ìļ¸
Ġmod el
Ġê¼ Ń
ĠO r
n b
Ġë³ Ħ
ct or
ut il
ĠT o
Ġì° ½
Ġcont ent
na ver
âĢ ľ
ĠëĤ´ ê°Ģ
ê³ ¨
is ter
ĠëĮĢ íķ´
I m
Ġt yp
ì° ¸
ĠëĤ ľ
Ġí ĭ
Ġë¨¹ ìĸ´
íĤ ¨
G et
íĥ Ħ
ĠìĤ¬ ìĭ¤
C O
P ar
ê·¸ëŀĺ ìĦľ
ë´ Ĳ
Ġì¹ľ êµ¬
ĠO n
Ġgiv en
Ġbe h
ĠìķĦëĭ Į
ìłķ ëıĦ
Ġon line
un c
Ġfollow ing
Ġ& &
Ġwork ing
ëĶ ©
is ed
Ġp age
Ġ! =
ìŀĲ ìĿ¸
Ġst atic
Ġap pe
ëł Į
Ġin c
ent ly
ìĿ´ ê°Ģ
Ġë°© ë¬¸
ĠS tring
Ġëĭ¤ ìĿĮ
Ġl arge
ri es
Ġph ot
ic le
ur l
a f
Ġê·¸ ëĥ¥
Ġex ample
E S
' ]
ĠëĬ ĺ
ìĿ´ ìĹĲìļĶ
Ġwe bs
Ð ±
ëı Į
ent ion
M od
ĠìĿ´ ë²Ī
ĠB e
íħ Ķ
Ġd ays
= '
ĠS p
v ious
Ë· (
B y
ìĿ´ ìĸ´
Ġa ff
ĠP h
Ġë² ķ
ĠìłĦ ë¬¸
Ġíĺ ķ
Ġposs ible
in ation
res ent
I ON
Ġl im
ìĤ¬ ì§Ħ
ap s
in clud
Ġsu ccess
Ġëª¨ ë¥´
iv ed
ìĹĪ ëįĺ
ëĨ ĵ
read y
s ide
u x
l ish
Ðµ Ð½
iv ing
b ox
ĠB l
) );
Ġinv est
w idth
Ġrequ est
ì ·¨
Ġn et
ìĺģ ìĥģ
íĬ ¼
oc ial
le ment
() .
it ive
ou th
Ġê´Ģ ëł¨
du ct
êµ ´
íĸĪ ëįĺ
S h
Ġs ite
ìĹĨ ìĿ´
ab ly
Ð ³
Ġex c
ìĹ ¼
U n
w ord
ê· ľ
ĠS c
ä ¸
ou ble
ĠìĿ´ ìľł
ĠíĶ¼ ë¶Ģ
ĠëĨ Ģ
Ġar g
Ġb ro
!! !!
Ġrequ ire
Ġpro t
â ĺ
ìĦ± ìĿ´
ĠëĲ ©ëĭĪëĭ¤
A P
um er
ê ¾¸
â Ļ
iv ity
Ġëª ¸
' re
ë° Ģ
Ġb en
Ġle g
ìŀ¥ ìĿĢ
Ġì Ķ
Ġunder stand
ĠíĬ ¸
ĠíĤ ¤
Ġíĥ ľ
Ġj ob
ëĲ ł
i en
ìłľ ê°Ģ
ëŀľ ëĵľ
Ġì £
j oy
Ġs al
Ġun til
ial ly
Ã ¶
ìķĪëħķ íķĺìĦ¸ìļĶ
ie ve
d is
ì Ł
Ġg ame
O T
ìĹĲìĦľ ëıĦ
ëĵ¤ ê³¼
ĠA d
Ġê ´
ê³ ¡
Ġëı ħ
ì¶ ©
ëĦ Īë¬´
íĥ ģ
Ġa way
ì§ ķ
ãħĭãħĭãħĭãħĭ ãħĭãħĭãħĭãħĭ
Ġë¯ ¼
Ġíķ ©
ĠíĮ ¨
ì§Ģ ëıĦ
Ġb as
íħ ľ
Ġì ¼
Ġëĭ¤ìĸĳ íķľ
Ex ception
ë¶Ħ ìĿ´
Ë· >
Ġqu ality
f ect
Ë· </
tr a
Ġb ased
Ã ¼
v iron
ĠL e
an ag
Ġf lo
ë ¿
ìī ¬
ĠW hen
Ġh ist
Ġlook ing
ê²ł ëĭ¤
+ +
Ġt able
ê² Ģ
um e
or ies
Ġpr act
ivers ity
ë² Į
ph a
ir t
a i
Ġpro m
ë¡ľ ìļ´
ind ex
ĠÐ ¸
ë¡ Ģ
ap er
} )
ĠìľĦ ì¹ĺ
Ñ Ĩ
ĠìķĦ ì£¼
Ġstr uct
Ġqu e
ur y
er c
" ;
ĠU S
it her
ëŀ ¨
ìļĶ ìĿ¼
Ġal ong
p ed
I S
Ġchild ren
Ġerr or
p ublic
Ġcol or
Ġbre ak
ĠÐ ¾
ĠĠĠĠ Ċ
¨¼ ìłĢ
Ġm aking
Ġìĥ ī
Ġin it
ĠB r
Ġme et
ir d
ro om
og le
ìĿ´ ë²Ī
ìłķ ìĿĦ
ĠëıĮ ìķĦ
p i
Ġê³ ¨
º ¼
Ġproble m
ìĬ¤ íģ¬
en u
Ġc reat
ìģ ľ
Ġìĥģ íĻ©
ëĲĺ ê³ł
ìľ¼ ëĭĪ
at ures
Ġw he
it er
che s
ure d
Ġê·¸ ëŁ¬
Ġíķĺ ì§Ģë§Į
Ġìĸ´ëĸ ¤
math cal
equ ation
ìĿ¸ ì§Ģ
Ġbe g
Ġêµ¬ ë§¤
Ġ ^^
ëĲľ ëĭ¤
Ġor ig
ab les
nb sp
Ġf ood
Ġw rit
Ġo cc
$ .
col or
Ġ// /
Ġst ep
ain t
il es
Ġì§ģ ìłĳ
ĠëĤ´ ìļ©
end ed
íĸĪ ìĬµëĭĪëĭ¤
A S
U T
Ġcour se
Ġre t
O n
» ê²Į
Ġt itle
ĠëĶ ±
Ġrec ord
ĠíĹ Ī
Ġresult s
ĠìĿĮ ìĭĿ
Ġë° ±
Ġs ide
ĠëŃ Ĳ
Ġcall ed
ëŀ įëĭĪëĭ¤
Ġneed s
Ġspec ific
o ff
ide o
íķĻ êµĲ
Ġa ir
Ġd one
Ġsp ace
ĠìĨĮ ê°ľ
Ġagain st
A l
Ġ/ **
ìĬ¤ íĮħ
sc ript
Ġan n
ens ion
Ġim pro
Ġt imes
ì° ®
b ook
or th
Ġla w
} .
i ver
_{ Ë·
Ġacc ount
Ġpar am
Ġm ove
ĠìĦ¤ ëªħ
str u
ĠG r
ìļ° ë¦¬
z e
Ġoff er
Ġíķĺ ë£¨
Ġì¹´ íİĺ
ë² ¤
ĠìĹĨ ìĿ´
ĩ ¼
Ġìĺ¬ ëĿ¼
Ġcont rol
b ut
and s
Ġvis it
` `
Ġto day
ĠP r
Ġê³Ħ ìĨį
íķ´ ë³´
Ġë³´ ìĹ¬
Ġí Ľ
ë² ½
Ġth ought
() ,
Ġp ack
Ġh ouse
ê¹Į ìļĶ
Ġh um
Ġb ody
ur ity
p ath
U R
Ġd ri
Ġ ident
Ġp ort
ĠìĿ ½
ìĿ¸ ìĿ´
W ith
Ġal ready
E rror
I nd
le te
get her
an ces
ìĽ ł
our ces
Ġto gether
' );
ìħĶ ìĦľ
T est
ê·¸ ëŁ¬
id ual
con st
Ġìī ½
Ġse c
Ġinclud e
ĠìĹĦ ì²Ń
ëĭ ¥
Ġf our
ëł¥ ìĿĦ
ëįĶ ëĭĪ
Ġk ind
Ġc al
w h
Ġan al
Ġê° ĸ
Ġ} ,
ìŁ ģ
Ġp ot
ore d
Ġì§Ģ ìĹŃ
Ġproduct s
Ġr ange
ain ed
ìłĦ ìĹĲ
Ġf ac
Ġwh y
c m
o in
A D
Ġì¶Ķ ê°Ģ
Ġsh ort
om en
t able
ĠW ith
Ġíķ´ ìĦľ
? "
Ġof ten
## ##
Ġë© ´
Ġëª ĩ
ìĬ¤ ë¥¼
ur ation
b t
íĮĮ íĬ¸
Ġle arn
Ġinst all
act er
Ġëĵ¤ìĸ´ ê°Ģ
m y
ĠìĹ¬ íĸī
Ġso ft
ìĹħ ìĿĦ
ĠìŀĪ ëĬĶëį°
ìĿ´ ë²Ħ
H e
Ð¾ ÑĢ
le y
ì į¨
ëĤ ¬
A nd
Ð¾Ð ´
p art
ì§Ģ ë§ī
B ut
ar ing
ĠCom m
Ġse lect
] ;
Ġwor ks
Ġeas y
Ġcons ider
n o
id s
ë§ Īëĭ¤
ìĥģ ìĿĦ
# Ë·
l ink
Ġë©Ķ ëī´
Ġpr int
Ġg l
ìĦ± ìĿĦ
ìĦľ ìļ¸
Ġab ove
Ġstud ents
ĠÐ º
ĠN o
Ġh aving
u ro
Ġëĸ ł
lob al
T ext
end s
Ġê±´ ê°ķ
umm ary
Ġst re
Ġind ust
Ġp ast
Ġm oney
Ġìĥģ íĥľ
id es
in it
Ġë³´ ë©´
rib ute
ë² Ķ
m m
ĠâĢ Ķ
ang u
Ġen c
Ġgo ver
ë¦¬ ìĹĲ
Ġl ow
ĠìķĮ ëł¤
ill s
ëįĶëĿ¼ ê³łìļĶ
Ġme ans
ê· ł
v oid
ìłĢ ëĬĶ
Ġen joy
Ġwebs ite
Ġìµľ ê³ł
Ġv ol
Ġp o
ĠA t
ill ion
() );
Ġb it
Ġe lect
ĠëĨ ĵ
ê ½ĥ
ĠM ar
ĠTh at
Ġí Ħ
n s
$ ,
ĠìķĮ ìķĦ
Ġ ...
ĠìĿ´ ìłľ
ut ions
Ë· âĢĵ
Ġin div
ific ation
ì¿ ł
ĠìĹŃ ìĭľ
Ġf ore
Ġtr ad
ëĶ °
Ġme an
C lass
f ield
ë ·°
ëį ķ
Ð° Ð½
ìĿ ĳ
íĸĪ ìĸ´ìļĶ
Ġem ploy
H E
ìĿ´ ëłĩê²Į
viron ment
ì° Į
Ġë¯¸ êµŃ
Ġê¹ Ķ
A dd
ë¦¬ ìĸ´
ëĿ¼ ìĿ¸
l ength
= \
******** ********
Ġbu y
Ġh old
' ve
is ing
Ġì§Ģ ìĽĲ
Ġëĵ ¯
Ġëı Ī
ul ation
Ġcomp let
ĠìĿ Ģ
ĠëĮĢ íĳľ
Ġth ing
ë¦¬ ìĬ¤
ĠìĻ ľ
---------------- ----------------
ê· Ģ
Ġor g
Ġc a
R equ
ë¥ ł
ut ure
Ġadd ress
Ġf un
Ġse ver
I M
ĠìĿ´ ìĸ´
Ġì² «
Ġëĳ ĺ
ĠìĿ´ íĽĦ
Ġprof ession
ìĬ ¬
ĠìĿ´ ë¯¸
trans lation
ĠCh rist
ĠE ng
s m
I G
Ġf ar
p ing
ĠìķĬ ìĿĢ
I nt
"> </
Ġê· ľ
Ġìłķ ë³´
ĠW hat
Ġë§Ľ ì§ĳ
/ *
Ġen ough
al pha
Ġto t
ar ning
ë§ İ
b ody
ul es
A ll
Ġìłľ ê°Ģ
ìŀ ¡
it ch
íĻĶ ë¥¼
Ġbel ow
a im
Ġpro perty
Ġm aterial
Ë·âĢĵ Ë·
ë§Ľ ì§ĳ
Ġ ãħłãħł
F ile
il t
ê°Ļ ìĿĢ
en e
ĠëĲľ ëĭ¤
íĥ Ī
S e
al f
T ime
K ey
ìĬ¤ ëŁ¬
ëĤĺ ìļĶ
Ġcl os
Ġí ľ´
per t
ĠM y
ë¶Ģ ë¶Ħ
ëĪ Ī
Ġpartic ular
Ġn ight
ip s
ĠìĹĨ ëĭ¤
Ġë² Į
' ll
ple ment
f ort
ac y
ë¦½ ëĭĪëĭ¤
res h
ic y
Ð¾Ð ¼
Ġt arget
p m
Ġcert ain
ib r
ì§Ģ ê°Ģ
Ġt reat
íĴ į
pl es
ĠíĴ į
A B
Ð¾Ð »
R e
ĠC ent
ëıĻ ìķĪ
íİ ´
ap t
ur ther
l ay
i od
ìĹ ĩ
Ġíķ´ ìķ¼
Ġê¸° ëĮĢ
E n
ìĸ´ ëĤĺ
ic ro
se ction
Ġëª °
ĠS ystem
Ġë°ľ ìĥĿ
og raph
ĠT e
Q u
Ġë¨¹ ìĿĦ
ĠëĤĺ ëĬĶ
Ð° Ð»
s k
IN G
Ġp ath
Ġm ar
Ġhtt p
pon se
in put
ĠC an
p ack
Ġë§Ĳ íĸĪëĭ¤
Ġìłľ ê³µ
ĠÐ ´
ì¹´ íİĺ
Ġsever al
Ġopt ions
Ġbec ome
ìĪĺ ê°Ģ
Ġê ¿
ĠĠĠĠĠĠĠĠĠĠĠĠĠĠĠĠ ĠĠĠĠĠĠĠĠĠĠĠ
Ġ version
b ol
ìĻ Ħ
ic a
Ġf ocus
P E
Ġíļ¨ ê³¼
aj or
i j
ìĭ ¶
~ \
Ġbe aut
ĠíĮĲ ë§¤
Ġindiv idual
ìŀ Ķ
Ġm om
Ġt ell
\ \
Ġen er
u it
Ġcont act
ëħ ģ
ĠìķĬ ìķĺ
ìłķ ìĿ´
in c
Ġëĵ± ìĿĦ
W hat
un e
Ġm akes
S c
Ġcom b
Ġon ce
m p
ĠG od
ëĵľ ëĬĶ
pl ate
Ġli k
Ġì§Ģ ëĤĺ
ëı ¼
.... ....
Ġgover n
al ign
Ġdid n
Ġsing le
Ñģ Ðº
Ġê¹ ¨
ic on
is k
ott om
ĠìķĦ ë¬´
ìŀ Īëĭ¤
d o
ìŀĲ ìĿĺ
Ë· ',
ar r
Ġë³ ĳ
Ġim age
Ġle ast
Ġto ol
U LL
Ġê²° ê³¼
Ġrequ ired
Ġre du
Ġê´Ģ ê³Ħ
ĉĉĉĉ ĉ
er a
ord ing
Ġpos ition
i ke
Ġê³µ ê°Ħ
port s
Ġst op
' :
el ta
Ġcon c
p ace
Ġt re
Ġperson al
Ġac ross
pl ace
av el
ar ray
Ġper fect
Ġë ķ
ãĥ »
Ġíĺ ¼
ìĤ¬ ê°Ģ
Ġre search
ĠUn iversity
ion al
, \
Ġm ind
Ġh ig
amb da
Ġì ħ
W h
m ost
Ë· _Ë·
ìķ Ķ
k r
Ġth row
Ġe y
Ġother s
ĠìĹ¬ ê¸°
ad a
} ;
ĠíĴ Ģ
ìĥģ ìĿ´
orm al
ne y
ĠíĻ į
ìĽ ĥ
U N
ag s
Ġê´ ľ
Ġë³´ ëĤ´
Ġìĸ´ëĸ »ê²Į
ìĿ´ íģ¬
ìŀĲ ë¥¼
I s
Ġê ½ĥ
tern al
ĠIn st
I P
o ad
Ġen s
ë§Į ìĹĲ
ë Ń
ĠÐ½ Ð°
in o
ĠThe se
Ġe ver
íķĺ ëĤĺ
Ġcommun ity
ëĦ Ĳ
^ {\
on es
con om
Ġex ist
Ġìĸ¼ ë§Ī
an ks
Ġse arch
u i
ìĪ Ļ
Ġqu ick
Ġs ocial
Ġë°Ľ ìķĦ
ĠìĻ Ķ
ib ility
Ġmem bers
Ġst at
Ġth ough
Ġben ef
l s
re ct
bl og
Ġë¹ ¨
ëĭĺ ìĿ´
n ow
Ġë¶ Ļ
Ġpro b
ĠìŀĪëĭ¤ ëĬĶ
ep end
l ight
g ed
Ġl and
Ð¾Ð ³
ìĺĪ ìļĶ
Ģ ë¡ľ
íļ ¨
ĠíĺĦ ìŀ¬
ê° ĳ
Ġar ray
Ġ ver
Ġm ax
Ġë¶ ģ
Ġget ting
ĠìĪĺ ëıĦ
ĠìĽ Ķ
ward s
T R
íķĺ ìĭľ
l in
ì§Ģ ìļĶ
A t
Ġcle an
ĠI N
íĸĪ ëĬĶëį°
ë§Ī íĬ¸
indow s
> Ë·
ìĹŃ ìĭľ
am ent
Ġdoes n
Ë·] ,
ĠíĮ Ķ
oh n
ĠA ss
Ġê ½
port un
Ġme as
Ġre ason
ĠëıĻ ìĺģìĥģ
Ġì£ ½
in st
Ġm ag
Ġdevelop ment
ìĭ Ń
O r
ìļ ķ
ĸ ìĹĲ
ĠC ont
Ġíı¬ ìĬ¤íĮħ
Ġì¤ĳ êµŃ
Ġdo ing
ĠìĦ¸ ê³Ħ
Ġrep resent
Ġê³ł ë¯¼
T E
ìķ Ĭ
f rom
ver age
ne ction
ĠìĦľ ë¹ĦìĬ¤
ĠE n
Ġíķĺ ë©´
ĠD o
ĠëĤĺ íĥĢ
r ite
Ġh ot
b re
ok en
Ġë¨¹ ëĬĶ
E vent
Ġcom es
ë§Į íģ¼
ìłķ ë§Ĳ
L O
ĠìĬ¤ íĥĢ
ĠHow ever
Ġìļ´ ëıĻ
ëĵ¤ ìĸ´
ir c
ê» ´
Ġsim ple
ëł¥ ìĿ´
ĠC ar
Ġì¢ĭ ìķĺ
ĠìŀĪ ìĹĪëĭ¤
ĠìĤ¬ ìĹħ
Ġê°Ģ ì§Ģê³ł
ì£¼ ê³ł
íĺ ĳ
pt y
ra ft
ĠëįĶ ìļ±
Ġë³´ ëĭĪ
_ \
Ġë°Ŀ íĺ
Ġstr ong
Ġc ur
& &
ìĻ ķ
ãħĭãħĭ ãħĭ
Ġd en
Ġcomp ut
def ine
Ġ );
Ġìļ ¸
íĹ Ī
ad o
Ġê¸ ī
Ġp arent
Ġl ater
íķĺ ìĭľëĬĶ
Ġcount ry
ak en
Ġw in
Ġ ãĥ»
ìķ Ļ
w here
[ ]
Ġê²ĥ ëıĦ
Ġval ues
Ġkn own
Ġre view
Ġëĸ ¨ìĸ´
Ġe ither
Ġf av
Ġ/ >
ì ©
Ġìĺģ íĻĶ
Ġë° ¥
ìĿ´ ëŀĳ
Ġ/ *
ë¡ľ ëĤĺ
Ġpr ice
Ġf und
íħ Ĳ
ĠìĦ¤ ì¹ĺ
if ul
c d
ìĬ ¨
ĠA p
Ñ Ī
ìĿ´ ìĬ¤
n av
Ġt alk
p ose
c hen
Ġâ ĸ
et ers
ī ìŀ¥
ĩ ´
ìķ ŀ
Requ est
íĶ Ī
Ġc ame
Ġbeg in
Ġprot ect
Ġìĸ´ ëł¤
ë³´ ê¸°
Ġm ajor
g roup
Ġê¸° ìĹħ
press ion
Ġstud y
ê ¿
ÑĢ Ðµ
R ef
ol ution
ĠC he
ìļĶ ì¦ĺ
p en
ĠìĿ¼ ë³¸
ìĽĲ ìĿ´
angu age
ìĭĿ ìĿĦ
um ents
or ld
Ġd ie
} {
st er
Ġs at
Ġd at
Ġmus ic
ëł ´
Ġê¸° ëĭ¤
Ġop portun
Ġê¶ ģ
Ġdef ault
Ġë° Ģ
Ġint eg
Ġs ource
l ished
Ġde al
m ap
ĠO ur
ĠìĿ´ ë¦Ħ
ìĿ¸ ê°Ģ
ail ed
ir m
ì ĵ°
Ġcon nect
Ġf uture
Ġn at
m d
Ġsup er
Ġdisc uss
Ġc ity
Ġcon fig
at ors
Ġin put
ì£¼ ìĦ¸ìļĶ
St ate
m et
í ľ´
Ġl ive
Ġê³Ħ íļį
: "
ĠìĹĦ ë§Ī
Ġ: )
l a
Ġm ot
Ġd ue
Ġd ocument
íķĺ ëĭĪ
Ġë ¨¼ìłĢ
ëį ¸
Ġed uc
os p
ìĭ ±
Ġê³ł ê°Ŀ
pert ies
ã Ħ
ê²ĥ ëıĦ
U S
Ġì² ł
. </
Ġact ually
Ġener gy
Ġinv ol
Ġp ub
ou d
err or
ĠìŀĪëĭ¤ ê³ł
Ġ# Ë·
Ġc ell
g ress
Ġan sw
Ġl ay
======== ========
am ma
Ġë¶Ħ ìľĦ
ĠìķĦ ì§ģ
Ġb ase
ê±° ë¦¬
Ġwe b
Ġre d
m it
Ġê¶ Į
pr int
íĬ¸ ë¥¼
Ġc ut
Ġê°ľ ìĿ¸
ìĭľ ìĹĲ
at ter
Ġstart ed
, âĢĿ
E lement
H ow
Ġì¡ ´
ĠM ay
In fo
A G
ì° į
W hen
Ġíĸī ë³µ
com p
ìĺ¤ëĬĺ ìĿĢ
on y
The re
Ġê¸° ë³¸
Ġìļ´ ìĺģ
Ġì° ©
il ar
m ber
Ġan t
P ath
ìŀ¥ ìĹĲ
Ġ_ _
} (
Ñ İ
N ode
Ã ¨
N ot
Ġp ri
c her
ë¬¼ ìĿ´
íķĺ ëĬĶëį°
Ġapplic ation
Ġê ¾¸
Ġam ount
D ef
ì§ Ĳ
is on
im ate
Ġwhe ther
O f
Ġto ok
í ĳ¸
Ġfe atures
o on
includ e
Ġë³´ ìĿ´
Ġcomp an
ë°Ķ ë¡ľ
Ġdis play
ip le
ë¥´ ê²Į
ĠëĶĶ ìŀĲìĿ¸
~~ ~
Ġíı Ń
ur ch
Ġy et
am s
Ġquest ion
en n
Ġa ction
Ġb ed
ĠëĤĺ ìĺ¨
ĠP ar
Con fig
Ġw alk
ĠG o
ê·¸ ëŁ°
Ġ* *
ëĬĶ ì§Ģ
u ation
ĠêµĲ ìľ¡
Ġm essage
ë¡ Ń
ì¹ ł
ĠëĤ ®
im al
Ġë§Į ëĤĺ
ĠG et
ìłľ ë¡ľ
con fig
u ed
ĠC o
ë »
Ġê°Ĳ ìĤ¬
Ġl arg
m u
Ġmin utes
Į ĵ
ìĹ¬ íĸī
t itle
C H
O M
ìĿ´ ìłľ
ëı Ī
Ġim p
ëĭ Ŀ
ê³ł ê¸°
Ġsh are
Ġre le
% Ë·
s ummary
ì§Ģ ê¸Ī
ill ed
Cont ext
y nc
s l
m at
ĠëĺĲ íķľ
ym bol
Ġst ory
( (
ph p
pro t
Ġì ¸
Ġp ie
Ġíĺ ĳ
b it
Ġoff ic
s erv
end er
n ull
Ġh ours
ĠìĤ¬ëŀĮ ìĿ´
Ġw on
un ch
ĠíĪ¬ ìŀĲ
ìĬ¤ ë¡ľ
ë¬¼ ìĿĦ
ìĸµ ìĽĲ
ì´ Ŀ
Ġëĭ¤ ëħĢ
Ġê°Ļ ëĭ¤
el t
F orm
Ind ex
p y
og n
Ġcomm on
p oint
ìĬ¤ ëŁ½
êµ¬ ëĤĺ
Ġê¸° ìĸµ
Ġcomp et
Ġ\ \
ì¡Į ëĭ¤
Ġê°Ģ ì¡±
im um
Ġbr ing
Ġyou ng
c ount
ìŀ ĺ
Ġl ink
Ġen vironment
ê±° ëĵł
Ġper iod
ìĤ¬ ëŀĮ
() )
Ġo ption
h o
//// ////
od es
u ary
It em
r s
cont ent
il ities
Ðµ Ð»
Ġìĭ¶ ìĿĢ
stru ction
ĠO ne
Ġh ost
se c
ĠêµŃ ëĤ´
ÑĢ Ð¸
Ġê¹Ķ ëģĶ
Ġ ess
Ġ" Ë·
Ġ- >
as c
ÑĤ Ð°
ê»ĺ ìĦľ
ê´Ģ ë¦¬
id ed
or age
r ing
Ġê´ľ ì°®
Ġevery thing
Ġs ound
ê°ľ ìĽĶ
ix ed
µ ìħĺ
íĨµ ëł¹
Ġback ground
ë¬¸ ìĹĲ
Ġab s
g ing
Ġdet erm
l ock
M L
Ġp ress
Ġc amp
M ap
Ar ray
math bb
P h
ìĦ¼ íĦ°
d own
EN T
Ġê´Ģ ë¦¬
ìĺ¤ ëĬĶ
Ġhapp en
ìĬ¤ ê°Ģ
ĠìĻĦ ìłĦ
ì¤ĳ ìĹĲ
ict ion
C E
ĠìķĦ ëŀĺ
Ġ} );
l ang
Ġse en
' ;
Ġì ¿
Ġìĸ´ ëĬĲ
Ġpur ch
ĠìĿ¼ ë°ĺ
Ġf ace
ëĦ ·
ë¦¬ ìķĦ
Ġì»¤ íĶ¼
O S
ful ly
u k
ĠëĤ´ ëł¤
i res
F ield
m b
ëĭ¤ ìĿĮ
Ġse ason
ĠëıĻ ìķĪ
Ġw ent
Ġíİ ĺ
Ġe arly
ap i
Ġwho le
Ġhe art
n ode
ĠìĬ ¹
ê°Ģ ê²©
' d
ig ma
ĠíĹ ¤
roll er
pos ed
ìĭ¬ íŀĪ
ì½ ¤
ì¼ ĢìĿ´
! --
O ver
ĠìŀĪ ëıĦë¡Ŀ
Ġl ov
Ġêµ °
us ing
ëĿ¼ ìĦľ
Ġd om
Ġp ict
Ġresp ons
ic ation
Ġ-- >
Ġcomp lete
cre ate
ĠG u
Ð¾ Ð½
Ġb ar
ĠëĬĲ ê»´
Ġv ideo
Ġd iv
Ġì°¨ ëŁī
ĠAmeric an
Ġre comm
s el
ìľ µ
ìĻĢ ìĦľ
ì¸ ¡
Ġìº Ĳ
N o
" "
ĠM ed
r ide
] .
ìĽ ĢìĿ´
ol l
Ġë°Ŀíĺ Ķëĭ¤
as ing
Ð ¶
Ġê´Ģ ìĭ¬
Ġass ert
Ġact iv
D e
íħĮ ë¦¬ìĸ´
Ġcl ose
I L
le g
Ë· +
ab led
st ate
Ġres pect
led ge
Ġë´ Ĳ
Ġgener al
S o
ê³ ¤
i ans
f er
Ë·} ,
Ġë £
Ġì¢ĭ ìĿĦ
ìŀĲ ê¸°
in ing
Ġìłķ ë¶Ģ
ëĵľ ë¦¬
Ġprovid ed
y l
ĠN ot
ĠìķĬ ìĿĦ
ì¤ ĺ
ëª »
Ġcre ated
tr ue
Ġm en
Ġê¹ Į
Ġìľ ¡
Ġt w
ëĤ´ ê°Ģ
Ġbl ack
Å Ĥ
Ġsu gg
â Ĺ
ìĪĺ ë¥¼
b all
Ġbuild ing
Ġr a
) \
ĠëĦ Ī
ĠF l
ë¥´ ë©´
ĠìŀĲ ìĹ°
Ġcle ar
ë£Į ë¥¼
Ġaut hor
Ġãħĭãħĭ ãħĭ
Ġph ys
Ġsugg est
ĠÐ ·
ĠìłĢ ëĬĶ
an a
ĠëĨ į
Ġtr ack
d f
ì² Ļ
ëıĦ ê°Ģ
Ġr ad
on se
Ġì ĵ
Ġfr ont
â Ķ
res ult
Ġíķ´ ìļĶ
Ġtr aining
im ent
Ġìŀĳ ìĹħ
ìĿ´ ë¥¼
u ly
Ġd ate
ast ic
ri x
loc ation
Ġbl ock
Ġ ãħĭãħĭãħĭãħĭ
ro du
Ġìĺ Ĩ
ob ile
ìłĢ íĿ¬
id ence
Ġide a
ìŀ¥ ìĹĲìĦľ
$ \
Ġf urther
ìĤ¬ ëĬĶ
Ġê¸° ì¤Ģ
Ġass oci
ĠÐ ¼
Ġne cess
us ed
ì¹ĺ ëĬĶ
ĠQ u
ĠIn tern
ĠíĻ Ī
Ġlo ad
Ġp lease
Ġìĭľê°Ħ ìĿ´
n ers
ħ ëĭĪëĭ¤
il ter
Ġê± ±
ĠD r
t ings
Ġì¢ĭìķĦ íķĺëĬĶ
Ġperform ance
th ough
Ġìī ¬
Ġindust ry
Ġnet work
arg in
Ġst ay
Ġprovid es
ê¸° ìĹħ
t es
c hed
ob ject
ign ed
ĠíĶĦ ë¡ľ
ĠI nt
itt ed
iv al
Ġtot al
Ġìľł ëªħ
Ġw ond
ìĺĢ ìĬµëĭĪëĭ¤
Ġvari ous
/ **
S ervice
ĠìĤ¬ íļĮ
w ith
o o
ab or
Ġresp onse
ëĤĺ ëĿ¼
l t
Ġoff ers
ĠìĺĪ ìłķ
it es
P I
C ode
Ġf low
ìĽĢ ìĿĦ
Ġne ar
Ġs ays
Ġpre vious
Ġrel ations
ri ed
Ġse em
ĠìľĦ íķ´ìĦľ
ëıĦ ë¡ľ
anag er
ì¼ ĵ
ìĬ¤ íĦ°
Ġë¿ Ĳ
Ġìĥģ íĴĪ
in ary
Ġíķĺ ì§Ģ
âĺ ħ
ìļ´ ëį°
ĠìļĶ ì¦ĺ
er o
bl ock
Ġ: =
Ġê° Ķ
Ġneed ed
ĠC or
ëł µ
d en
Ġadd ition
Ġê°Ģ ëĬĶ
ole an
Ġìķ ī
ìĿ´ ëĵľ
pos ition
ĠF e
Ġs ent
ëŀ µ
a ur
Ġdesc rib
art ment
ĠìĤ ¶
íķ´ ëıĦ
Ġe ar
Ġcompan ies
Ġchar acter
Ġc ult
ĠìłĦ ì²´
ë ķ
Ġdist rib
í Ľ
Ġm atch
Ë· ",
Ġê±° ìĿĺ
Ġb ox
Ġhum an
Ġë¸Ķ ë¡ľê·¸
ĠìķĮ ê³ł
is es
g a
Ġch all
ĠëĨĴ ìĿĢ
Ġê·¸ëŀĺ ìĦľ
pon ent
" .
Ġìĭľ ê³µ
S ize
ì¹ĺ ë¥¼
old er
ëĭĺ ìĿĺ
Ġê°Ģ ì§Ģ
ëŀ Ļ
ëıĦ ë¥¼
íĻ į
Ġbeaut iful
ëıĻ ìĤ°
Ġì¶ ķ
Ġob tain
Ġsh op
Ġc red
pec ially
h ing
Ġam ong
ĠëĦ ĵ
Ġêµ¬ ìĦ±
Ġmonth s
ist ic
ëĨ į
Ġê¸° ëĬ¥
Ġë§Į ì¡±
n ces
ĠA dd
ë¥´ ëĬĶ
ìłģ ìĿ´
Ġë¬¼ ë¡ł
ì» ¨
íĭ Ģ
ê º¼
uro pe
Ġquest ions
cl us
at form
in ks
ĠìŀĪìľ¼ ë©°
ëĭ¤ ë¥¸
Ġh om
ĠS up
ë³´ ëĬĶ
Ġex ec
Ġm or
ĠJ ohn
ì£ ½
Ġtry ing
ĠíĻľ ìļ©
Ġìµľ ëĮĢ
ĠI m
ic ense
Ġpoint s
m on
Ġgovern ment
Ġ ðŁ
Ġpot ential
ĠÐ ³
Ġind ex
Ġadd ed
ĠìķĦ ì¹¨
íķĺ ìĭł
Ġc ard
íĨ ¡
ĠìĿ µ
Ġinst ance
ear ch
Ġíı¬ íķ¨
Ġìĸ´ ëĶĶ
ĠR eg
y d
Ġd est
our n
Ġa ch
Ġwh ite
Ġs rc
Ġëħ ¼
Ġê·¸ ëłĩ
def ault
Ġsim ilar
Ġev ents
ìĸ´ ëıĦ
Ġm iss
Ġê¸° ë¡Ŀ
ou ch
ìĶ Ģ
ames pace
Ġ ..
o ke
ĠëĺĲ ëĬĶ
ëĲ ©ëĭĪëĭ¤
ëľ »
Ġn um
in fo
ì£¼ ìĭľ
Ġê³µ ë¶Ģ
Ġsome one
. )
ud e
ac ed
er al
re t
Ġany thing
ĠìĿ´ìķ¼ ê¸°
Ġdown load
ï ¿
nd er
ur ance
Ġun ique
F rom
st yle
m ax
ou nc
Ġw ait
ëĿ¼ ëıĦ
ĠìŀĪ ì§Ģë§Į
ic ient
Ľ °
] (
Ġh alf
Ġìŀĳ ìĿĢ
Ġd ig
Ġíĥ Ħ
ì£¼ ìĿĺ
Ġsign ific
ic ult
ĠìķĪ ìłĦ
ab ase
Ġc rit
un k
Ġìĭ ¸
re l
d b
ph i
ìĭ ¸
Ġser ies
O D
Ġimpro ve
Ġëĭ µ
Ġs um
Ġhtt ps
Ġíĭ °
ĠìĥĿê°ģ ìĿ´
ëıĻ ì°¨
Ġpr im
Ġt aking
Ġa ud
ac hed
Ġcan not
Ġp aper
ĠC al
Ġent ire
Ġe conom
Ġ er
^ {Ë·
In st
ìĬ¤ íħľ
ìĬ Ī
st art
Ġì ı
il it
ys is
E qu
Ġm ass
Ġsim ply
íĬ¹ íŀĪ
Ġcont ext
ìĤ¬ ìĭ¤
c ast
Ġì į¨
Ġcl ient
ëª ¬
ê°Ģ ëĬ¥
ĠĠĠĠĠĠĠĠ ĠĠĠĠ
Ġfriend s
Ġiss ues
Ġsoft ware
ëĲ Ĳëĭ¤
Ġp ick
Ġex am
med i
ë¦¬ ì§Ģ
ell ing
Ġhist ory
Ġh ope
A tt
op er
itt en
ìľĦ ìĽĲ
ĠB y
ed d
Ġwr ite
ë²¤ íĬ¸
ï ¸
Ġw omen
ĠëĮĢ íĨµëł¹
U p
Ë· &
Ġf all
ëĶĶ ìĸ´
c all
Ġcustom ers
ë²Ī ì§¸
¯ ¤
Ġt ax
ie f
l ambda
Ġê¸° ìĪł
M y
Ġìĸ¸ ìłľ
Ġm ach
re ate
om an
res p
ë¨¸ ëĭĪ
¬ ëŁ¬
ë¹ µ
ĠìŀĲ ì£¼
Ġë¬´ ìĹĩ
Ġal most
Ġp ain
c ome
íķľ êµŃ
Ġìĺ µìħĺ
ë³ ¶
ê±°ëĵł ìļĶ
Ġ{ \
o ber
ë£ ¸
ann el
Ġ[ Ë·
Ġ Ã©
íĺ ľ
Ġhow ever
Ġim plement
Ġw all
Ġw idth
Ġqu ite
re w
Ġmed ia
Ġíŀĺ ëĵ¤
Ġit em
bo ard
Ġtechn ology
ch o
Ġë§Į íģ¼
Ġorig inal
ëª °
ë³´ ë©´
ag ram
Ġbl og
Ġm illion
ìĭľ ìķĦ
ë¡ľê·¸ ëŀ¨
ì§Ħ ì§ľ
Ġem ail
ĠUn ited
ad es
Ġele ment
Ġcomp on
L A
r t
ĠëĮĢ íķ´ìĦľ
Ġìŀ Ķ
Ġchang es
V ER
plic ation
H and
Ġì¹ ¨
ĠìĿĺ ë¯¸
ìĿ´ ë¸Ķ
O P
ìĿ¸ëį° ìļĶ
~ !
an el
ight s
ìĿ´ ëŁ°
ê²ł ì§Ģë§Į
Ġf ive
Ġaut om
ê°Ĳ ìĿ´
Ġcl aim
se e
Ġprofession al
ë¯ Ģë¡ľ
sel ves
e ed
Ġsol ution
Ġë§Ľ ìĿ´
êµĲ ìľ¡
or ing
ĠìĥĪ ë¡ľìļ´
Ġp ref
ut h
ì§Ģ ìĹŃ
Ġm ap
li ent
i qu
ÑĤ Ð¸
ìĿ¸ íĬ¸
Ġë¯ ¿
ìĿ´ ë©°
ëį° ìļĶ
Ġdet ails
Ġë§Ī ì§Ģë§ī
v ing
Ġìµľ ê·¼
Ġmanag ement
Ġc ook
ĠìłĢ íĿ¬
ĠM in
ĠG e
ê·¸ëŀĺ ëıĦ
il i
Ġwrit ing
V al
ĠíĬ¹ íŀĪ
Ġê² ¨
ĠëĬĲëĤĮ ìĿ´
i et
g t
ë ¨¼
íĹ ¤
Ġsystem s
ìĥģ ìľ¼ë¡ľ
l im
ìĽĮ ìĦľ
Ġro le
ê·¼ ëį°
ìĺ ¥
Ġ( !
A g
ain er
ê² ¼
. âĢĿ
ìĭľ íĤ¤
Ë·" />
M essage
Ġpol it
Ġê°ľ ë°ľ
ì´ Į
ĠíĸĪ ëĬĶëį°
Ġins ide
ëłĪ ìĬ¤
Ġac cept
Ġìĺ¤ ëŀĺ
ì į
B e
we b
Ġë© ĭ
Ġfin anc
se lect
ãħ ¡
Ġfe ature
P l
ĠìĺĪ ìķ½
Ġf oot
Ġl iving
ï¿ ½
Ġt aken
Ġiss ue
ĠìĥĿ íĻľ
ë¥´ ê³ł
Ġbel ieve
Ġv ia
j ava
ë¶Ģ ìĤ°
Ġr ather
um b
Ġíĥ Ī
g l
ĠP ol
Ġet c
C C
ĠíĦ °
Ġëĵ± ìĿĺ
ë¬´ ë¦¬
Ġj ava
s um
ĠD es
g es
Ġout put
ì¹ľ êµ¬
rou ps
Ġper cent
Ġrun ning
U ser
ìĤ¬ ìĹħ
¬ ìĺģ
Ġare as
ĠëĦ£ ìĸ´
ĠÃ ł
h a
.. ...
ĠA fter
s q
ĠëĤĺ ìĻĶ
Ġê·¸ ëłĩê²Į
ĠìłĢ ëħģ
íı Ń
Ġcol l
ï¸ ı
Ġìĥģ ëĭ´
ĠN ULL
ar row
lic k
ë¹ Į
B uild
Ġpartic ip
íĺ ¹
Ñ Ħ
Ġë§ŀ ì¶
ìłķ ë³´
Ġë´ ¤
ĠìłĦ ìĹĲ
uff er
ê° Ķ
O ut
Ġmom ent
Ġcho ose
ìĨ Ķ
idd le
Ġst ore
Ġë§Į ëĵł
L og
ìĿ¼ ìĿ´
Ġst d
ìľ¼ ëĤĺ
Ġd u
Ġst e
Ġìĸ¼ êµ´
Ġc opy
ëŁ ´
j e
) }
ĠC ount
qu ot
ê²ĥ ìĿ´
iz ing
i Ã³
al t
ìĽĲ ìĿĦ
ĠìŀĪìľ¼ ëĭĪ
ĠëıĦ ì°©
ĠA N
ìĭľ ìŀ¥
Ġexpect ed
ibr ary
L oc
AT E
ìłľ íĴĪ
ĠE urope
ì½ ĺ
Res ult
ĠM e
Ġnat ural
ĠìĬ ¬
ĠìĤ´ ìķĦ
ĠCom p
Ġsub ject
Ġeng ine
ĠìĪ Ļ
ëªħ ìĿ´
í ĮĢ
pl ied
d om
Ġê²½ ìłľ
Ġappro ach
Ġl at
Ġìĺ¬ ëł¤
le ge
d t
ë§ ŀ
anc ed
à ¤
ateg ory
ìĿ¸ ìĿĺ
M A
but ton
ĠY ork
ĠëĬĲ ëģ¼
av en
Ġdiff icult
Ġë° ¤
Ġshow s
ĠThe n
esc ription
Ġex act
ĠìķĬ ìķĦ
íĤ ¹
am ed
Ġse ction
p ri
ëıĻ ìĿĦ
ĠìĿ¸ íĦ°
b ase
Ġê¶ģ ê¸Ī
Ġproble ms
Ġterm s
air s
Ķ ê°Ģ
id ge
o res
Ġcl ick
ê¶ ģ
ag ed
Ġinst ead
ĠY our
il le
Ġë§¤ ìļ°
S er
ĠëĲĺ ê³ł
Ġens ure
Ġest ab
Ġì°¸ ê³ł
ĠíķĦìļĶ íķľ
íĦ ´
av es
ens ive
oc ol
| |
ĠO ff
O L
Ġê²° ìłķ
íģ¬ ë¦¼
ì¶Ķ ì²ľ
N ew
Ġë¶Ģ ëĭ´
Ġtr avel
Ġwor ds
ìĽĲ ìĿĢ
ĠT V
Ġëħ ¹
ìĹĪ ê³ł
ĠĠĠĠĠĠĠĠ ĠĠ
Ġb ad
ĠÐ ±
Ġd am
ut ed
ĠE d
Ġìĸ »
ìĿĦ ëķĮ
n ter
E nt
id ay
ith ub
Ġê°Ģ ìł¸
Ġíģ¬ ê²Į
c er
Ġ< <
Ġde g
ê²Į ìļĶ
ep s
Ġr ate
a id
Ë·} \
Ġìľł ì§Ģ
Ġìłľ ìŀĳ
ref ore
Ġso on
om et
Mod el
che ck
itt ing
Ġes pecially
it ing
ì½ ľ
Ġë§Ĳ ìĶĢ
Ġë³´ ìĿ´ëĬĶ
c ase
w ise
ĠìĪ ł
st atic
Ġoff ice
F r
Ġit ems
pl it
f in
ef ore
$ Ë·
Ġf ig
Ð½ Ð°
s up
Ġsc he
ì´ ī
b ug
Ġcontin ue
A d
Ġstand ard
Ġa w
Ġco ver
Ġìĭł ì²Ń
ĠP er
Ġ Ñĥ
Ġêµ¬ ìŀħ
ĠìĽ ĥ
uf act
ìĬ¤ ëĬĶ
p age
ì Į
Ġìłľ ëĮĢë¡ľ
B C
em pt
Ġìŀ¬ ë¯¸
ĠC ity
he l
tt y
Ġv o
â Ĩ
i us
Ġëı ¼
Ġì°¸ ìĹ¬
h and
ìķĦ ì£¼
Ġê²Į ìŀĦ
ëĬĶ ëĭ¤
Ġmat ter
ĠP art
[ "
m ark
ëĸ ¡
N S
et urn
Ġnot hing
Ġinclud es
Ġê° ĳ
Ġass ist
ì ¥
g en
Ġì£¼ ì°¨
ìĻ Ķëĭ¤
Ġapp ly
ĠS et
ĠB o
ã İ
ĠN ational
Ġto ld
ove red
ap h
Ġloc ation
ë©Ķ ëī´
act ive
ĠìĨ ¡
im age
d oc
êµ° ìļĶ
Ġse par
ĠE l
ê²ł ì£ł
so ft
Ġth ird
íĬ ľ
irt ual
ĠìĹ° êµ¬
ub e
ë Ĵ
ist r
Ġus ers
Ġsignific ant
Ġb row
ĠìĤ¬ëŀĮ ëĵ¤ìĿ´
Ġo il
Ġv an
ĠĠĠĠĠĠĠĠĠĠĠĠĠĠĠĠ ĠĠĠĠĠĠĠĠĠĠĠĠĠĠĠ
Ġfil es
Ġf ire
Ġf ul
Ġëĵ £
ìĤ¬ ìĿĺ
Ġreg ard
ì ¯¤
Ġí ĳ¸
ê¹ ¨
ag ing
ĠA ust
Ġwant ed
Ġdesign ed
S ystem
Ġê²½ íĹĺ
Ġa ge
ĠìŀĲ ìĦ¸
ĠíķĻ ìĥĿ
n ext
ĠìķĦ íĮĮíĬ¸
ĠìĿ ĳ
Ġcor rect
ĠìłĢ ëł´
ap ter
ce ed
Ġìī½ ê²Į
Ġlik ely
ë¦ ¿
ass ert
Ġw ays
l ib
Ġë¿ Į
M S
Ġì± Ļ
and om
Ġknow ledge
Ġíķ´ ì£¼
Ġhig her
ëĵľ ë¦½ëĭĪëĭ¤
Ġst aff
Ġeff ort
Ġíķĺ ëĬĶëį°
Ġequ ip
ĠD is
il on
M P
sp ace
Ġì¦Ŀ ê°Ģ
I R
t em
Ġfor ward
ìĪĺ ëĬĶ
add ing
Ġs ens
B S
Ġd ouble
Ġf a
¨ ìĿ´
Ġprob ably
r ang
Ġp red
ë¿ Ĳ
n y
Ġtyp es
ĠS er
ê°Ļ ìĿ´
Ġìķ ħ
Ġadd itional
z y
ĠìŀĲìĭł ìĿĺ
Ġle arning
Ġn ode
__ __
ĠìŀĲ ì²´
Ġw atch
ľ ĺ
" />
j ust
ĠH is
Ġìłľ ìĿ¼
Ġin fl
Ġg round
n ov
Ðµ ÑĤ
ãħľ ãħľ
Ġë Ł
ìĿ´ ì§Ģë§Į
Ġb order
Ġreg ular
ĠìĿ´ íķ´
Ġdo or
ĠìĦ± ê³µ
c ul
Ġì» ¨
r up
ĠìĹ´ ìĭ¬íŀĪ
ìłľ ë¥¼
Ġsu ff
Ġê· ¹
^ \
im g
ê°Ĳ ìĿĦ
Ġt akes
ĠS outh
Ġf it
Ġex tra
Ġl ength
Ġyour self
ìĸ´ ìķ¼
Ġíĺ ¹
math bf
ëŀ Ĳ
Ġìĥģ ìĬ¹
Ġinit ial
Ġup on
R eg
ìĸ´ ê°Ģ
Ġíķ´ ëĭ¹
Ġë¶Ģ ìĤ°
es e
b eta
ew ork
Ġw ar
Ġìłģ ìļ©
un t
ĠìĦł ë¬¼
Ġser ver
f low
Tr ans
C l
Ġout side
Ġfav or
ìĬ ´
Ġíķ´ ê²°
ĠS chool
Ġë Ľ°
ap ache
Ġf ast
Ġcent er
ë¹ Ľ
Ġê°Ģ ëĵĿ
Ġìŀĳ íĴĪ
Ġg e
Ġwor d
": "
Ġs ix
ach ing
Ġìĺ¤ íĽĦ
ìĿ´ ìĹĪëĭ¤
Ġê°Ļ ìĬµëĭĪëĭ¤
Ġcond itions
Ð½ Ð¾
Ġph one
ìłĦ ë¬¸
ĠW orld
Ġrelations hip
L e
op h
íĭ ±
íĬ¹ ë³Ħ
Ã §
Ġpop ular
R ead
Ġl ower
Ġind ic
c a
Ġë¶Ħ ëĵ¤ìĿ´
Ġevery one
ì£¼ íĥĿ
Ġ row
Ġê°Ģ ê¹Į
Ġask ed
Ġmem ber
Ġcustom er
- \
ìłĲ ìĿĦ
an ch
Ġë°Ľ ê³ł
Ġì¤ĳìļĶ íķľ
v is
íķĺ ìĭ¤
yn am
Ġ il
ĠìĤ´ ì§Ŀ
Ġint rodu
Ġë¹ ¼
k en
g ithub
Ġdev ice
ìĿ´ ìĹĲ
ĠI D
Ġne g
ĠìŀĲ ë¦¬
ĠA b
ĠíĿ Ĳ
ê² ģ
ĠL ist
ig ation
ĩ¼ íķĳ
Ġë¸Į ëŀľëĵľ
Ġd raw
ĠA g
c ss
ìĿ¸ ìĿĦ
Ġ} ;
ëĤĺ ë¬´
ĠL a
Ġs ave
ìłĲ ìĿ´
ĠíĻ ©
Ġcom fort
Par am
Col or
Ġ ill
íĿ ¥
ì¢ĭ ìĿĢ
I I
p o
ìĭĿ ìľ¼ë¡ľ
ìŀ ĸ
U L
Ġb ound
ë§ ¥
íİĺ ìĿ´ì§Ģ
Ġì¸ ¡
Ġro ad
Ġë¹Ħ êµĲ
qu ery
íķľ íħĮ
íĮ Ķ
Ġide as
ë ļ
Ġìĸ ĺ
ë¶Ģ ëĬĶ
d ev
® ¤
T able
m ing
Ġval id
Ġsec urity
Ġë ļ
Ġë ī´
Ġand roid
Ġread y
Ġrece ived
Ġ ;
ĠìĹ¬ ë¦Ħ
íĻĶ ì§Ī
ì§Ģ ëĤľ
ĠSt ate
val id
ë¡ ¯
is f
Ġbeh ind
Ġc am
s y
C ount
a e
ĠìĿ´ ë£¨
ĠìĽ Į
ëŁ Ń
ĠJ an
he ight
g le
P S
Ġlong er
=" ../../
mod el
Ġê·¸ ë¦¼
Ġn il
ìĬ ·
re c
ìķĺ ìĸ´ìļĶ
ëĮĢ ë¥¼
ëĤ ¸
ĠêµŃ ë¯¼
D ate
Ġl oss
ìĿ´ íĦ°
ĠS ome
Ġrece ive
al es
Ġs ort
ê¹ Ĳ
Ġë°Ķ ëŀĮ
Ġs on
Ġ ]
Ġrem ov
Ġíĳľ íĺĦ
Ġbu ilt
ĠN orth
ìĥĿ íĻľ
Ġë¬¸ ìĿĺ
Ġê°Ħ ëĭ¨
ìĥĿ ê°ģ
V E
ĠìĿ´ ëıĻ
Ġcond ition
Ġs le
} _
Ġus ually
Ð» Ð°
ĠíĬ¹ ë³Ħ
Ġg lobal
Ġë³´ ëĬĶ
P r
íķĺ ìĭľë©´
Ġh ol
Ġacc ording
or ks
Ġhe ight
Ġw indow
s ing
Ġìĺ¬ íķ´
out e
Ġsa f
ëķĮ ë¬¸ìĹĲ
Ġs end
Ġincre ase
Ġk it
Ġcol lect
com ing
ê ´
Ġg ames
ĠìĿ¼ ìĿ´
ac her
ĠíĻĶ ìŀ¥
Ġs qu
p ost
M anager
Ġì°į ìĸ´
e es
ëģ Ĺ
In ter
Ġmult iple
e ff
Ġrec ogn
Ġis n
Ġì£¼ ëĬĶ
ÂłÂł ÂłÂł
Ġcom ing
h ib
ch ange
ĠíķŃ ìĥģ
ĠM od
Ġcurrent ly
ĠìŀĪ ê¸°
Ġë§ĽìŀĪ ëĬĶ
ë§Į íķľ
if ier
Pro perty
Ð½ Ñĭ
ĠìĻ ķ
Ġë¬´ ë£Į
ĠìĹ¬ ìĦ±
ëł¸ ëĭ¤
Ġag o
in ner
D is
Ġrel ated
Ġì£¼ ë³Ģ
k m
s igma
Ġpri or
i ol
ìĶ ¬
Ġ= ==
T H
Ġnew s
ì¹ ¼
Ġê¿ Ī
ìĶ¨ ê°Ģ
ĠS m
ìłľ ì£¼
Ġì¶© ë¶Ħ
( {
ìĿ¼ ìĿĦ
b uild
Ġp ers
ìĹħ ì²´
ĠM an
ìł¸ ìĦľ
ĠB ar
Ġup date
Ġse ems
b ig
Ġimp act
Ġìĺ ·
Ġì¼ ĢìĿ´
? )
Ġì¿ ł
u ge
ĠA ct
at o
Ġs il
Ġhe ld
u el
Ġë°° ìļ°
Ġs n
in ition
ìĿ¸ ëĭ¤
ìĬ¤ëŁ¬ ìļ´
Ġsc reen
ìľ¼ë¡ľ ëıĦ
Ġíķ´ ëıĦ
ìĹ¬ ê¸°
f ont
O ne
Ġfil m
ê°Ģ ê°Ģ
z a
Ġsh all
re ed
Ġ( \
ìĿĮ ìĿĦ
Ġë ŀ
op s
Ð» Ð¸
Ġr isk
ĠS ch
íķĻ ìĽĲ
Ġl abel
Ġpart y
ac ing
C all
m ission
Ġì¹ ¼
ìĭĿ ìĿ´
Ġë¶Ģ ëĵľ
Ġìĸ´ ë¦°
Ġì¹ĺ ë£Į
opt ion
ĉĉĉĉ ĉĉ
k a
ild e
Ġc irc
ç ļ
Ġë°ľ íĳľ
ell ow
Ġits elf
ail y
Qu ery
con tain
ĠĠĠĠĠĠĠĠĠĠĠĠĠĠĠĠ Ġ
Res ponse
ë³´ ëĭ¤ëĬĶ
ĠìłĦ íĻĶ
t ab
ĠĠĠ Ċ
ĠìłķëıĦ ë¡ľ
Ġappe ar
ëĵľ ë¥¼
ver se
ĠìŀĪ ê²Į
idd en
Ġve h
ìľĦ ë¥¼
; &
Ġle ave
at al
Ġallow s
ìķ ķ
ĠP ark
Ġgr ad
f unc
Ġl anguage
Ġpre p
Ġê³³ ìĿ´
ers ion
ìĿĢ íĸī
i i
D o
Ġc ases
ê°Ģ ë¥¼
Ġup d
ĠW ill
ĠA m
Ġar ch
ê¹ Ķ
ire ction
ĠíĶĮ ëłĪìĿ´
ur g
E X
Ġinclud ed
ëĮĢ êµ¬
F A
Ġê°ĢëĬ¥ íķľ
Ġë© Ģ
Ġcho ice
ĠA ut
ĠSt ud
Ġìłľ ì£¼
C lient
Ġeas ily
Ġê¸ ´
Ðº Ð°
ê±° ìļ´
Ġcl ients
Ġcol lection
Ã© s
" ]
ĠíĿ Ķ
Ġí į¼
Ġl es
Ġ å
ĠëĲĺ ë©´
ĠëĶ° ë¡ľ
m ail
Ġm ix
ê¼ ¼
> &
ì»¤ íĶ¼
ĠëĤĺìĺ¤ ëĬĶ
ìŀ¥ ìĿĺ
ìĤ Ń
ê¸° ê°Ħ
âĻ ¡
ëĿ¼ ë©´
op en
so le
ëĵľ ë¦´
b ased
Ġthrough out
H T
j son
Ġpro te
Ġë§Ī ëł¨
íı Ĳ
Ġcomp lex
Ġë ½
ak er
ëĭĪ ëĭ¹
Ð¾Ð ¹
Ġb al
ëĲ Ĳ
ĠSt ates
Ġë§ ĺ
Ġloc ated
t x
e ks
Ġë§ ¥
Ġh on
. '
ìŀ ł
ì§Ħ ëĭ¤
Ġb ir
ĠìĶ ¨
Ġcon tract
ë§ ¨
b or
Ġë°Ķ ëĿ¼
Ġde ep
ĠëĶ ¸
Ġwe ight
Ġwond er
Ġëħ¸ ëŀĺ
Ġnecess ary
Ġcol umn
ĠìĺĪ ìģĺ
se qu
Ġ( )
ĠìĹ° ê²°
Ġì¢ĭ ìķĦìļĶ
Ġw ood
Ġë² Ķ
ë§İ ìĿĢ
Ġfinanc ial
x y
Ġcomm and
er g
m as
Ġê²ĥ ìŀħëĭĪëĭ¤
ĠA pr
ĠM ark
ag n
ic les
Ġëĵ± ìĿ´
Ġê±± ìłķ
Ġlim it
Ë· ãİ
ĠìĹĨ ìĸ´
ĠìŀĲ ê¸°
ĠI S
Ġê·¸ ëĮĢë¡ľ
çļ Ħ
Ġëį ķ
a ul
c ore
ìĦł ìĿĦ
Ġs ense
Ġpre tty
Ġto wn
ĠìĨ Ķ
Ġr ound
ĠíĶĦ ë¡ľê·¸ëŀ¨
ot ype
ê¼ ¬
Ġíķĺ ê¸°
ëĶ ±
ëĮĢ ê°Ģ
ĠìķĦ ë¦Ħ
ĠN ow
Ġì¢ħ ë¥ĺ
Ð¾Ð³ Ð¾
ë¡ ±
ev ent
ì¹ Ń
ê²½ ìĿĦ
ur b
ĠG ener
ìī ½
ĠD ep
íļĮ ìĿĺ
ĠìĤ¬ ê³ł
Ġbr and
ĠìĹħ ì²´
act ory
ìĹ ĺ
y ear
ìĨĮ ë¥¼
ist ration
ac ity
ĠJ ust
Ġsk in
ê·¸ ëĥ¥
ĠìĺĪ ìĥģ
Ġ' '
Ë·% )
y les
ĠV al
n own
ëĺĲ íķľ
Ã ¥
íĸĪ ê³ł
ëĳ ĺ
Ġwr itten
ìĹĦ ë§Ī
ĠìĬ¤ íĬ¸
Ġor d
ic o
resp ond
b a
Ġf ail
ìľĦ ìĹĲ
requ est
Ġìĥģ ëĭ¹
Ġansw er
Ġìĸ´ ëłµ
ìĸĳ ìĿ´
Ġë¶Ħ ëĵ¤
ram ework
ĠíķĻ êµĲ
í Ģ
E C
ìłĳ ê¸°
ê°Ģ ìĦľ
Ġsa w
Ð² Ð°
ĠëĤ´ ë¶Ģ
r un
Ġ ãħİ
ì§Ģ ìķĬ
Ġg ir
* }
Ġc ross
Ġìķ Ķ
Ġtreat ment
ëĭ Ń
A p
íķĻ ìĥĿ
ìĦ ¯
R ec
ĠR ep
r ad
Ġ !!
O ur
Ġpract ice
ĠìŀĪ ëĬĶëį°ìļĶ
Ġob serv
sh ip
ìļ° ìĬ¤
Ġìĺģ íĸ¥
ìĭľ ì¼ľ
Ġsh own
íķĺ ëĭ¤ê³ł
~~ ~~
ir it
Ġë³´ ëĭ¤
U E
Ġmain tain
ëł¤ ìĦľ
Ġman ufact
ad em
Ġhapp y
ëįĶëĿ¼ ëıĦ
ìŀ¥ ëĭĺ
S ub
Ġpro per
ì½ ©
íķľ ëĭ¤ê³ł
Ġprodu ction
Ġmod els
ĠëĤĺ ìĻĢ
Ġn ormal
Ġë¶Ģ ì¡±
Ġim ages
íĨ ¤
Ġc ause
Ġam az
íĽ Ī
ä º
ĠíĴ Ī
E d
i os
ë¦ ĩ
ìĪĺ ëıĦ
ìĿ´ ì£ł
ê°Ī ë¹Ħ
Ġê³¼ ìłķ
i pe
Ġpart s
Ġs we
i as
iz es
ì¹ĺ ê°Ģ
Ġconc ern
á Ħ
i am
C he
ìĤ¬ ìĿ´
ìķĦ ëĭĪ
Ġb ool
ì¢ Į
Ġstruct ure
ĠL et
Ġê¸° ê°Ħ
Ġìłķ ë¦¬
Ġread ing
Ġopportun ity
ìķĺ ìĬµëĭĪëĭ¤
ëĦ ĺ
Ġlook s
} _{
íĶĦ ë¡ľ
Ġëľ »
ìĿ´ìĸ´ íĬ¸
Ġdirect ly
Ġê² ¬
ìĽĲ ìĹĲ
Ġìĭ «
c urrent
Ġ$ (
í Ĥ¬
Ġì ª½
Ġë§ ¡
Ġìĭľ ìĽĲ
Ġdri ve
ì§Ģ ë¡ľ
A pp
Ġmod ern
ë° ĸìĹĲ
Ġmethod s
ìľ ¤
f alse
ìĹĨ ëĬĶ
Ġd a
Ġany one
ĠíĿ ¬
Ġs un
Ġcom pl
ìķĦ ì§Ģ
ï¼ Į
ĠM on
Ġd og
Ġw ide
Ġin sp
íĻĶ ê°Ģ
ëĶĶ ìĺ¤
Ġgiv es
Ġì¢ĭ ëĭ¤
Ġê°Ģ ìĦľ
ëĭ¤ ìĭľ
S P
īìŀ¥ íŀĪ
re st
ìĿ´ ìĥģ
Ġê°Ģ ìļ´ëį°
ìĭľ ìĦ¤
Ġrec ent
ì²ĺ ìĿĮ
Ġc y
ìĿ´ëĿ¼ ë©´
æ ľ
li ke
lo at
ë°© ë²ķ
l en
ĠìĽ Ģ
Ġst atus
U M
Ġë¹Ħ ìĬ·
am a
âĢ ¢
ch ild
Ġëľ ¨
T D
Im age
ĠìłĦ ë§Ŀ
con text
Ġeduc ation
ìĥ ¤
math rm
Ġreg ion
ë¨¹ ê³ł
Ġad min
ëĲĺ ì§Ģ
ĠìĿ´ ë²¤íĬ¸
ache s
ì§Ģ ìĹĲ
Ġde ath
ë² ¨
pt ions
Ġdef ined
ĠD on
Ġav oid
Ġìĸ¼ë§Ī ëĤĺ
íĶ¼ ë¶Ģ
icro soft
> >
Ġì§ ľ
Ġg en
g amma
íļĮ ë¥¼
ĠìĻĦ ìĦ±
Ġ ÑĤ
Ġwork ed
Ġquick ly
ĠS w
Ġìĺ¤ ëĬĶ
ent al
i ers
the ta
ìĹĪ ì§Ģë§Į
ĺ ĳ
Th at
ë¡ľ ëĬĶ
ìĤ¬ ìļ©
Ġfe ed
ìĸ´ ëĸ
ĠC lass
Ġíĺ¼ ìŀĲ
íģ °
Ġl os
Ġproject s
íİ´ ê¸°
a a
z z
Ġì «
ĠìĿ´ ëĤł
ĠìĿ¸ íķ´
oc ks
Ġrecomm end
Ġt our
Ġwor th
ri p
ĵ ¨
ðŁ ĺ
ìł ł
Ġsh ip
á ħ
I F
Ë·} $
Ġins urance
Ġê½ ¤
A ct
Ġeffect ive
olog ical
ĠS im
Ġnot e
Ġsat isf
ele br
Ġpol icy
Ġim medi
ìĿ´ ê¸°
ìĿ´ ìķ¼
T Y
Ġcomput er
Ġaff ect
ì¹ĺ ê³ł
x i
Ġê¸° ì¡´
ist ry
ë ½
Ġìķ½ ê°Ħ
Ġì½Ķ ë¡ľëĤĺ
Ġt im
ë§Į ìĿĺ
Ġê¸° ë¶Ħ
Ġsal es
Ġre pl
S C
ab y
Ġë°Ķ ëŀįëĭĪëĭ¤
Ġh or
Ġpl atform
Ġey es
Ġactiv ities
ëıĦ ìĭľ
ĠH igh
Ġpat tern
ĠëĬ ¥
in ate
AM E
ê¸Ī ìĿĦ
ock et
ìķ ¤
ĠC r
íĺ Ī
Ġë°Ľ ìĿĦ
Ġê·¸ëŀĺ ëıĦ
Ġent ry
at ur
ìľ¼ ë©´ìĦľ
Ġc ool
Ġs ong
ì£¼ ì°¨
G roup
íĮ ©
Ġon es
Ġë¹ µ
Ġp le
ë¹ Ī
ro s
re et
h am
Ġgrow th
() {
Ġb lo
Ġgr aph
d elta
Ġ vers
Ġì§ĳ ì¤ĳ
P C
Ð¸ ÑĤ
ëĤ Ļ
Ġart icle
ĠW est
ìĹ¬ ìĦľ
ëĮĢ íķľ
Ġex press
ĠF in
Ġele ments
Ġíķł ìĿ¸
ëŀ «
=" #
ì¹ Ļ
ĠëĦ¤ ìĿ´ë²Ħ
ìķĺ ëĬĶëį°
Ġë¶Ħ ëĵ¤ìĿĢ
ĠëĮĢ ë¶Ģë¶Ħ
ĠM c
Ġbeh av
ĠêµŃ ê°Ģ
Ġspe ed
ĠëĶ° ë¥´ë©´
Ġëħ¸ ëł¥
ĠëĤĺ ìĦľ
en ces
âĶ Ģ
h as
Ġk ids
Ġëª¨ìĬµ ìĿĦ
Ġpre vent
In put
ìĹ¬ ëŁ¬
h ood
id ing
Ġtri ed
ĠìĹĨ ê³ł
Ġh air
c ing
ëŀ Ħ
^{ -Ë·
ê²ł ìĸ´ìļĶ
Ġcont rib
Ġë§ Ŀ
Ġê¹ Ĭ
ĠP e
Ġsk ills
ere nces
Ġìļ ķ
ĠíļĮ ìĤ¬
Ġs low
Ġc and
ĠìĪľ ê°Ħ
Ġhand s
êµŃ ìĪĺ
av y
ì¦ Į
fig ure
Ġíķĺ ë©´ìĦľ
ir ing
pack age
Ġë¯¸ ë¦¬
Ġvari ety
ĠP res
ë¦¬ ì¹´
Ġc atch
id a
å ı
ì§Ģ ì§Ģ
Ġqu al
ide red
ìľ¼ë¡ľ ëĬĶ
ìĤ¬ ëŀĳ
c el
Ðµ Ð½Ð¸
ìĿ¸ ìĿĢ
Ġexc ell
Ġa verage
Ġform at
Ġê·¸ëŁ° ì§Ģ
ond on
Ar g
ëĿ¼ ë§Ī
ar ies
ĠìĿ¸ íħĮë¦¬ìĸ´
Ġë´ ī
ĠT est
Ġanal ysis
Ġcons ist
St atus
ë¶Ħ ìĹĲ
m ethod
enc ed
Ġëĭ¤ ëĭĪ
ëŁ¬ ìĬ¤
ch an
iz er
ĠR ec
Ġë°Ľ ìĿĢ
Ġ+ =
ìŀĲ ë¡ľ
em ents
d ir
Ġwe eks
id get
T O
o oth
en ing
Ġl ines
ĠÂ «
Ġcou ple
Ġë°© ìĨ¡
ìĬ¤ íĨł
ĠìĦ ¼
ë²Ī íĺ¸
f ind
ĠìĿ´ ëŁ¬
íĦ ¸
Ġbook s
ĠëıĦ ìĭľ
c ell
cl ient
go ogle
st d
Ġë³´ ê¸°
ĠëĬ ¦
Ġm ount
ĠíĻľ ëıĻ
t imes
Ġl ate
Ġê²° êµŃ
Ġres ources
ê·¸ ëŁ¼
Ðº Ð¸
Ġë§Ī ë¬´ë¦¬
ic i
$ $
h aps
ĉ Ċ
A fter
ì² ¨
ill ing
Ġê²½ ê¸°
L ine
Ġë°ľ ê²¬
íķĺ ìŀĲ
Ġ ãħĭ
Ġì§ĢëĤľ íķ´
ĠëĮĢ ë¹Ħ
ìĿĺ ë¥¼
L ay
Ġd riv
cent er
ëĭ¤ ìļ´
Ġs em
Ġìĸ´ ìļ¸
Ġwr ong
-- -
M ethod
Ġsol utions
Ġg roups
Ġcred it
Ġbo ard
ìŀ¬ ìĥĿ
Ġc as
Ġìĭľê°Ħ ìĿĦ
ë£ ¹
Q L
E M
ĠAr t
p at
it ter
Ġì´ ī
Ġì¤ĳ ìĭ¬
s im
Ġê¼ ¬
Ġbe gan
ar ter
ì¶ ĺ
Ġì¡´ ìŀ¬
Ġì§Ģ ìĨį
Ĩ į
Ð¾ Ñģ
A ut
ĠìĦ± ìŀ¥
Ħ ìĥĪ
ĠëķĮ ëĬĶ
ì¤ ¬
St ream
ĠApr il
ëŀľ ë§ĮìĹĲ
Ġm ention
Ġf ont
Ġì²Ń ìĨĮ
ust er
_ .
Ġatt empt
p arent
ìĥģ ìĹĲ
Ġmeas ure
r ho
Ġlat est
s u
ìĥ µ
opt ions
n u
ëŀ ¬
ĠÐ °
Se lect
Over ride
at ory
Ġì§ĳ ìĹĲ
ëľ ¨
Ġëª¨ ëį¸
Build er
Ġê³ł ê¸°
ĠS ee
Ġj oin
ê²ĥ ìĿĢ
Ġë§ĪìĿĮ ìĹĲ
ĠìĥĿ ìĤ°
Ġì» ¬ëŁ¬
Ġd ark
g or
ĠA ug
Ġlead ing
Ġbec ame
ĠìķĪ ëĤ´
Ġt en
íŀ Į
ê·¸ëŁ° ëį°
ĠT HE
íķ¨ ìĿĦ
ëł ī
E nd
ë Į
ĠS ec
en ame
íĻ Ģ
Ġatt ack
ĠìŀĪ ëįĺ
Ġìłľ ê±°
ĠìĹ° ëĿ½
u id
Ġì´ ¬ìĺģ
h ost
Ġthem selves
ĠëıĦ ìĽĢìĿ´
ĠìĿ¼ ë¶Ģ
Ġê²Ģ ìĥī
ĠF rom
Ġrem ove
Ġë¶Ħ ìĦĿ
o e
Ġt ask
Ġde cl
Ġf ine
Ġì£¼ ë§Ĳ
app ing
ìĽĲ ìĿĺ
Ġsol id
f a
ĠG erm
ìŀĲ ë¦¬
> (
ëªħ ìĿĦ
Ġgo al
Ġìŀĳ ìĦ±
ch ar
Ġun it
epend ent
ĠìĪĺ ì¤Ģ
ĠH er
ĠH ere
app end
ĠTr ans
Ġab ility
Ġf requ
ãĢ Ĥ
ĠìĤ¬ì§Ħ ìĿĦ
le q
ê°Ģ ê³ł
Ġright s
ìļ´ ëıĻ
m ain
Ġtool s
Ġlevel s
com es
ial og
ĠO ct
Ġë§¤ ìĿ¼
Ġassoci ated
ìĪĺ ë¡Ŀ
Ġê²¨ ìļ¸
Ġcons idered
Ġdep end
Ġaut o
ĠìĹĨ ìĸ´ìĦľ
Ġpre c
Ġn ice
Ġì¢ĭ ê³ł
Ġpos itive
íĻĺ ê²½
ìº Ĳ
ĠìĤ¼ ìĦ±
ĠGo ogle
Ġn a
ĠAust ral
her n
ĠCount y
ĠM ore
Ġmaterial s
Ġmor ning
Ġp ark
E L
Ġpro perties
S tr
ì¢ Ģ
Ġs us
Ġl ost
Ġb all
Ġê±° ëŀĺ
ind ing
Ġintern ational
Ġ util
ĠëĦ£ ê³ł
ĠEng lish
ang er
Ġm other
Ġì¦ ī
Ġl ives
oci ety
ĠëĤ¨ ìŀĲ
ĠìĿ´ ë¥¼
head er
ĠíĻķ ìĭ¤
Ġn ational
íķĺ ëįĺ
bt n
ĠCent er
m em
Ġcon nection
ele te
ìĿ´ ë©´
ĠìĪĺ ê°Ģ
Ġprovid ing
Ġf resh
íĴ Ģ
G ener
st atus
Â »
iÃ³ n
ã Ĩį
S he
Ġent er
Ġd im
ĠìĨĮ ë¹Ħ
ĠìĤ¬ ê±´
us es
O W
Ġrec ently
Ġtem per
ourn al
ìħĶ ìķ¼
ĠìŀĲ ìľł
Ġì½ ĺ
Ġê¹¨ ëģĹ
an o
ëĭ¤ ëĭĪ
ĠA cc
P os
ĠB rit
Ġìĺģ ìĸ´
ĠíĶ¼ íķ´
ĠN e
ëĦ¤ ìĿ´ë²Ħ
Ġbut ton
Ġus es
ĠA c
ĠA ir
ar a
Ðµ Ð¼
ĠP lease
ìłķ ë¶Ģ
ìĥģ ìĿĺ
ë¦¬ ê¸°
Ġs ell
Ġp ull
ëł¤ ë©´
Ë·$ ,
ìłĦ ìĿĦ
ä »
Ġan im
rup t
ĠìĿ´ ê³³
ëĤĺ ê²Į
ĠÐ ¡
ë° ¤
ê² ¹
Ġconst ant
Ġpl ant
S ource
Ġtr ust
ĠA pp
Ġcor respond
Ġst ream
ì ĩ
t ure
enc ies
ĠíĻĺ ê²½
ell a
íĸĪ ì§Ģë§Į
ish ing
ate gy
ì¤ įëĭĪëĭ¤
al y
ìĺĪ ìķ½
arg s
Ġs ym
Ġsa fe
Ġhand le
ĠíĺĦ ëĮĢ
ìłĦ ìŀĲ
Ĳ ëŁ¬
n es
íĸĪëĭ¤ ê³ł
Ġt ouch
Ġë£ ¨
ê¸° ê³ł
ent y
Ġmed ical
Ġmach ine
Ġpat ients
Ġf elt
Ġê·ľ ëª¨
Ġg reen
k g
Ġatt ention
Ġro ll
C L
IN T
=" +Ë·
Ġ ãħł
ë¡Ń ê²Į
Ġact ive
ĠS te
ë ĩ
C K
Ġìĭľ ìĬ¤íħľ
Ġplay ers
ĠìĽĢ ì§ģ
it ect
ĠO F
m t
Ġìłķ íĻķ
c s
u y
Ġamaz ing
ĠM arch
Ġsom et
ug in
ĠíĥĢ ê³ł
ĠWh ile
Ġb ud
Ġë§ŀ ëĬĶ
í ĵ¨
íĶ ½
ë» Ĳ
Ġë´ Ħ
Ġlead ers
Ġêµ¬ ì¡°
Ġc elebr
Ġcont ains
Ġmy self
Ġêµ¬ ê²½
ëĳ ¥
ĠU p
s rc
ĠëĲĺ ìĹĪ
ĠĠĠĠĠĠĠĠ Ċ
ĠëĶ° ëľ»
ĠìĤ´ íİ´
Ġrem ember
Ġim m
ĠS k
pect ed
ëĿ¼ ìĬ¤
Ġset ting
Ġe p
l ast
ì¥ ¬
ë¬¸ ìĿĺ
b um
Cont ent
ve y
Ġmeet ing
p ng
le m
Ġmarket ing
B A
Ġfunction s
E E
Ġstud ent
ĠR em
ëĮĢ ìĹĲ
ĠS T
Ġíı Ĳ
Ġkit chen
ë§Ī ìŀĲ
Ġë§ĽìŀĪ ê²Į
ĠìĬ¤ ë§ĪíĬ¸
ri ve
Ġprogram s
ĠR ed
Ġhigh ly
ĠëĤĺ ìĿĺ
Ġdec ision
Ġcost s
part ial
Ã £
at ives
ìĻ ľ
Ġac com
b ottom
ect or
Ð° ÑĤ
" ),
a ign
ĠìľĦ ìĹĲ
Ġìľ ¤
p ush
ê¸° ê´Ģ
í ĩ´
ft y
el ine
ta u
dis play
O ff
S p
d et
Ġê³µ ê°ľ
Ñ ī
el se
ĠìŀĪ ëĭµëĭĪëĭ¤
Ġëį ľ
Ġsum mer
ĠìķĪ ìĹĲ
Ġdiffere nce
Ġev al
Ġful ly
it able
ëĭ ī
Ġlook ed
Ġinvol ved
ve c
ĠìĹŃ íķł
b and
ê¸° ìĿĺ
ĠE m
ul a
ĠW ar
Ġchall eng
ĠM us
ìĦľ ëĬĶ
ë°Ķ ìĿ´
ĉĉĉĉ ĉĉĉĉ
th on
Ġv on
ser ver
Ġìĥ ¤
Ġcomm it
P oint
ĠìĤ¬ìĿ´ ì¦Ī
ìĹ ½
ĠO R
Ġflo or
Ġê²° íĺ¼
ĠH ar
íķĺê¸° ëıĦ
ìĦ¸ ê³Ħ
Ġd ed
Ġf ix
ëŃ Ĳ
Ġìķ ķ
ĠìĺĪ ìģľ
ĠN et
ë¹ Ļ
íķĺ ê±°ëĤĺ
Ġm ess
C ell
Ġn ature
Ġp or
r l
and roid
Ġ q
Com m
íķľ ëĭ¤ëĬĶ
Ġpre m
as ons
Ġë¹¨ ë¦¬
! "
al ing
Ë·] .
Ġì» ´
Ġëĭ Ń
ri ver
Ġêµ īìŀ¥íŀĪ
ì» ¬
ìŀĦ ìĿĦ
Ġre lease
ĠëĲĺ ìĹĪëĭ¤
p ass
Ġì§Ģ ë°©
ard en
Ġstre ng
Ġë¹ Į
n amespace
ĠH ol
St art
Ġê°ķ íĻĶ
d at
ĠĠĠĠĠĠĠĠ ĠĠĠĠĠĠ
ĠìłĦ êµŃ
Ġê¸Ī ìľµ
ĠìķĦ ìī¬
Ġcomplet ely
ĠP C
Ġpie ce
Ġê º¼
Ġcreat ing
Ġch ance
Ġëĥ ī
f irst
Ġre v
Ġess ential
íŀ ĺ
Ġem b
wo od
Ġst ates
x im
; </
Ġm obile
Ġgo es
íķĺ ìĺĢ
Ñ ĺ
ĠìĿ¸ ê°Ħ
Ġgiv ing
ë¬¸ ìĿĦ
Ë·} {Ë·
* /
= {
Ġì į
v ant
ìĤ° ìĹħ
Ġëģ Į
Ġê°ľ ìĦł
ĠCh ar
Ġw el
co ver
ĠS tr
ĠSe pt
erv ices
ĠìĦľ ë¡ľ
Ġëĭ¬ ëĿ¼
pl ies
ef ul
ĠS ervice
Ġpurch ase
Ġexact ly
ag ue
Ġmem ory
ëģ Ħ
H ead
ĠL ondon
Ġëģ ĵ
rou ght
ê°Ģ ìļĶ
it ude
ĠH ouse
ë¹Ħ ê°Ģ
m ore
Ġìłķ ìĭł
Ġë¹Ħ ìļ©
Ġpro gress
gor ith
ĠC ON
Ġabs ol
E O
t arget
ĠAmeric a
Ġsur pr
Ġ( $
ĠD ata
ì³ ¤
Ġëĭ¹ ìĭł
Ġb ank
er ve
Ġd oc
U P
ĠìĹ ¼
Ġë¬¸ íĻĶ
ëª ¸
ëĨĵ ê³ł
ĠëķĮë¬¸ ìĿ´ëĭ¤
Ġë ¥
Ë·$ .
ĠìĿĮ ìķħ
Ġìĵ ¸
ĠD av
Ġequip ment
Ġsur face
íķĺ ë£¨
Ġoffic ial
âĻ ¥
" ).
ap an
ëħĦ ìĹĲ
N ow
Ġa f
âĶĢ âĶĢ
ì£ Ħ
o om
ĠIn c
Ġì¢ Į
Ġcon cept
Ġte le
`` `
Ġinterest ing
Ġê²½ìļ° ê°Ģ
F l
! Ë·
Ġëĭ¹ ìĭľ
m ar
edd ing
Ġíķĺ ëĭ¤
Ġst orage
ĠD ay
Ġres ource
Ġkn ew
¢ °
Ë·% ,
U til
Ġë§Į ëĵľëĬĶ
Ġìĭľ ìŀ¥
ĠìĤ¬ìļ© íķł
ĠìĿ¸ ìłķ
cre t
a ctions
ìŀĪ ìĸ´ìĦľ
Inst ance
Ġl iter
ìķĦ ë¬´
Ġpl us
a res
ë¹Ħ ë¥¼
íĺ ģ
Ġê±´ ë¬¼
Ġspe ak
Ġm argin
Ġach ieve
od ing
,, ,
Ð° ÑĢ
n um
Ġs y
r ated
ĠU K
Ġëĸ ¡
u a
Ġëĵ¤ ê³ł
Ġhe ar
ĠìĹ¬ ìŀĲ
ĠìłĦ íĺĢ
ĠìłĲ ìĭ¬
Ġcare er
o z
Ġqu ant
R A
ĠM r
ĠëŃ Ķê°Ģ
Ġíķĺ ê²Į
ĠS an
R un
ê²ĥ ìĿĦ
str ong
ĠA ng
Ġphys ical
ìĸ´ ëĤľ
\ "
Ġb ottom
ìĿ´ ëŀĢ
w ide
Ġsub st
Ġë¶Ī íİ¸
ë ¢°
Ġwas n
D A
ĠìĬ¤íĥĢ ìĿ¼
? !
w rite
Ġëª© íĳľ
¾ Į
au gh
Ġì¢ĭ ìĬµëĭĪëĭ¤
ë Ģ
Ġin f
ë ¤
Ġt ag
Ġb ath
Ġ url
ëĤĺ ê³ł
ĠìĿ¸íĦ° ëĦ·
ë¦¬ ë¡ľ
Ġh it
ê³¼ ìĿĺ
ĠìĹĨ ìĿĦ
Ġre ach
u ate
F I
+ \
am ily
B ase
Ġs old
à ¸
Ġstart ing
ãģ ®
ë³´ íĹĺ
ĠíĿ ¡
ug ht
Ġenc our
ab s
ĠìĿ¼ ìĿĦ
ĠL icense
Ġìĺ¤ íĶĪ
Ġparent s
íĶ¼ ìĬ¤
Ã ł
Ġal tern
Ġhel ps
c y
ĠR E
Ġí ĩ´
Ġdec ided
ari o
Ġl ed
Ġë³Ħ ë¡ľ
loc al
Ë·, -Ë·
Ġhim self
Ġl if
Ġne igh
pt r
ĠO f
ì²Ń ìĨĮ
Ġì²´ íĹĺ
ì§Ģ ê²Į
in fty
¨ ìĶ¬
T P
ì¼ °
Ġin j
ìŀ ī
Ġ ãĢ
ou l
s pec
êµ¬ ë¥¼
Ġin form
B ar
ĠA fr
ëĭ Ĳ
r ate
Ġex cept
íĻ Ī
Ġë° ĳ
Ġë§Ĳ ìĿĦ
Ġë¹ Ľ
D F
ëĤ ©
íĺĦ ìŀ¬
T oken
ì¡° ê±´
Ġcom ment
Ġíĺ¸ íħĶ
Ġê³ł ê¸ī
ê°Ģ ë£¨
ìĬ¤ íħĮ
Ã£ o
Ġpict ure
Ġb and
Ġì¶Ķ ì§Ħ
Ġg ave
Ġíķ´ ìĻ¸
Ġë¬¸ìłľ ê°Ģ
B ox
ec ause
Ġbl ue
Ġãħİãħİ ãħİ
Ġíķĺ ëĭĪ
it ory
ar ant
Ġìĭľ íĹĺ
Ġg old
Ġt ree
ĠìĬ µ
Ġb i
ë¬¸ íĻĶ
le vel
Ġe in
or ge
ĠíĮ ¬
Ġexcell ent
S I
Ġë² Ĺ
es ter
Ġíķ µ
Ġinfl u
Ġturn ed
ëĲĺ ë©´
eg a
Ġnum bers
ĠO ut
ìĸ´ ë¥¼
en ge
Ġcount ries
Ġdis e
ro y
eq ref
Ġtrans form
Ġexper t
Ġê·¸ ë¦¬
ry pt
Ð¾ ÑĤ
ing ton
Ġsomet imes
Ġcon struct
ê·¸ëŁ¬ ëĤĺ
Ð¾Ð º
Ġìĺģ ìĥģ
Ġm er
ĠJ une
} );
ê±´ ê°ķ
ì§Ģ ìĽĲ
Ġn umer
ìĿ¼ ëĭ¨
Ġë¶Ģ ëıĻìĤ°
he t
ren ch
Ġìľłëªħ íķľ
Ġfam il
ë§ ĺ
Ġapplic ations
íķĺ ëĭ¤ëĬĶ
ëĿ¼ ìļ´
] )
Ġì Į
íģ Ĳ
Ġse qu
Ġdevelop ed
Ġfavor ite
S ON
C ON
Ġíŀ Ī
å ¤
Ġte acher
est s
ç Ķ
Ġd aily
ograph y
ĠíķĦ ìĪĺ
ìĹ° íŀĪ
Ġthink ing
row n
ë¦° ëĭ¤
prot otype
ĠIntern ational
Ġpl ans
ëĤ¬ ëĭ¤
G r
Ġt ast
Ġ ing
f ord
Ġs pect
ĠìĹ Ķ
ëĮĢ ìĿĺ
ĠB ro
g ener
us iness
Ġm id
ic ks
Ġfor mer
ê°ľ ë¥¼
Ġê·¸ëŁ¬ ëĤĺ
Ġhe at
h old
Che ck
Ġíķĺ ìĭľ
Ġg lass
Ġbenef its
Ġto wards
ê° Ķëĭ¤
ĠëĪĪ ìĹĲ
ìħ Ģ
mod ule
att le
Ġëģ ¼
A ction
Ġch arg
ì¹´ ëĵľ
ĠD ef
q l
ãħ ĩ
Ġdig ital
ist ics
i ance
ê·¸ ëłĩ
iqu es
ot o
Ġìĭł ê²½
ri ef
ĠP at
C reate
ĠÐ· Ð°
Ġê°ĢëĬ¥ íķ©ëĭĪëĭ¤
fo ot
ë§Ī ìĿĦ
Ġal t
Com ponent
C D
Ġget s
Ġprotect ed
Ġact ivity
P O
Ġhist or
oc r
Ġchang ed
Ġref erence
Ġre nt
Ġs ale
Ġsuccess ful
Ġn one
iv en
Ġì£¼ íĥĿ
Ġê·¼ ì²ĺ
íĬ¸ ë¡ľ
Hand ler
ĠW indows
st ream
Ġexist ing
ìķĦ íĮĮíĬ¸
Ġìĸ´ ì©
ìĦľ ë¥¼
ëĭĺ ëĵ¤
Ġappro pri
Ġrest aur
Ġw arm
x ml
se m
ĠìŀĪ ìľ¼ë©´
ot al
Ġì±Ļ ê²¨
Ġapp re
Ġsaf ety
ĠìĿ¼ ëĭ¨
ĠìĪĺ ìĹħ
ìĿ´ ìħĺ
ut or
Def ault
T V
Ġrequire ments
Ġë³ ¶
Ġf air
å ħ
Ġplay ing
ÑĨ Ð¸
ĠìĪĺ ìĿµ
Ġsit uation
Ġact ual
g n
ìĬ¤ëŁ½ ê²Į
Ġë§ŀì¶ °
Ġmult i
Ġì Įĵ
ĠWe b
Ġê°Ģ ìŀħ
ĠíħĮ ìĿ´ë¸Ķ
D B
ĠIn ter
Ġê°Ģ ê²Į
Ġcon struction
Ġëĵ± ìŀ¥
Ġë¨¹ ìľ¼ë©´
íķ¨ ìĿ´
Ë· (Ë·
Ġcontin u
Ġíķĺ ëĬĺ
h r
he nt
ê¸¸ ëŀĺ
Ġë¶Ģ ëª¨
ìłķ íķľ
Ġg as
Ġìĺ¤ ìłĦ
Ġim ag
Ġlim ited
Ġh our
Ġv iol
ĠíĽĦ ê¸°
Ġ( (
Ë·} {
ĠD irect
Ġintern al
ur t
ê°ľ ë°ľ
ëªħ ìĿĺ
F irst
Ġleg al
Ġê²½ ìŁģ
he st
Ġparam eters
ib ly
ĠF irst
Ġm ode
n on
Ġser ious
ous ly
Ġst ock
Ġcon tr
ĠBl ack
ìŀĪ ìĸ´ìļĶ
Ġselect ed
ĠO bject
Ġs av
Ë· *
ĠK ing
ad ow
But ton
ome ga
Ġìĭ ±
Ġìº ł
atic ally
eg er
Ġn ames
Ġë³´ íĺ¸
ë¬¼ ë¡ł
ĠS ub
ë¦ ī
Ġcal cul
ĠìĦ Ŀ
Ġ" ""
ĠíĶĦ ë¦¬
Ġd ro
¸ ëĵľ
**************** ****************
Ġs ession
T S
Ġë² ½
Ġbro ad
ĠìŀĲ ëıĻì°¨
Ġíĥ Ŀ
Ġw ish
init ely
z on
ìĦ¸ ë¥¼
Ġus eful
ãĦ ·
Cont roller
ìĿ´ëĿ¼ ëıĦ
Ġë¹ Ī
ë³´ ìĦ¸ìļĶ
Ġorgan ization
ìķĪ ìĹĲ
ë¶ Ļ
Ġtrad itional
Ġê°ĸ ê³ł
m iss
++ )
Ġê³µ ê¸ī
Ġìĺ¤ ë¥¸
er red
L et
ĠìĹĨ ìĬµëĭĪëĭ¤
ìŀĪ ê²Į
ens ions
Ġexper i
g ar
ìķĪ ìĿĦ
Ġhe ard
st ore
Ġh uge
Ġê¼ ¼
íķĺ ìħ¨
ĠëĴ ·
erv ed
ĠìĦ Ń
ar ily
Ġì¶ľ ìĭľ
$ -
Ġíķĺ ëĦ¤ìļĶ
it ute
A cc
qu ad
ìĨĮ íķľ
íı ´
Ġ ut
Ġì¼ Ģ
li er
ìĹ° êµ¬
Ġa ware
ĠĠĠĠĠĠĠĠĠĠĠĠĠĠĠĠ ĠĠĠĠĠĠĠĠĠĠĠĠĠĠĠĠĠĠĠ
ĠR ev
| \
ì» ´
Ġìķ ¡
ĠP ort
Ġpl aces
ê°Ģ ëĿ½
Ġmov ing
ëĤ´ ëĬĶ
rib utes
Ġt al
d raw
anc y
C A
Ġqu ery
Ġpub lished
íķł ëķĮ
Ġinter face
#### ####
Ġar riv
f ree
Ġf ather
ìĦ¸ ëĮĢ
' ).
G L
Ġcons um
ëŀĺ ëıĦ
Ġb oy
s g
Ġp an
gr ad
ound s
D elta
N umber
ove mber
p ol
Ġt ick
íļĮ ê°Ģ
âĸ ¼
ĠA re
ìļ° ëĬĶ
ë´Ĳ ìķ¼
ê°ľ ìĿ¸
ê² Ĳ
Ġí ĮĢ
ëĸ ¼
Ġpro ced
i ant
ë¦¬ ìĿĺ
ê²ł ëĭ¤ëĬĶ
Ġì¤ĳ ìĹĲ
Ġcar ry
P A
Ġfield s
Ġë¹Ħ íķ´
ĠAug ust
ê±° ëŀĺ
ĠìĿ¸ ìĥĿ
ĠC ons
Ġê·Ģ ìĹ¬
ĠìĹĲ ìĸ´
( &
Ġbir th
ĠAl so
St yle
U I
ul ations
a o
Ġsit es
Ġfin ally
ĠëĤĺ ë¬´
ele ment
Ġm is
Ë·} .
Ġcomp os
form at
ê°ľ ìĿĺ
ord s
ìĿ¼ ìĹĲ
ĠìĥĿê°ģ ìĿĦ
Ġíķĺ ë©°
Att ribute
Ġplay er
Ġblo od
ë©Ķ ëĿ¼
Ġcomm erc
Ġíıī ê°Ģ
Ġê³ł ëł¤
Ġf urn
ìĺĢ ìĸ´ìļĶ
ly ing
Ġplan ning
Ġê·¸ ëĬĶ
ëĮĢ íĳľ
Ġdat abase
ĠìĽĲ íķĺëĬĶ
N ull
Ġë§İ ìķĦìĦľ
Ġro ot
AB LE
ìĿ´ëĿ¼ ìĦľ
Ġst age
Ġse lection
ëĵľ ë¦¬ê³ł
ëĴ ¤
ëıĦ ëĬĶ
ĠìŀĪëĭ¤ ë©´
Ġun a
st e
ri al
Ġê³Ħ ìķ½
Ġbas ic
A ss
Ġsle ep
ĠíĻĪ íİĺìĿ´ì§Ģ
Ġeffect s
ê³µ ê°Ħ
ĠHe alth
Ġë°Ķ ëĢ
Ġë§İ ìķĦ
ëĮĢ ìłĦ
Ġbas is
Ġë° ĸìĹĲ
ĠR uss
ĠìĹ¬ëŁ¬ ë¶Ħ
íİ ľ
Ġinterest ed
ic ip
ê³¼ ëĬĶ
I O
Ġacc ur
Ġse g
Ġadv ant
ë² ¼
ĠëıĦ ìĻĢ
ê³µ ìĽĲ
Ġf irm
i very
Ġsc ale
m itted
Ġpur pose
P art
Ġfr ame
Ġal ign
Ġë°Ľ ëĬĶ
Ðµ Ð´
ĠìķĬ ìķĺëĭ¤
ìľ¼ ëŁ¬
íŀĪ ëł¤
ëģ Ī
ĠF ig
ìŀĸ ìķĦìļĶ
ëĲĺ ìĹĪëĭ¤
b on
ĠG roup
ore m
ce mber
Ġd ream
is ions
ìĤ¬ ìĹĲ
ĠAss oci
ĠN one
Ġíģ´ ë¦Ń
ĠCh ina
ad ata
F O
R ow
ê´ĳ ìĹŃìĭľ
j av
Ġoper ation
ĠìĪ ¨
ĠÐ Ĵ
in y
ĠìĻ¸ êµŃ
ĠInd ia
ĠíĸĪ ìĬµëĭĪëĭ¤
ĠìĦł ìĥĿ
p c
ìĦ Ń
ĠëĮĢ êµ¬
Ġíı¬ ìŀ¥
Ġcon duct
Ġpr ices
E m
Ġê¸° ìŀĲ
at tr
ĠíĮĲ ëĭ¨
ien ces
Ġmod ule
ĠìŀĪìĹĪ ìĸ´ìļĶ
Ġv ac
tt p
ĠJan uary
íĭ ´
Ġd ry
Ġgr and
ë¨¹ ëĬĶ
Ġpolit ical
it ure
ĠSept ember
ex p
Ġtri p
s igned
Ġp aint
P er
K E
S up
ĠëĮĢ íķĻ
sh ow
d l
Ġìļ°ë¦¬ ê°Ģ
ion e
U s
Ġíĥ ĢìĿ´
Ġë¬ »
Ġì£¼ ê³ł
Ġpack age
app ed
å ®
en ed
Ġdeg ree
Ġëª¨ ìĸĳ
rit er
Ġunderstand ing
âĢĿ .
Tr ue
p g
ĠH T
ĠP re
Ġde ad
Ġac qu
Ġey e
Ġallow ed
Ġëĭ¤ ë¥´
Ġfe et
âĸ ¶
k nown
ìª½ ìĹĲ
ì¡° ê¸Ī
== =
Ġj ud
h ouse
Ġê°ķ ì¡°
und le
ìĥģ ëĭ´
ĠëĤĺ ê°Ģ
ëĤ´ ê³ł
ic ate
ëĨ ĢìĿ´
="../../ ../../
m enu
ĠìĬ Ī
Ġp ages
Ġfor ce
Ġcons ult
x x
ìĿ¸ ì²ľ
Ġl inks
ag er
ĠíĽ ¨ìĶ¬
ĠìĿ´ë£¨ ìĸ´
end if
Ġ vert
ĠëĮĢ ìĭł
I B
al d
du le
{ "
ĠëĤĺ ëĪ
et te
Ġphot os
Ġa im
Ġìħ Ģ
Ġdem on
Ġw oman
} {\
if orn
Ġn av
Ġst ra
ìķĦ ì¹¨
Ġchar ge
v ider
ĠìľĦ íĹĺ
ĠI T
ĠJ uly
ĠíĽĦ ë³´
ê° Ĵ
Ġin nov
ri a
ĠìķĬëĬĶ ëĭ¤
ìķĦ ê°Ģ
ĠíĿ ĺ
AA AA
Ġ um
in i
Ġ Ñĩ
ìķĦ ì§ģ
Ġocc ur
Ð¼ Ð¸
t ilde
am ples
P re
ĠêµŃ ìłľ
ìŀĪ ê³ł
L ast
Ġparam eter
Ġcl ub
Ġì§ §
O ptions
Ġwh ose
N et
g est
ol ve
L oad
l ong
Ġìĺ¤ëĬĺ ìĿĢ
c apt
p rivate
contain er
ĠN OT
Ġìķŀ ìľ¼ë¡ľ
» ¿
ìŀ¥ ìľ¼ë¡ľ
k it
ob j
as ks
z en
Ġdr ug
a is
Ġ[ ]
ĠìĹħ ë¬´
ert ain
Ġsw itch
ë³ĳ ìĽĲ
R L
Ġê°ķ ëĤ¨
( ?)
over n
Ġbo olean
Ġp ool
Ġíĺ Ī
ĲëŁ¬ ëĵľ
ìĦľ ë¹ĦìĬ¤
Ġê´Ģê³Ħ ìŀĲëĬĶ
ëĳĲ ê³ł
ìĿ´ ëĭĪ
S D
Ġíĺķ íĥľ
ĠìķĦ ëĭĪëĭ¤
Ġex ception
Ġë³´ ìĿ¸ëĭ¤
ĠëĤ¨ íİ¸
Ġëĵ ł
Ġë¶Ģ íĥģ
ëıĦ ìĿĺ
ë´ Ħ
Ë·) )
Ġb rought
ÑĢ Ñĥ
Ġì¤ĳ ê°Ħ
' '
y ond
Ġdel iver
ë² ħ
x ff
Ġsee k
Ġh ous
v ille
Ġcompon ent
ì» µ
Ġë§Ĳ ê³ł
Ġë¸Ķ ëŀĻ
Ġë¨¸ ë¦¬
ë¡ ¤
ĠF ace
ì°¨ ë¥¼
u int
Ġê°ģ ê°ģ
Ġâ Ļ
ĠìĻĦ ë£Į
Ġh op
Ġlarg er
ëł¤ ìļĶ
Ġj e
ë§Ľ ìĿ´
Ġdec or
ê¸° ìĻĢ
Ä Ļ
Ġpass ed
ìĤ¬ ë¡ľ
Ġf ill
ĠìĤ¬ëŀĮ ìĿĢ
ĠìļĶ êµ¬
ìķĺ ëįĺ
up date
b ed
Ġíĺ ľ
ê²½ ê¸°ëıĦ
ĠE X
Ġíģ¬ ë¦¼
Ġë ĺĳ
ol f
ĠíĸĪ ìĸ´ìļĶ
ëŁī ìĿ´
Ġì¹ĺ ì¦Ī
} ^{
in n
P age
H ere
Ë·, \
ë³Ħ ë¡ľ
ĠJ apan
Ġë°© íĸ¥
ìĬ¤ ìĿĺ
Ġstep s
ï »¿
Ä į
ĠM ich
Ġg ar
L ink
c an
ëĥ ī
Ġë¨¹ ê¸°
Ġcommerc ial
Ġd irection
Ġprom ot
Ġd ress
Ġorig in
ëł¤ ëĬĶ
Ġsc ript
raph ics
ac ement
ens ity
Ä ħ
) (
s i
ic ed
ì¹ĺ ì¦Ī
Ġê¾¸ ì¤Ģ
Ġíİ¸ ìķĪ
Ġm iddle
ê²ł ëĭ¤ê³ł
ĠÐ Ł
Ġë¯¸ ëŀĺ
m en
Ġê°Ģ ì§Ħ
ìķĦ ëŀĺ
ì§ ĵ
id ents
ĠC our
B uffer
Ġìķŀ ìĹĲ
h ol
r d
ìĿ´ ëĤł
ĠOct ober
íĸĪ ìĿĦ
Ġsh ape
lay out
ìª½ ìľ¼ë¡ľ
Ġp ow
ê´Ģ ìĿ´
ĠëĶ° ë¥¸
ĠH ome
Ġë°Ķ ëĭ¤
Ġbegin ning
ĠE very
Ġnot ice
Ġst uff
Ġâ ĺ
Ġest im
Ġf lex
ĠìĨĮê°ľ íķ´
ìłĦ íŀĪ
Ñģ Ñı
ER R
p et
ĠPres ident
it ation
ĠëĦĺ ìĸ´
Ġìłķ ìĥģ
X X
íĬ¹ë³Ħ ìĭľ
it ution
Ġstr ateg
ìŀĲ ë§ĪìŀĲ
Ġìłķ ì±ħ
Ġcamp aign
Ġtrans port
str act
ìĶ¨ ëĬĶ
se mb
B U
Ġdist ance
ãħłãħł ãħłãħł
List ener
Ġcont ain
ĠÐ ļ
ì¹´ ìĺ¤
ëĵľ ë¡ľ
Ġ ir
ìĬ¤ ìĹĲ
ê¸° ìĪł
ìħĶ ëıĦ
ĠëĤ Ļ
Ġst ress
Ġmean ing
Ġd ynam
n umber
ëĵ± íķĻêµĲ
ë¶Ģ ë¥¼
< !--
ëĵ¤ ë¡ľ
Ġr andom
Ġ æ
ëĵľ ìĭľ
F T
i ation
Ġbe yond
//////// ////////
ìĥģ íĴĪ
Ġe arn
ë§Ī ë£¨
ê²½ ìłľ
Ġas pect
íĥ ĳ
Ġclass es
ĠR ead
ìĸ´ ì£¼
Ġtrans fer
ìłĲ ìĿĢ
ìĸ´ ë³´
å Ī
C P
Ġìĺģ ìĹħ
yp es
Ġex erc
ri e
j a
Ġìĺ¨ ëĿ¼ìĿ¸
pro perty
Ġindividual s
ìĽ ¨
ĠB ook
Ġë¶Ħ ìĸĳ
F actory
back ground
ill a
ĠìĿ´ ê±°
wh ich
Ġì£¼ ìļĶ
Ġf ab
Ġë¶Ħ ìķ¼
ĠS ince
ëĭ¤ ìĸĳ
ĠìĻĢ ìĦľ
for ce
ì² «
ĠêµĲ ì²´
set s
Ġreturn s
iforn ia
Ġincre asing
~ ^^
ê³Ħ ë¥¼
al ed
Ġrele ased
und red
ë© ĺ
ìĤ¬ íķŃ
ĠìĿ´ ìģĺ
Ġìŀĺ ëª»
ãħİãħİ ãħİ
Ġreturn ed
Ġsup ply
ic ated
Ġme chan
íĪ¬ ìŀĲ
Ġimmedi ately
Ġdesc ription
Ġpress ure
Ġin fo
Ġì¡ ¸
Ġì§Ģ íķĺ
íķľ ë²Ī
Ð¸ Ð½
ĠìĬ¤ ìĬ¤ë¡ľ
} (\
at ively
iz ations
âĢ ĺ
Ġsp end
Ġíķĺ ìĹ¬
Ġredu ce
Ġì½ ľ
ìĤ¬ ìĻĢ
ĠìĿ¸ ì²ľ
B lock
Ġreport ed
ì¦Ŀ ìĿĦ
Ġthe refore
Ġëĵ± ë¡Ŀ
use um
. /
ik i
ëģ Ŀ
Ġstra ight
Ġr ules
A b
=" ../
d ocument
Ġfil ter
Ġanal y
Ġdistrib ution
H el
Ġfeel ing
ĠAn y
r is
t ag
Ġu int
Ġgrow ing
íĶĦ íĬ¸
du c
Ġê± ·
A re
ì¤Ģ ëĭ¤
ë§¤ ìĿ¼
Ġst ar
ĠìĤ¬ ëĿ¼
pro duct
ê¼ Ń
Ġan g
ë¶Ħ ìĿĦ
Ġth us
om s
ist ory
u ce
Ġíİ ¼
P L
Ġdem and
ë§Ī ì§Ģë§ī
F unction
N E
ëįĶ êµ°ìļĶ
Ġveh icle
ëĭ Į
ĠíĬ Ģ
ch i
Ġíĭ Ģ
ĠA nt
Ġn ov
ìł ¤
ì£¼ ë¡ľ
Ġe at
) </
ä ½
.... ..
z er
Ġìłģ ëĭ¹
Ġrequ ires
{ {
Ġbu ff
Ġser ve
Ġí Ģ
Ë·] ;
ĠC O
ĠM ac
ter m
Ġass um
Ġplay ed
: )
å Ĳ
s ervice
ðŁ ĳ
m es
ĠìķĪ ìłķ
ĠN ovember
Ġëĵ± ìĹĲ
ìľ¼ ìĭł
Ġê¼¼ ê¼¼
Ġë¬¼ ê±´
Ġass ess
^ *
cd ot
Ġë²ł ìĿ´
ì§ĳ ìĹĲ
Ġì§ģ ìĽĲ
ĠR ef
ph one
G B
Ġset s
cl ose
re ement
ĠF ree
ê¶Į ìĿĦ
d ec
Ġflo at
Ġad just
Ġdev ices
ì° ľ
t hen
íķ´ ì§Ģ
ĠìĤ¬ ëĬĶ
Ġgu ide
al le
ë° Į
eq n
od ay
Ġm it
Ġ: :
Ġsp ent
Ġre ve
Ġext rem
Ġext ends
Ġl ib
p ite
Ġl as
Ġpart ners
ìĿ´ëĿ¼ ë©°
Ñ Ĺ
' .
Equ al
B l
Ġë¬´ ìĬ¨
$ {
íŀ Ĳ
Res ource
Ġê´Ģ ê´ĳ
Ġê° Ķëĭ¤
ĠìĤ¬ìļ© íķĺëĬĶ
Ġìĭľ ì¼ľ
ìľĦ ì¹ĺ
Ch ild
Ġbud get
Ġappre ci
Ġëª» íķľ
ens es
íĥĢ ë¯¼
le ctions
Ġê² ģ
Ġë²Ī ì§¸
Ġprodu ce
ì¶ľ ì²ĺ
Ń ī
OR T
ë¹ ¨
act ers
ĠìłĦ ìĭľ
Ġê³µ ìĹ°
Ġh ab
ed eral
Ġeas ier
L abel
he et
Ġc up
Ġì° ¬
Ġf ight
Ġë³´ íĨµ
Ġë§ĪìĿĮ ìĿĦ
ĠDes ign
Ġen h
P RO
ĠL og
Ġê·¸ ëħĢ
ĠM ost
O per
ĠìŀĪìĹĪ ëĬĶëį°
ĠëĳĲ ê³ł
Ġë°Ķ ëĭ¥
Ġìŀ Ĭ
ĠChe ck
Ġd ou
b en
ĠO pen
Ġref lect
Ġìĭ¶ ëĭ¤
ëª ½
ĠíĻķ ëĮĢ
Ġdescrib ed
ë¦¬ ì¦Ī
R I
ĠT w
Ġf ixed
ë£ ©
D et
Ġì² ¨
ìĪĺ ìĿĺ
ĠG reat
ate ver
rem ove
Ġdemon str
Ġìŀ¬ ë£Į
ĠP al
ĠComm un
ĠE ven
m ember
Ġsur round
Ġl ack
Ë·ãİ ¡
ì§Ģ ìĿĺ
AT ION
k y
B ack
ìĥ ·
ĠF ile
ĠìĦ ŀ
ìĺ ·
osp ital
Ġë§¤ ì¶ľ
f il
ê°Ģ êµ¬
ëŀ ©
Ġv irtual
ĠìķĬ ìĬµëĭĪëĭ¤
Ġemploy ees
Ġb ur
N A
C an
ìķĦ ìķ¼
R em
ì° ¾
col umn
ify ing
C lick
om b
f ilter
ìµľ ê·¼
ron ic
ĠëĿ¼ ìĿ´
Ġì¡° ìĤ¬
ĠA PI
íĿ ¡
ìŀ İ
Ë·% ;
ĠChrist mas
íķĺ ëĦ¤ìļĶ
ĠÐ¿ ÑĢ
Ġappropri ate
Ġìĥģ ëĮĢ
ĠJ es
ĠDe cember
Ġwonder ful
por ary
Ð¾Ð ±
Ġvo ice
P T
ing er
Ġphot o
< ?
Ġcand id
ĠTe chn
Ġì§ĳ ìĹĲìĦľ
ĠìķĦëĭ Ĳ
Ġobject s
ìĭľ ê³µ
Ġgu arant
ìĭĿ ëĭ¹
Ġmov ed
Ã© e
ìĨĮ ìĹĲ
ĠìķĦ ê¸°
P ol
// /
ê°Ģ ì¡±
Ġth ous
Ġstat ement
p ers
ëĵ ¬
íķł ìĪĺ
ĠìĤ° ìĹħ
ĠìľĦì¹ĺ íķľ
Ġbusiness es
Ġìŀ ĩ
Ġresp ond
Ġì²´ íģ¬
O m
Ġgreat er
Ë· +Ë·
Ġsp irit
ë¨¸ ë¦¬
Q U
Ġì¹ľ ìłĪ
ìĤ¬ íļĮ
ĠK e
Ġr ates
Ġcomp ared
Ġëĭ Ī
Ġlet ter
í ľĺ
te e
ìĺģ íĻĶ
Ġd rop
', '
d r
ĠS und
ĠëıĦ ìĽĢìĿĦ
M O
ĠëĤĺ ë¥¼
old s
ĠëŁ ¬
Ġcertain ly
Ġed ge
íĵ¨ íĦ°
ë¤ Ħ
pro cess
Ġth read
ag on
Ġcult ure
Ġê·¸ ìĿĺ
m eta
ounc ed
Ġê°ģ ì¢ħ
Ġìļ° ìĦł
Ġìłľ ìĻ¸
ĠìĦ ¬
iv il
ĠìķĦëĭĪ ê³ł
m ult
Ġmay be
íķ´ì£¼ ìĦ¸ìļĶ
ì ĮĢ
Ġìĭł ê¸°
ìłĢ ëıĦ
F ilter
res ponse
Ġal one
ĠPh il
k t
ë° į
Ġal though
V ersion
out put
Ġn amed
Ġc op
ĠAN D
a el
Ġm ilit
AN D
Ġì±ħ ìĿĦ
Ġfollow ed
Ġc ast
ĠëĲ Ĳ
Ġë§ĪìĿĮ ìĿ´
ĠìĿ´ìķ¼ ê¸°ë¥¼
ìĥģ ìĿĢ
ef ined
ìĿĮ ìĿ´
Ġë°Ķ ìĿ´
Ġtem plate
Ġíķĺ ëĿ½
Ġ ign
ĠíĺĦ ìĭ¤
ig en
ĠìłľíĴĪ ìĿĦ
Ġë¶ģ íķľ
â Ī
ìĤ¬ ê³ł
Ġcomplet ed
Ġìłķ ì¹ĺ
Ġc ab
ĠO ther
Ġëĭ¬ ë¦¬
íĻĶ ìŀ¥
Ġë¹Ħ ë¡¯
s a
ĠìĿ´ìľł ëĬĶ
Ġfamil ies
ĠI I
es tern
v est
Ġexp and
ĠëĲĺ ì§Ģ
Ġspec ified
ut ive
ĠCal ifornia
Ġhealth y
ë©´ ìĿĦ
e ch
ì£¼ ë¬¸
s v
b order
ìĿ´ ê±´
S H
ëª¨ ëĵł
Ġëª» íķĺê³ł
Ġdef initely
l n
cl os
Ġother wise
Ġìĺģ ìĸĳ
hed ul
Ġë§Ĳ ìĿ´
l or
Ġcour t
Ġìŀħ ìŀ¥
w rap
d ep
al a
Ġê³ §
c or
Ġst ri
ìĿ´ ìĻĢ
ĠSt reet
ëĵ¤ ìĹĲ
ìĿ¸ ê³µ
we ight
Ġdam age
Ġm aster
ĠìĨĮ ìŀ¬
Ġëĳĺ ëŁ¬
Ġë¶ĦìľĦ ê¸°
ff ee
Ġover all
S pec
ĠíĿ ¥
ìĽ ħ
et ch
ĠV er
r u
ĠìĹ¬ ìľł
ash ion
Ġw ind
Ġa u
asc ript
ĠëĤĺ ëĿ¼
ëĭ¨ ì§Ģ
c ks
Ġfig ure
Ġbenef it
ul ated
Ġhot el
ot a
ĠP aul
Ġopportun ities
ìº ł
il ing
T em
Ġre pe
ëĤ ¼
ë¦Ń íĦ°
ìłľ ëĬĶ
Ġro ck
Ñģ ÑĮ
ig ger
íı ¼
Ġgo als
Ġp air
ĠìĽĲ ëŀĺ
ëĭ¨ ê³Ħ
Ġp aid
cl ick
Col umn
ĠìĿ´ëŁ¬ íķľ
ĠìĭĿ ëĭ¹
UR L
ĠR eturn
w orks
ìĭľ ê¸°
Ġm o
br uary
ë¶Ģ ê°Ģ
ìħ¨ ìĸ´ìļĶ
ìĦ ¬
Ġíıī ê·ł
Ġprim ary
Ġparticular ly
ëĵł ì§Ģ
ìłĦ íĻĶ
ë´ ħëĭĪëĭ¤
R ep
Âł Ġ
Ġh ar
ê¸° ë³¸
Ġcap ital
Ġpict ures
Ġn ut
s es
ìĿ´ ê²Į
Ġp et
ãģ Ħ
Ġìĸĳ ëħĲ
as ure
Ë·, "
ĠU se
Ġpost ed
Ġì ĩ¼íķĳ
Ġëģ Ĭ
Ġë³Ģ íĻĶ
Ġstr ategy
sc he
Ġoff ered
ĠE ast
ëĭ¬ ëŁ¬
Ġmax imum
S A
ul ate
ĠDep artment
Ġê²½ìļ° ìĹĲëĬĶ
Ġt err
ĠìĦł ìłķ
Ġrem ain
Ġcou nter
ĠìķĬ ê²Į
ì£¼ ê°Ģ
Ġb orn
We b
Ġinter view
Ġsh ared
ro te
ëĨ Ģ
ĠS pec
Ġide al
ie ved
íĿ Ĳ
ê°Ģ ê¸°
Ġsm art
ë²ł ìĿ´
Ġc ash
Ġtr ade
Ġstud ies
ĠëĤł ìĶ¨
ĠíĬ¹ ì§ķ
in ated
Ġcould n
ĠComp any
Ġre str
Ġlov ed
an sp
Ġë³´ íĹĺ
Lay out
f loat
ic an
ĠìĤ¬ ë¬´
Ġp riv
ìĿ¼ ë°ĺ
íķ´ ì§Ħ
Ġsl ight
Ġfollow s
Ġs ample
ĠB el
is ation
ê°Ģ ìĿĺ
Ġr out
Ġopt im
Ġb aby
ëĭ¤ ë³´ëĭĪ
ER T
Ġëķ ħ
ĠT ype
l ook
Ġg ift
Ġr at
D esc
Ġê³µ ìĭĿ
con nect
ìĿ¼ ìĿĢ
Ġ ou
Ġinvest ment
Ġê³ ¡
Ġpro p
ĠM at
Ġê´ĳ ê³ł
ëŁ¬ ìļ´
ëł ģ
Ġtr ain
ìĿ¼ ê¹Įì§Ģ
Ë·} }
Ġsay ing
Ġvari able
Ġv ict
ê¹ ĥ
ìĿ į
s d
AR T
ìĦľìļ¸ íĬ¹ë³Ħìĭľ
ìļ° ê³ł
B O
Ġâ Ĩ
ĠFace book
Ġem pty
Ġh undred
ĠM or
ir cle
on ly
ê´Ģ ìĿĦ
ìŀĪ ìĬµëĭĪëĭ¤
Comm and
Ġê³µ ëıĻ
Ġv ot
g u
Ġem ot
Ġclos ed
ĠS ol
pro ject
Ġhig hest
v o
Ġc old
ĠìĹĨ ìĹĪëĭ¤
y ing
ìĿ¼ ë¶ĢíĦ°
bre ak
Ġintern et
semb ly
ĠM ag
r ics
ro ot
Ġapp oint
b m
Ġ ÑĢÐ°
Ġa ward
Ġeff icient
íĬ¸ ê°Ģ
Ġro t
ĠëĶ°ëĿ¼ ìĦľ
ĠP ost
Ġm ill
Ġìļ° ë¦¬ëĬĶ
Ch ar
b in
ĠÐ ľ
Ġon to
â ĳ
Ġre li
Ë·\ Ë·
Ġìĭľ íĸī
gorith m
ë¦¬ ëıĦ
ì½Ķ ë¡ľëĤĺ
ìĿ´ ìĹĪ
ìĦł ë¬¼
Ġsp ot
ĠëıĻ ìĭľìĹĲ
## #
Ġincre ased
Form at
Ġregard ing
por ate
sq rt
Ġs ch
ë¯¸ êµŃ
Ġoff ering
ĠCol lege
ĠM anag
ëıĦ ìĹĲ
land s
ool s
Ġad ult
O b
ì¹ĺ ë£Į
Ġlarg est
capt ion
Ġê°Ģ ìĿĦ
Ġìłģ ê·¹
D D
Ġë° ĸ
ĠS ervices
F e
Ġìĵ° ëĬĶ
ist ered
c ard
ìĭ ¼
rib e
v a
ëĵ¯ ìĿ´
Ġcomp ar
Ġdeterm ine
Ġown ers
Ġì£¼ ìĿĺ
ĠĠĠĠĠĠĠĠĠĠĠĠĠĠĠĠ ĠĠĠĠĠ
Ġëĭ¤ ëĵ¤
M M
êµ¬ ê°Ģ
ag o
ic ial
ĠìķĦ ë§Ī
re y
Ġíĺ¹ ìĿĢ
Ġestab lished
ìĹ¬ ë¦Ħ
oth ing
Ġê²½ ì°°
d escription
Ġêµ¬ ìĽĮ
Ġìľ ¼
in ct
v ision
Ġfin ish
ë ¨¼ìłĢ
f ill
Ġb ul
=" /
opy right
ë¶Ħ ëĵ¤
ĠD el
Ġst ories
Ġadv ice
ĠTh anks
eps ilon
Ġì£¼ ìŀ¥
ĠíĸĪ ì§Ģë§Į
ĠS pr
ìĿĦ ê¹Į
Ġì¤ĳ ìķĻ
ëĤĺ ìĦľ
Ġdr ink
Ġì¶©ë¶Ħ íŀĪ
ĠF rench
Ġë »
Ã¼ r
nc y
Ġìĸĺ ê¸°
ig er
Ġe ight
Ġb ow
ìĭľ ê¸¸
c r
Ġpr inc
ëĮĢ ëĬĶ
et t
Ġeconom ic
Ġc ore
ĠìĺĪ ë°©
ĠG reen
íļĮ ìĤ¬
íķĺëĭ¤ ê°Ģ
t oken
ĠF orm
ĠìĿĺ ê²¬
Ġne arly
IC Ag
sc ale
Ġstreng th
Ġíķ´ ë³´
Ġê°Ģ ë©´
Ã º
Ġë¦¬ ë·°
ĠìķĮ ê²Į
Ġv ill
N O
Ġpat ient
ĠíĸĪ ëįĺ
íĺ¸ íħĶ
F L
Ġc at
ĠF ound
ìĤ° ìĿĦ
> ,
k i
ĠìĻĦ ë²½
Ġear lier
il er
un it
Ġcon v
Ġíķľ ëĭ¤ëĬĶ
Ġre asons
Ġì£¼ ìĦ¸ìļĶ
Ġê³µ ê²©
}$ .
Ġs i
Ġì§Ģ ê¸ī
ëĭĺ ê»ĺìĦľ
ë¯¼ êµŃ
ìŀ ĩ
ĠEurope an
Ġsc en
ĠíĿ ĳ
cont rol
Ġëĥ ĦìĥĪ
Ġoper ations
Ġì½Ķ ìĬ¤
ìĽĲ ìĹĲìĦľ
ed ia
â Ŀ
Ġrespons ible
pro of
ìĿ´ ëıĦ
Ġsm ooth
Ġcompon ents
Ġìĺ ®
ĠìĹ ĺ
' ),
Ġc e
Å ¡
ĠíĶĮëłĪìĿ´ ìĸ´
ìŀĲ ìĻĢ
ĠPl ay
Ġë§ ¨
r ange
Ġschool s
ì§Ī ìĿĦ
ìĿ´ ë¯¸
M ode
Ġìĸ´ëł¤ ìļ´
ðŁ Ĵ
Ġarch itect
C R
I ST
Â ©
Ġê¸Ī ìķ¡
ist ance
Ġal bum
Ġë¹ł ë¥´ê²Į
AL L
Ġev idence
Ġpop ulation
Ġtemper ature
Ġthan k
Ġfin ished
ĠìłĪ ëĮĢ
ĠDav id
The se
ë ±
Ġaff ord
ëª ĩ
ì ĩ¼
f it
ìĨĮ ê°Ģ
Ġm icro
ĠD E
ĠC am
tem plate
ĠB en
The y
ens or
Ġë³Ģ ê²½
ĠC ap
Ġexperi enced
Ġchar acters
Ġ ÑģÑĤ
ĠI P
ĠìķĦ ë¹ł
Ġìĵ° ê³ł
ê°Ģ ìŀ¥
ĠC all
Ġs en
Ø §
}$ ,
Ġthrow s
le ar
ur a
Ġper haps
Ġpar a
Ġp ush
ĠT ime
Ġëĭ¤ëħĢ ìĻĶ
ĠìĿ¼ ìĸ´ëĤĺ
V is
param s
o es
ĠBrit ish
ĠE ach
t w
Ð½ Ñı
Ġj our
ìŀĳ ìĹħ
Ä Ľ
ì£¼ ë¥¼
Ġì¡° íķ©
Ġform s
Ë·% Ë·
il ed
Ð° Ð²
ĠìĿ¼ ìłķ
row s
ps i
Ġf arm
Ġê°Ģ ê³ł
ëª¨ ëĳĲ
ëł Ģ
íĮ ¬
Add ress
olog ies
Ġserv ed
ëĦĪ ì§Ģ
l ate
Ġë¨¹ ìĹĪ
Ġl ock
Ġco ord
íķĺê¸° ë¡ľ
Ġì°© ìļ©
ang ed
N ext
Ġappro xim
M e
b i
Up date
Ġch urch
Ġocc as
ìĦ¸ íĬ¸
Ġì§Ģ ì¼ľ
Ġê¿ Ģ
íķľ ëį°
Ġw ild
par se
Ġm enu
S L
Out put
ĠGener al
ëĲĺ ìĹĪ
ĠL aw
re es
t n
Ġ esc
Ġset t
ed s
Ġset tings
Ġcent ral
Ġíİ¸ ë¦¬
ar p
ê°Ĳ ìĤ¬
Ġê² ©
L ength
Ġl ibrary
Ġê°ĳ ìŀĲê¸°
ë¦¬ ë©´
or a
ĠìĦŃ ì·¨
plic it
th at
Ġì¶ľ ë°ľ
æ ĸ
ë§İ ìĿ´
Ġë§ ģ
ìłģ ìĿĦ
Ġl ots
Ġê·¸ëŁ° ëį°
ëį° ìĿ´
ent ry
ë§Į ìĿĦ
ĠB er
M at
Ġst ation
ĠW ork
ĠìĪĺ ìĪł
Ġad vert
ê²Į ìŀĦ
ĠìĥĿ ê¸°
íĶĮ ëłĪìĿ´
Ex t
ĠìķĬ ìķĦìĦľ
ĠFr iday
ëĤĺ ëıĦ
ind er
Ġtest ing
íĮ ¡
Ġsp read
ĠëĤ¨ ìķĦ
Ðµ Ð¹
Ë· "><
h i
ex pected
Ġtr uly
AC K
Ġëĵ± ìľ¼ë¡ľ
ìĿ¼ ë³¸
£ Ë·
il s
ĠPro gram
Ġconnect ed
ĠW ash
ĠO ver
ĠIntern et
ef t
ì§ĳ ëĭĪëĭ¤
Ġpred ict
RE F
ic ht
Ġë°Ķ ê¿
âĢ ĭ
ĠìŀĪ ìĿĮ
Ġíķľ ëĭ¤ê³ł
Ġê³µ ìľł
Ġì£¼ ë¯¼
ĠFe bruary
IN E
ĠíĨµ íķ´ìĦľ
Ġëĵľ ëŁ¬
Ġgener ally
Ġcam era
ê¹Ģ ì¹ĺ
Ġat tract
ëĵľ ê°Ģ
p op
ë ®¤
Ġap plied
Ġìĭ¶ ìĸ´
Ġbehav ior
ĠCan ada
Ġex pression
sm all
ĠìłĢ ëıĦ
Ġn ation
Ġe cho
I A
Ġelect ric
Ġcrit ical
ex ec
Ġìŀ¬ ë°Į
f ast
Ġìŀł ìĭľ
Įĵ ê¸Ģ
¼ Ī
Ġ< !--
and o
Ġê¸Ģ ìĿĦ
íķĺ ìĭľê³ł
y out
ĠM et
Ġg one
ëĭ¤ìĸĳ íķľ
ìŀ¥ ê³¼
Ġcall s
ë¬ µ
ÑģÐº Ð¸
ĠĠĠĠĠĠĠĠ ĠĠĠĠĊ
ì ĵ
B r
Ġê¸° ë¶ĦìĿ´
it a
Ġw ife
Ġgir l
Ġsc ient
Ġsmall er
Ġìŀ ĥ
ĠĠĠĠĠĠĠĠĠĠĠĠĠĠĠĠĠĠĠĠĠĠĠĠĠĠĠĠĠĠĠĠ ĠĠĠĠĠĠĠĠĠĠĠĠĠĠĠĠĠĠĠĠĠĠĠĠĠĠĠĠĠĠĠĠ
Ġdel ivery
hen s
Ġdri ver
Ġco ffee
ĠT H
Ġê¹Ģ ì¹ĺ
ëĭĪ ìĬ¤
Ġr ule
ĠëĬĲëĤ Ħ
Com p
Ġíĥ ĳ
Ġche m
ìłĢ ëħģ
ì§Ī ìĿ´
Ġê´Ģ íķľ
t ml
atur day
Ð ¡
ìľĦìĽĲ íļĮ
ĠìĥĿê°ģ ë³´ëĭ¤
ì§Ģ ë°©
ĠInd ian
ĠíĽĦ ìĹĲ
Ġë³´ ìľł
Ġëĭ´ ìķĦ
ĠM al
new s
c at
Ġbe comes
Ġpresent ed
ĠL oc
================ ================
ìĭľ ì£ł
us ion
c os
Val id
ĠG old
) ]
Ġd Ã©
ìŀĪ ìĸ´
aut hor
augh ter
ìľ¼ ëĭĪê¹Į
ëģ Į
Ðµ Ðº
Ġwe ather
ëĭ¨ ìĿĦ
Ġpay ment
Ġh y
ì§Ģ êµ¬
~ !!
Ġview s
ìĿ´ ëĦ¤ìļĶ
Ġswe et
Ġinc or
Ġthan ks
Ġf ailed
ëł Ľ
Ġadd ing
Ġpower ful
ëŁī ìĿĦ
Ġê°Ģ ìĬ´
Ġíı¬ ìĿ¸íĬ¸
O K
ĠìĿ´ ìłĦ
ëĳ Ķ
es ome
ëĭ¤ ë¦¬
ĠìŀĲ ê·¹
í Ī
Ġdise ase
íķĺ ëıĦë¡Ŀ
Ġp our
Ġdef ine
ĠC D
Ġìĺ ¥
Ġtre nd
Ġëĵľ ëĿ¼ë§Ī
Ġëĵ± ëĵ±
Ġs ymbol
Ġrel ig
Ġke pt
} [
Ġsc ience
Ġcol lege
Ġpie ces
ou nter
Ġcon vers
ë©´ ìĹĲ
Ġp en
Ġthe ory
ìĿ´ ìŀĲ
ĠI r
P lease
Ġê°ĻìĿĢ ëį°
Ġhom es
íĴĪ ìĿĦ
ct ors
Ġcon ven
Ġrel ax
Ġë¶Ģë¶Ħ ìĿ´
ìĦ± ê³¼
ìĿ´ ê±°
' >
Ġmov ie
Ġown er
Ġìĺģíĸ¥ ìĿĦ
ĠJes us
ÃŃ a
Ġë§¤ ëł¥
ê²¹ ìĤ´
Ġê°Ļ ìķĦ
ident ial
ìĭľ ê°Ģ
Ġprodu ced
ic ious
Ser ver
ìĭ¬ ìĿĦ
f s
Ð» Ñı
Ġìĺ¤ íŀĪëł¤
ĠíĻķ ë³´
âĺħ âĺħ
ĠìĭĿ ìĤ¬
Ġf ear
h ow
off set
n i
ë³¶ ìĿĮ
Ġw ww
ìĽĲ ìľ¼ë¡ľ
Ġìĥģëĭ¹ íŀĪ
ĠH ot
fr ame
ĠM em
ĠìłĲ ìłĲ
Ġcomfort able
Ġìĭ¤ ìĭľ
Ġê¸° ëħĲ
il k
ëŀĢ ëĭ¤
d im
Ã ±
?? ?
Ġcent ury
Ġex hib
ĠM any
ì ı
ìŀĲ ëĵ¤ìĿ´
Ġcoll abor
Ġ ^
Ð» ÑĮ
ĠëĤĺ ëĪĦ
Ġcon vert
cl es
Ä ĥ
R eturn
Ġextrem ely
w in
Ġsit u
ud io
Ġdet ail
Ġsupport ed
ê°Ģ ë¡ľ
ëĬĲ ëĥĲ
Ġhe avy
ìĿ´ ë¡ľ
ĠN A
Ġequ al
W idth
Ġsur v
Ġp adding
M et
íķľ íİ¸
ëĵľ ëł¸
ĠW ell
Ġì½ ©
os en
v as
B ig
ĠH el
E l
ë¦¬ íĭ°
ĠB est
ëħĦ ê°Ħ
ĠD ec
ĠB usiness
Ġdom ain
ê³µ ìĤ¬
und er
im ages
ê·¸ ëłĩê²Į
he ther
Ġë½ ĳ
Ġch annel
ĠG ood
Ġind ependent
Ġíİ¸ íķĺê²Į
P R
con s
An y
ber g
ri er
ĠJ ack
Ġì¦Ĳ ê¸¸
ì¦Ŀ ìĿ´
ĠWh ite
ĠëıĦ ìłĦ
ê³ł ê°Ŀ
ìĺĢ ëįĺ
ĠìĻ Ķëĭ¤
as y
Ġ ÑĢ
Ġì¡° ìłĪ
Ġtr aff
ang le
C S
Ġatt end
ìĿĮ ìĭĿ
as tr
or row
U B
c are
do or
ĠìĿ´ ê²Į
Ġprote ction
Ġpo or
ang ing
Ġto ward
ì¤ĳ êµŃ
it ial
Z E
Ġm iles
x f
Ġfact or
ib er
ìĺĢ ëĬĶëį°
, '
Ġsepar ate
N av
T op
Ġc overed
Ġë§Įëĵ¤ ê¸°
Ġê² ª
c ar
c f
ĠSund ay
UL T
Ġì²ĺ ë¦¬
ìĸ´ ì§Ħ
ë°ķ ìĬ¤
Ġìļ°ë¦¬ ëĤĺëĿ¼
Ġíķ «
ëķĮ ëĬĶ
Ġchall enge
rom e
íĮĮ íģ¬
Ġê¸¸ ìĿ´ëĬĶ
Ġë§Ľ ìŀĪëĭ¤
íĹ Į
íĬ Ģ
Ġëĭ¤ ê°Ģ
H O
ĠìŀĪ ëĦ¤ìļĶ
sy ch
Ġf em
ìĽĲ ëŀĺ
ëĶ ¸
Ġmanufact ure
j i
ĠC ounc
ĠB uild
o ch
Ġw at
Ĭ ìĿĢ
ĠìĥĿ ê²¼
Ġê±´ ì¡°
ìŀĲ ëıĻì°¨
ĠìŀĪìĹĪ ìĬµëĭĪëĭ¤
Ġhelp ed
ad y
Ġsc ore
M D
Ġt end
in et
Ġì°¨ ì§Ģ
ĠìłĦ ê¸°
ad s
Ġadvant age
Ġìļ° ëł¤
Ġp od
Ġâĸ ²
Ġlay er
ê²½ ê¸°
Ġëĭ¤ ìĿ´ìĸ´íĬ¸
ê·¸ ëĬĶ
Ġwant s
ë¡ľ ë²Į
Ġcommun ication
ê³ ±
Ġman age
] [
ĠëĪĦ êµ¬
Ġw edding
Ð¾ ÑģÑĤ
ĠìĺĪìłķ ìĿ´ëĭ¤
Ġë°ľ ìłĦ
Ġd ans
â ľ
en a
Ġfl av
Ġì¢ĭìķĺ ìĸ´ìļĶ
ĠìĥĪ ë¡ľ
u z
ìĭľê°Ħ ìĿ´
Ġw rote
Ġì¡° ê±´
íħ į
& #Ë·
Ġê·¼ ëį°
Om ega
ĠìķĮìķĦ ë³´
ĠìŀĲìĭł ìĿ´
Ġë§İ ëĭ¤
d es
Ġa head
Ġcl in
ì» ·
Wh ile
ìļ° ìĦł
âĨ ĵ
Ġcell s
Ġsec ure
Ġìĵ ´
ĠìĤ¬ ìĿ´íĬ¸
Ġdist r
an i
Ġíŀĺ ëĵł
ãĢ ģ
ĠëĤ ©
all ow
Ġrep air
ĉ ĠĠĠ
Ë· ","
ìĥģ íĥľ
ĠìŀĪìĹĪ ëįĺ
ĠìĿ¸ ìĤ¬
own load
íı¬ ì¸ł
ĠU s
wh ile
ì¤Ģ ë¹Ħ
c p
Ġmon itor
Ġr ap
Ġh us
Ġb atter
Ġc it
ìĸ¸ ìłľ
ĠëĤĺ ëıĦ
f ol
] {
Ġë§İ ê³ł
ĠV is
Ġreport s
Ġteam s
Ġl en
ĠìķĪ ëĲĺ
ĠìŀĲ ê²©
F C
M C
ain ts
Ġì ³
b efore
ìłĲ ìĹĲìĦľ
Ġìľł ë¦¬
ì¦ Ĳ
ic ing
Ġì ĮĢ
ìł Ŀ
Ġëĵ¤ìĸ´ ê°Ħ
Ġp al
l is
} _Ë·
ì§Ģ ìĻĢ
Ġr ace
Ġrele vant
ìĸ´ëĸ ¤
ĠH am
Ġìłķë³´ ë¥¼
ĠO nce
ê³Ħ íļį
Ġëĭ¬ ëł¤
O pen
Ġê°Ĳ ëıħ
Ġob j
Ġìĸ´ë¦° ìĿ´
íķľëĭ¤ ë©´
ì¤ĺ ìķ¼
Ġëª¨ìĬµ ìĿ´
et ime
êµ¬ ë§¤
Ġìłľ ì¡°
ê´Ģ ìĿĢ
M ax
ĠìĿ´ ëĬĶ
Ġìŀħ ê³ł
Ġth reat
Ġìĭ¤ ìłľ
ĠS en
Ġar m
text bf
ines e
ìķĪ ìłĦ
I V
Ġpl aced
eqn array
ë³ į
ab ilities
Ġr ank
Ġhelp ing
pect ive
Ġvis ual
Ġs ources
Ġconfig uration
Ġo k
Ġf ol
ĠìĥĿ ê¸´
ĠìĿ Ħ
om a
U rl
Ġpol ice
con f
ĠA S
Ġreg ister
Ġì§Ģ ìłģ
Ġfind ing
end ar
Ġj o
y a
ĠìĿ´ ìĽĥ
ĠìļĶ ë¦¬
Ġopen ed
ĠAustral ia
Ġs ust
ìį ¹
h ome
w ell
Ġs and
Å ¾
Ġf ant
Ġpe ace
Ġë§Ī ìĬ¤íģ¬
Ġìĭľ ìĦ¤
ìĤ¬ ë¬´
ĠìºĲ ë¦ŃíĦ°
Ġd oll
Ð Ł
ĠíļĮ ë³µ
íĬ¸ ëĬĶ
fr ont
Ġn om
ĠìĹ¬ê¸° ìĦľ
IT Y
ĠM ake
ìĿ¼ ë¡ľ
Ġtalk ing
Ġestab lish
Ġag ree
ug g
S im
Equ als
ps ilon
ëĭ ·
Ġë¶Ħ ëªħ
ĠìķĦ ë²Ħ
ĠìłĦ ëĭ¬
ê³¼ ë¥¼
ì§ĳ ìĹĲìĦľ
Ġupd ated
ĠëĪ Į
ê¸° ëĬ¥
ĠíĻĶìŀ¥ ìĭ¤
ë´¤ ëĬĶëį°
M E
ĠìķĦ íĶĦ
Ġb ag
n el
Ġann ual
Ġêµ ³
ĠWh y
ë²Ħ ìĬ¤
T A
Ġmove ment
ìŀĲ ìĹ°
ple te
Ġcon sole
ĠÂ £Ë·
y thon
µ ëĭĪëĭ¤
oy al
Ġê³³ ìĹĲ
Ġìµľê³ł ìĿĺ
Ġinvest ig
ëĭ¨ ì²´
Ġê°Ģê²© ìĿ´
ĠD em
Ġweek end
Ġê°Ļ ìķĦìĦľ
Ġro b
ĠDe velop
Ġp anel
ann ot
ê·¸ ë£¹
ë¯¸ ìĹĦ
Ġra ise
Ġë ¨¼
ĠìĿ´ ìĹĲ
Ġc ards
Ġh arm
d rop
G o
ĠE nd
ĠìļĶ ì²Ń
"> Ë·
ĠIn s
Ġf at
ê» ı
Ġê±° ë¦¬
ten ance
TY PE
ë¶Ģ ëıĻìĤ°
ëįĺ ëį°
Ġì£¼ ìĭĿ
Ã ª
} {Ë·
ì «
Ġoper ator
ĠS aturday
ĠíĻĶ ìĿ´íĬ¸
æ ĺ
ĠìĿĮ ë£Į
ëĬĲ ëĿ¼
ĠìĹŃíķł ìĿĦ
Ġarg ument
Ġcol ors
m ut
ĠD an
A ccess
Ë·) :
ĠëĮĢ íĺķ
Ġopen ing
Ġìĸ µ
ĠÐ³ Ð¾Ð´
ê´Ģ ê³Ħ
p a
H P
ĠPro f
Ġo s
k er
Ġop in
Ġcom ments
Fr ame
Ġìĭľ ì¦Į
c ap
Ġob vious
Ðµ Ð²
Ġwait ing
m argin
ann ed
ĠëıĻìĺģìĥģ ìĿĺ
Ġcreat ive
Ġë°ĺ ìĿĳ
ĠV ol
d esc
ì£¼ ë©´
ìĺģ ìĹħ
Ent ity
G amma
v ol
Ġdet ect
Ġìŀ¡ ìķĦ
Ġare n
Ġë¯¸ ëĭĪ
ìľĦ ê°Ģ
Ġmin imum
ê¸Ī ìľµ
ĠM ond
Cont rol
( _
Ġz ero
Ġtr uth
Ġfact ors
est ival
Ġm ut
Ġvol ume
} _{\
ìľ¼ë¡ľ ìį¨
Ġlearn ed
íķĺ ìļ°ìĬ¤
Ë·} )
Ġg arden
Ġëĭ¨ ìĪľ
Ġhappen ed
ĠìĬ¤ íĨł
H ttp
ĠCounc il
Ġë¨¹ ìĿĢ
Ġobtain ed
Ġmat rix
V ert
ĠAssoci ation
Ġëį §
D es
ìĺģ ìĸ´
pre t
ìĿ´ ëĦĪ
ĠB re
ĠìľĦíķ´ìĦľ ëĬĶ
ĠìĿ¼ ìĥģ
all ery
Ġbal ance
u is
Ġv s
Ġmiss ing
Ġì£¼ ë¡ľ
íķĺ ìĺĢëĭ¤
D ev
ic ations
à ®
Ġëĵ£ ê³ł
Ġìĭł ê³ł
Ġë¸Ķ ë£¨
Ġë§ĺ ìĹĲ
Ġsh ot
Ġhigh light
ìĬ¤ íĭ°
Ġinstall ed
ìŀ¬ìĥĿ ìĭľê°Ħ
Ġinc ome
ì£¼ ë§Ĳ
ĠëĤ¨ ê²¨
Â Ń
ack s
comm on
Ġíĺľ íĥĿ
ra el
ap ers
ĠìŀĲ ëŀĳ
Ġë°ĺ ë³µ
íħĲ ì¸ł
ĠAr ray
ĠT able
Ġì±ħ ìŀĦ
Ġbro ther
Ġ[ '
íķĺ ìĺĢìĬµëĭĪëĭ¤
ĠëĿ¼ ëĬĶ
ìłķ ìĿĺ
Ġë¶Ģ íĦ°
Ġexper iment
" :Ë·
ãħĭãħĭãħĭãħĭ ãħĭ
Ġmention ed
ĠìĿ´ ê±´
T ask
Ġbed room
ĠëĤĺ ë¦Ħ
Ġtest s
ĠT O
ë°Ķ ëĭ¥
Ġtraff ic
ëª¨ ëį¸
ĠG overn
ìĭľ íĹĺ
Ġgener ated
ìĹĲ ìĸ´
ìĿ¸ íħĮë¦¬ìĸ´
Ġim press
ëıĻ ìĿ´
ĠíķĻ ìĬµ
íĬľ ë¸Į
-------------------------------- --------------------------------
sub section
ON T
N ote
ĠíļĮ ìĽĲ
Ġc ategory
Ġë°° ìĨ¡
D O
ar th
Ġseem ed
íķ´ì£¼ ëĬĶ
Ġì£ Ħ
ĠCh urch
Ġsh oot
ë°ĺ ì°¬
Ġê³¼ ê±°
ë§ ¹
Ġann ounced
ĠS am
ty p
v are
ĠD et
ell o
W rite
ë¸Ķ ë¡ľê·¸
D on
Ġê°Ģ ìķ¼
Ġph ase
ĠCl ub
Ġíĥ Ĳ
ëĶĶ ìŀĲìĿ¸
ìħ ľ
ain e
Ġjob s
ĠM icrosoft
am ing
ĠìĿ¸ ê¸°
Ġë¡ ¯
ì¼Ģ ìĸ´
Ġcont ainer
Ġex ists
Ġmanag er
ìĿ¸ íĦ°
( [
Ġsom ew
ëĿ¼ ë©°
Ġjour ney
Ġdriv ing
r or
ĠìłĦ ìŀĲ
Ġì¹´ ëĵľ
ou nce
s ign
ell ig
Ġl ic
ĠP ublic
ve re
clus ive
ë¦¬ ìĻĢ
le an
T ER
b an
if orm
ë§Į ìĿ´
ĠM art
Ġbr ain
ĠìķĦ ëĬĶ
Ġìľł ëŁ½
Ń Ī
Ġìĭ¤ ëĤ´
ìłķ ìĹĲ
ant ic
ĠG L
Ġí ľĺ
Ġìŀħ êµ¬
ĠìĦł ìĪĺ
Ġê·¸ ëŁ¼
Ġprocess es
r um
ë İ
Ġíķ ĳ
Ġbr ight
ìłķ ìĿĢ
ë¹Ħ ìļ©
cre te
Ġfurn iture
ĠL ife
Ġíķĺ ê²łìĬµëĭĪëĭ¤
ĠU ser
Ġse cret
Ġrun s
Ġarg s
ë© į
ê¹Įì§Ģ ëĬĶ
Ġë¶Ī êµ¬
ĠìłĦ ìļ©
ìŀĲ ê³ł
Ġê°ĲìĤ¬ íķ©ëĭĪëĭ¤
īìŀ¥ ê³ł
ĠëĿ¼ ê³ł
ì§Ģ íĦ¸
ë¦Ħ ìĿ´
Ġun e
h y
ĠPro ject
Ġr ich
Ġê³³ ìĿĢ
Ġb es
Ġíı ´
Ġëª» íķĺëĬĶ
Ġw ine
ëĦ ī
Ġest ate
Ġst ick
ĠD ate
ct x
un te
Ġì£¼ ë°©
ë°© ìĨ¡
ĠìĿĢ íĸī
Ġn orm
ici ency
Ġë°ĶëĢ Į
íķĻ ëħĦ
Ġê°ĢëĬ¥ ìĦ±ìĿ´
ìĸ´ ë²Ħ
ĠAr ch
ĠR ich
Ã¶ r
ê°Ģ ê²Į
T hen
) '
ĠWash ington
ë´Ĳ ìļĶ
s plit
ĠìĬ¤ íħĮ
ĠB ay
Ġíĸ ĩ
Ġa ctions
jav ascript
( -Ë·
Ġsh aring
inst ance
Ġprof ile
Ã Ł
íķ Ģ
Ġê¾¸ì¤Ģ íŀĪ
ĠëĲĺ ìĹĪìĬµëĭĪëĭ¤
Ġëĭ¤ íĸī
ìĹĲìĦľ ìĿĺ
c raft
Ġê°Ĳ ìĨĮ
Ġpro of
L a
N AME
Ġë¹ł ìł¸
s f
Â ®
Ġtechn iques
P lay
Ġsee ing
h older
Ġneg ative
ĠìķĦë¦Ħ ëĭ¤ìļ´
Y our
Ġlist ed
íķĺ ëŁ¬
ĠC reate
Ġw ire
Ġpres ence
ĠíĮĮ ìķħ
ëĦ £
Ġeffort s
ĠìĺĨ ìĹĲ
Ġgu id
ĠìĶ »
ìŀĲ ìĹĲ
è ¿
ë©´ ìĿ´
ìľ¨ ìĿ´
ì¹ĺ íĤ¨
je ction
M in
ìĭł ìĿ´
ĩ Į
Ġcontin ued
Ġì°¾ ëĬĶ
h op
ĠìĤ° ì±ħ
ang es
Ġgr ant
Ġse a
ĠS al
C o
Ġ ur
ĠE r
stand ing
Ġtechn ical
Ġperform ed
Ġass ign
ĠG l
Ġíĸī ìĤ¬
j o
Ġìĺ¬ ë¦¬
Ġadv ance
ĠíĽ Ī
Ġme ant
Ġautom atically
Ġëĭ¤ ìļ´
ĠëĨĴ ìķĦ
Ġrecord s
ì§Ģ ê¸°
Ġmet al
w s
ÑģÑĤ Ð²
Ġmed ium
l ines
ĠS ing
ê´ ´
ë¶Ħ ëĵ¤ìĿ´
âĢ »
Ġê±´ ìĦ¤
ìĿ¸ ê³¼
Ġíķ ¸ëĵľ
Ġëĵ¤ ìĸ´ìĦľ
. $
Ġsp ring
C ase
nav bar
b oot
ch a
Ġìķ½ ìĨį
Ġë¬¼ ìĿĦ
ant a
ê°Ģ ë©´
Ġrel ative
uct ure
Ġerr ors
Ġsche dule
sc ope
ì°¨ ëŁī
ĠìĿ´ ê²ĥ
un ately
á Ĩ
pos es
Ġë§Ī ì¹ĺ
ìĤ¼ ìĦ±
: </
ĠV iew
ìĽĲ ëıĦ
ant e
Ġremov ed
ìŀħ êµ¬
it ors
ĠRes earch
Ġhapp ens
Ġprocess ing
Ġm ist
ìĸ¼ ë§Ī
........ ........
G e
ĠPl an
ê·¸ ëŀ¨
ĠA R
ìľĦ ë¡ľ
d y
ĠFl or
æ Ī
ĠìłĦ ëŀµ
Ġcall back
% %
Ġse ven
Ġìĭľ ë¯¼
ĠR un
Ġcap acity
ĠJ ames
Ġwe ar
ĠíĹ¤ ìĸ´
ëĤ Į
ĠìķĬ ëĭ¤
ĠOff ice
AP I
D at
ì¼Ģ íĮħ
Ġcomb ination
ĠìĪĺ ìŀħ
ĠY ear
å ľ
Ġë°ĺ ëĵľìĭľ
S ec
Ġì¹ĺ íĤ¨
Ġun its
Ġinit i
Ġve ctor
ëıĻ ìĹĲ
Ġë©ĭ ì§Ħ
ìĩ Ħ
ìħ ĭ
ĠT em
Ġexpl ore
ĠêµĲ íĨµ
íĸĪëĭ¤ ëĬĶ
W ork
clus ion
ĠBo ard
ìĽł ëĭ¤
Ð¾Ð ·
Ġtr a
Ġshow ing
ë¹ Ķ
ìĹĲê²Į ëĬĶ
Ġ{ }
Ġfl at
ì ĩ¼íķĳ
ìĺ¤ ê³ł
ĠL ou
CT ION
Ġgu ess
ë¦¬ìĬ¤ ë§Ī
B o
ĠëĨ ĢìĿ´
Ġìĥ Ģ
Ġill ust
ĠC ustom
ê´ĳ ì£¼
c ur
ì¶ °
íĮĲ ë§¤
Ġm ission
Ġë¶Ģëĵľ ëŁ½
Ġíķĺ ìĭľëĬĶ
Ġrem ains
R AN
ĠR iver
Ġê±¸ ìĸ´
ê¹ Ŀ
Ġë°ĺ ì°¬
w indow
ìĪĺ íķľ
Ġh aven
ãħ¡ ãħ¡
ìĭł ìĿĺ
Ġd as
Ġpart ner
Ġcap t
ëħ ¼
ì¹ ¸
T ypes
ë¡ľ ëĵľ
ê²ł ëĦ¤ìļĶ
Ġb urn
Ġar rang
íĢ ´
Ġprep ared
ìĺ¤ëĬĺ ëıĦ
ven ue
ë£ ¡
íĺĦ ëĮĢ
M T
Ġìŀĳ ìĹħìĿĦ
Ġchang ing
b ool
íĶĦ ë¦¬
et ing
Ġë ·°
ë¬¸ ìĿ´
Ġìŀ¥ ìĨĮ
ĠA tt
Ġeven ing
Ġë²Į ìį¨
Ġëį° ìĿ´íĦ°
ĠT op
Ġë§Ľ ìĿĦ
ì¦Ŀ ê¶Į
Ġmilit ary
ì°¬ ê°Ģì§Ģ
Ġun less
Ġpass word
Ġsecond s
Ġup per
Ġpre par
Ġìłľ íķľ
ĠO b
Ġthem e
al let
Ġa x
ìĤ¬ìĿ´ ì¦Ī
ĠëĤ´ìļ© ìĿĦ
ĠìĿ´ ë¤Ħ
E ach
Ġwh atever
êµĲ íĨµ
âĢĿ ,
or ation
Pro vider
ì§Ģ ë©´
k ind
ëĥ Ī
Ġì§ Ĳ
ìĭľ ëĭ¤
ìĦ¸ ê°Ģ
Ġc raft
Ġfor get
ide os
LA SS
st yles
íŀĪ ëĬĶ
Å ¼
requ ire
Ġadv anced
ĠR oad
å Ń
Ġë¨¹ìĸ´ ëıĦ
ìĸ´ ëĬĲ
Ġear th
ê·ľ ëª¨
ĠëĮĢ ì¶ľ
Ġfa ith
Ġë¡¯ ëį°
ëĥĲ ê³ł
ĠëıĻ ìĿ¼
se y
Ġhus band
ĠA ma
Ġpro s
Ġinc red
ìŀĳ ìĿĢ
y ou
Ð° Ð½Ð¸
ìĭŃ ëĭĪëĭ¤
Ġê·¸ ëŀ¬
ag ement
ĠâĢ ¦
ìĭł ì²Ń
Ġs ports
cher s
ĉĉĉĉ ĉĉĉ
Ġh a
t im
Ġf ish
ìĸ¸ ëĭĪ
RO M
ĠD i
v ari
ms g
Ġdirect ory
ĠìĿ¸ ì¦Ŀ
ĠëĤĺ ìĺ¬
ìĭł ìĿĦ
íķĺ ì£ł
Ġìķī ìķĦ
Ġdef inition
Ġf re
Ġold er
N D
Ë·) );
ĠManag ement
ë°Ķ ëŀĮ
ëĥ Īëĭ¤
Ġë¹ĦìĬ· íķľ
ĠìŀĪ ì§Ģ
ê³³ ìĹĲ
Ġíķµ ìĭ¬
ex as
ĠCon f
ĠìŀĲ ê¾¸
AG E
Ġreview s
Ġent re
Ġappe ars
Ġë°ľ ëĿ¼
Ġìł ¤
ĠN ote
Ġkeep ing
ê»ĺ ìļĶ
Ġ icon
Ġbath room
Ġimplement ation
P ack
âĸ ²
M em
Å Ļ
F ig
íĶĦ ëĿ¼
ìĪĺ ë¡ľ
Ġth ick
Ġwould n
ìĬ¤ ìĻĢ
íķĺ ìĿ´
L C
Th read
)$ .
Ġgener ate
Ġexper iences
ag ment
and er
Ġ{ @
Ġíļ¨ê³¼ ê°Ģ
íĸ¥ ìĿ´
ìĤ¬ ì§Ģ
Ġoff set
urs or
ì°¨ ê°Ģ
Ġstre et
ë½ ķ
Ġìŀ¥ ëĤľ
ì°¸ ê³ł
g in
Ġë¹ł ë¥¸
Ġìĸ¸ ëĭĪ
ãģ «
ess or
Ġident ify
Ġê°Ģê¹Į ìļ´
V AL
ì°Į ê°ľ
em pty
Ã ¢
re me
ĠB ank
ì¢ĭ ìķĦ
ë´¤ ìĸ´ìļĶ
Ġë¶Ī ëŁ¬
Ġpr ay
Ġë³´ ê´Ģ
ì ¨
Ġë°Ķ ê¾¸
Ġ ice
ut ely
Ġì¤ĳ ê³ł
ĠëıĪ ìĿĦ
Ġìłľ ìĭľ
íĿ ĳ
S O
Ġd ied
Ġíķĺ ìħ¨
Ġë³¸ ê²©
ìłĦ ê±°
ĠìŀĦ ëĮĢ
Cont ainer
ĠL O
ĠR el
Ġorgan izations
Ġê²½ ìĺģ
Ġcan cer
" ))
vare psilon
S ome
pro p
Ġr ain
ĠM ary
st on
Ġdevelop ing
Ġw inter
T ag
ê²ł ì§Ģ
ĠìķĬìĿĦ ê¹Į
Ġíķĺ ìĿ´
Ġ> =
b ra
ĠAn n
val ues
trans form
Ġs ud
sq l
ri an
ê±° ê°Ļ
p adding
Ġsqu are
Ġíı¬ ê¸°
Ļ ëĭĪëĭ¤
Ġpart ies
Ġit er
Ġr are
ĠP ress
P ost
S earch
ĠÐ »
ĠE duc
v an
Ġing red
Ġì¶Ķ ìĸµ
ĠÐ Ĳ
Ġìĭľ íĤ¤
Ġìķ¼ ì±Ħ
Ġl uck
Ex ec
ĠT om
Ġìŀ¥ ì°©
Ġìµľ ì´Ī
Ġstand ards
Ġg ain
od ed
Ã¡ s
D r
I E
Ġêµ ´
ì£¼ ëĭ¹
ĠB ecause
ê ½
Ġsc ope
d i
ĠìĤ¬ëŀĮ ëĵ¤
ìľł ìĿĺ
Ġ Â·
Ġre ached
êµ¬ ë§Ī
ĠìĦ¤ ìłķ
ad er
ic ies
Ġac adem
Ñģ Ð¸
. ^^
ë°Ľ ìĿĢ
ìĭľ ë¥¼
ac le
Ġì¡° ìĭ¬
ì¼ĢìĿ´ íģ¬
Th anks
ĠL ord
Ñ ĳ
âĺ Ĩ
Ġs ociety
ĠL G
M B
= >
íı¬ ìĿ¸íĬ¸
Ġant i
Ġëł Į
Ġt ips
Head er
Ġproper ly
ĠëĮĢ ìĥģ
Mod ule
ĠChrist ian
ĠìŀĪëĬĶ ì§Ģ
med ia
doc s
íĥ ±
ific ations
}} \
fin ished
ĠM ount
ĠìĹ° ì¶ľ
Ġins ert
Config uration
ë³´ íĨµ
Ġë¹Ħ ê°Ģ
ĠR ober
ĠCour t
um an
ĠEng land
ĠìĿ¸ íķľ
Ġë§ģ íģ¬
Ġf ashion
Ġmot or
íĬ¸ ë¦¬
Ġroom s
struct or
K e
Ġëĭ¨ ê³Ħ
OR D
Ġ ult
ĠìłĦ íĨµ
el ess
} ^
Ġ* )
ĠìķĦ ìī½
Ġf ra
Ġm ort
Ġfriend ly
f riend
ĠJ er
Ġì§Ģ ëıĦ
Ġr oute
Ġê »
atal og
Ġ$ {\
ë¶Ģ ìĿĺ
Ġro of
Ġde lete
n ight
ë¥´ ê¸°
ĠëĤĺ ìĻĢìĦľ
ëĲĺ ìĹĪìĬµëĭĪëĭ¤
ìĬ¤íģ¬ ë¦¼
Ġìĭ¤ ìłľë¡ľ
Ġdis cover
stru ctions
ëķ Ĳ
ì§ ±
S che
ic ine
Ġìĺ¤ ëŀľë§ĮìĹĲ
ess ions
Ġíĺ Ĳ
ìĨĮ ë¦¬
ë¶Ħ ê¸°
Ġt ables
Ġcorrespond ing
Ġw indows
êµŃ ëĤ´
Pro cess
vent ion
ëĵľ ëł¤ìļĶ
ê±¸ ë¡ľ
ëį ©
ĠìĿ´ìĥģ ìĿĺ
Ġë§Ī ê°Ĳ
Ġca used
He ight
ĠB ig
sup port
all s
ĠëĲ Ĳëĭ¤
. \
pon ents
gr ade
ST R
Ġdirect or
ëĨĵ ìĿĢ
Ġcle arly
Ġin str
em ail
Ġste el
ĠS y
Ġìĭ¤ íĮ¨
Ä ±
ìĿ´ ìĿĺ
a fter
ìĹĲ ìĦł
Ġs outh
Ġthe rap
b al
right arrow
ap es
T arget
ĠìĤ¬ íķŃ
Ġded icated
um in
b ind
ĠJ ew
ĠInst agram
Ġê¹ ľ
ëĮĢ íķĻ
b uffer
Ġchalleng es
Ġcor ner
Ġb illion
C ache
ĠM A
bl ed
ìĺ Ĩ
Ġexper ts
ì½Ķ ìĬ¤
ĠCh inese
ë¬¼ ìĹĲ
Ġ} )
Ġen able
web kit
ê²¨ ìļ¸
ëĮĢ íķĻêµĲ
ĠëĤ´ ëħĦ
Ġcon cent
ë¶Ī ìĸ´
Ġmanag ed
anc ing
Ġlo op
rou d
Ġstr ict
ĠëĬĺ ìĸ´
ĠP ower
ë°Ľ ê³ł
M on
íķ¨ ê»ĺ
ĠëĮĢ ìĥģìľ¼ë¡ľ
ìĺ¬ íķ´
ĠëĮĢ ì²´
Ch ange
g ate
ĠìŀĪ ì£ł
Ġspec ies
rang le
ìĸ´ ë¦°
Ġì°¨ ìĿ´ê°Ģ
Ġtr ail
Ġ ÑĦ
Ġm ir
Ġam b
Ġì ¥
Ġfore ign
W indow
ĠÐ¾ Ð±
ĠFr anc
Ġde cre
Ġtrans ition
ĠF ore
Ġë°© ìĭĿ
ĠU RL
Ġ+ Ë·
ĠëĨĵ ê³ł
ëįĶ ìļ±
Wh y
Ġt ab
ãģ Ĺ
Ġíŀ Ĳ
Ġde b
Ġwel come
ĠD ie
Ġcomp re
j oin
ex ample
() ->
Ġìłģ ìĿ´
Ġbrow ser
Å Ľ
y e
n ab
p ay
N one
Ġte aching
Ġqu arter
Ġpass ion
if act
ĠìŀĲ ëıĻ
ĠMond ay
Ġaltern ative
Ġaud ience
Ġíļ¨ê³¼ ë¥¼
ìĦ± ìĹĲ
Ġqu ot
Ġë¬ µ
Ġë¶Ī ìķĪ
ë²Ī ìĹĲ
ir ation
ĠFr ance
Ġì¶ľ ìĹ°
ê¸Ī ìĿ´
Ġdoc uments
Ġsign al
Ġì¹´ ë©ĶëĿ¼
ĠL in
b our
ot hes
Ġcar s
Ġwork ers
Ġsh ift
Ġê·¸ ëķĮ
ĠíĻį ë³´
Ġê¹Į ì§Ģ
Ġsequ ence
Ġart ist
| Ë·
Ġn orth
ĠìĤ¬ëŀĮ ëĵ¤ìĿĢ
ĠìĿĺ íķ´
Ġê°ķ ëł¥
D ec
ìĭ¬ ìĿ´
ĠN ame
Ġslight ly
Ġaut h
em ph
Ġfoot ball
C urrent
Ġë§Ī ìĿĦ
ĠIs rael
ĠAl though
Ġpro posed
ript or
Ġì¢ĭìķĦ ìĦľ
ĠìłĦë¬¸ ê°Ģ
ëĭĺ ìĿĢ
Ġexam ples
as p
Ġlead er
ë¦Ħ ìĿĦ
ĠĠĠĠĠĠĠĠĠĠĠĠĠĠĠĠĠĠĠĠĠĠĠĠĠĠĠĠĠĠĠĠ ĠĠĠĠĠĠĠ
Off set
ìĿ´ ê¸°ëıĦ
ìłĢíĿ¬ ëĬĶ
Y es
Sc ript
Ġshop ping
Ġdi agn
R ight
Ġê³Ħ ëŀĢ
her s
Ġstart s
ĠInst itute
Ġsc ene
ãĢ į
id o
ê³µ íķŃ
íķĺë©´ìĦľ ëıĦ
eg raphics
ìķ½ ìĿĦ
í ĳ
ë©´ìĦľ ëıĦ
Ġlaw s
ìłģ ìĿ´ê³ł
includ egraphics
ë¡ľ ë¶ĢíĦ°
ê²ĥ ê°Ļ
ìĽĶ ìĹĲ
¬ ìĬ¤
Ġtre es
ëĤĺ ìĿĺ
ë°Ľ ìķĦ
ëī´ ìĬ¤
ĠìĿĺ ë£Į
Ġpl ants
íĦ° ë¦¬
ĠëĤ¨ ìĿĢ
ë°© ë¬¸
ĠìĽ ¨
ĠíĺĦ ìŀ¥
Ġbuff er
ä ¹
Ġf illed
ĠTh ank
Ġd aughter
ĠìłĦ ë¶Ģ
ĠTh om
ìĸ Ģ
ari an
¼ ìª½
ĠìĦ¤ëªħ íĸĪëĭ¤
ãĤ ĭ
Ġëĵľ ëĬĶ
S ee
A m
act or
âĸ ł
ĠìĪĺ ì¶ľ
Ġre ality
L S
ê²° êµŃ
ĠìĤ¬ ë¡Ģ
Â °
Ġcall ing
Ġex ternal
Ġla unch
Ġë§Ī ì°¬ê°Ģì§Ģ
ĠQ ue
ĠìķĦìĿ´ íħľ
ìŀ¬ ë£Į
ent ity
od er
ë© Ģ
Ġret ail
Ġc row
ree k
ĠìĨį ìĹĲ
m atch
Ġ( "
j pg
ìĭľ ìĬ¤íħľ
Ġdisc ount
Ġche ap
ili ar
Ġë°ĺ ìĺģ
ìĦ± ìĿĢ
Ent ry
im ary
Ġê±´ ì¶ķ
ë¶Ħ ìĸĳ
ìĮ Ī
Ġìĸ´ ì°Į
Ġc art
Ġprofession als
ific ate
om ic
ë¶Ģ ëª¨
ĠS un
ĠS ur
ĠìĿ´ íķĺ
Ġì¤Ħ ìĸ´
Ġag reement
ve ctor
Ġprevious ly
Ġëĵľ ë¦¬
[ \
( @
ë¡ľ ëıĦ
ìĥģ ìĦ¸
Ġle aves
ĠC ong
Ġh idden
Ġ{ Ë·
Ġmin ute
ì¤ĳ ê°Ħ
ĠÐ µ
ìĿ¸ ìľ¼ë¡ľ
R ange
S l
` ,
h an
Ġê²ĥ ì²ĺëŁ¼
U se
Con nection
s ite
Ġdec ide
Ġprov ider
E nc
Le vel
Ġexerc ise
ak ers
ent ed
Ġmess ages
Ġrad io
Ġfe e
ĠL ong
Ġoper ating
SE T
ol a
æ Ĺ
?? ??
ì¿ ¨
Ġì°¸ ìĦĿ
Ġe gg
Ġclean ing
íķĺ ëĿ¼
Ġíħ Ĳ
Ġtop ic
ĠA v
Ġ! ==
Ñ į
ĠëĿ Ħ
ro t
Ġknow s
Ġan c
ì¤ĳ ìķĻ
Ġpres ident
' Ë·
Ġëĭ´ ëĭ¹
ĠìĹ° ìĬµ
ĠÐ¾ ÑĤ
D escription
íķĺ ëł¤ê³ł
ĠìĿ¸ ìĥģ
Ġs now
ĠëıĻ ìĥĿ
v ents
Ġ. Ë·
Ġë¶Īêµ¬ íķĺê³ł
ĠíĴį ë¶Ģ
Ġìĭľ ìĪł
Ġlo an
Ñĸ Ð²
ĠíĿ¬ ë§Ŀ
Ġì¡°ê¸Ī ìĶ©
iction ary
ìľĦ ëĬĶ
ĠíķĦìļĶ ê°Ģ
íİ Į
Ġarg uments
Ġhelp ful
ì½¤ íķľ
Ġch air
Ġre place
Ġì´ī ì´ī
ĠCol or
Ġê² ¸
comm and
____ ____
ìĻĦ ìłĦ
S ince
Ġvis ion
ë¿ Į
pp ed
íĻĶ ìłĲ
Ġshow ed
Ġì¡° ì§ģ
amp ions
ĠAnd roid
ĠĠĠĠĠĠĠĠĠĠĠĠĠĠĠĠ ĠĠĠĠ
Ġëĭ ¦
Ġgener ation
sc ape
ë¬¼ ìĿĢ
ĠF ire
it z
Loc ation
ĠS K
c b
ad min
or ig
ra z
r ical
Ġse ctor
ac iÃ³n
Ġê³Ħ ìĭł
n ormal
P ort
ìĸ´ ìłľ
Ġë¬¸ìłľ ë¥¼
Ġ ul
x e
ì ¾Į
c ache
en v
add ress
ĠK ey
Ġì° Į
Ġinstall ation
êµ¬ ìĿ´
Ġë§ŀ ê²Į
Ġext ension
Ġle aving
ĠL and
LE CT
ĠN S
ĠìłĢëł´ íķľ
im b
tr y
erv ation
ìķĦ ë²Ħ
Ġfac ilities
Ġfam ous
Ġlist en
ĠÐ¿ ÑĢÐ¸
ª ¼
ed er
ëķ ħ
J son
ateg ories
ë¡ľ ìļ°
Ġf an
bl ing
el er
T e
it o
Ġê´Ģìĭ¬ ìĿ´
ĠR et
ĠìĹ¬ ìłĦíŀĪ
ut s
ĠíĻ Ģ
< Ë·
ĠìķĦìĿ´ ëĵ¤ìĿ´
ult ure
: (
ìĻĢ ìĿĺ
Ġhold s
ĠH and
Ġìĺ Ľ
Ġcommun ities
O ption
ĠëıĦ ìŀħ
Ġpl enty
Ġd ram
ĠìĿ¼ ì°į
Ġë¬´ ì¡°ê±´
Ġch art
ĉĉ Ċ
Ġë§¥ ì£¼
F ONT
? '
l am
Ġch ain
Ġìĸ´ ìłľ
ĠëĬĲëĤĮ ìĿĦ
ë¶Ħ ìĿĺ
al i
m o
ãģ ¦
os is
Ġëįķ ë¶ĦìĹĲ
Ġì° °
ĠM iss
ĠSt art
Ġë°Ľ ìľ¼
um s
Ġê°Ģ ëģĶ
ĠíĦ ¸
ĠAp ple
Ġë ĩĮ
cle ar
ĠGerm an
D R
ĠC ode
ëĿ ł
ĠÐ ĳ
ĠìŀĪìĸ´ ìķ¼
ëŀ į
IG N
ëĤ Ń
Ġrestr ict
Ġë§¤ ìŀ¥
ĠL ake
Ġdet ailed
ë§Ī íĨł
ĠGr and
st ep
Ġbel ong
d elete
ëª© ìĿĦ
íħĮ ìĿ´ë¸Ķ
U RE
d el
Ġhol iday
aut h
Ġíŀĺ ìĿĦ
Ġìŀ¥ ê¸°
Ġcl oud
Ġn or
Ġd anger
Ġcre am
ĠìĨĮ ë¦¬
Ġìĭľ ìłĪ
Ġ( *
Ġy ield
ĠìĦ¸ ìĥģ
ãĥ ¼
ê°Ģ ìĹĲ
t ree
ĠSup er
N ULL
ë¸ Ĳ
as ic
Ġinst ant
ICAg ICAg
ĠëĮĢ ìłĦ
How ever
Ġdistrib uted
Ġê·¸ ë¦°
ĠEng ine
or ph
Ġf o
ëĮĢ ì¶ľ
p ub
ĠSo ft
ìĿ´ë²Ī ìĹĲ
Ġo ch
Ġdo ctor
ĠìĿ¼ ìĸ´
Ġë¥ ¼
roll ed
in er
Ġë¬¼ ìĸ´
ë¨¹ ìĿĦ
Ġlead s
Ġì¦Ĳ ê¸°
T C
Ġj oint
ìĪĺ ë¦¬
Ġag ent
ĠìŀĲ ë£Į
Ġ" \
Ġë°Ľ ìķĺ
Ġcol our
ìķ Ĺ
ì£¼ ìĸ¼
Ġcompet ition
ìĬ¤ ì½Ķ
import ant
Ġwe ak
pos s
ĠZ e
ĠSc ience
T I
D S
go ing
ĠFound ation
as et
æ ķ
Ap plication
ëĲĺ ë©´ìĦľ
Ġmain tenance
ĠAfr ica
Ġnumer ous
b urg
Ġrec ip
ì¤ĳ íķľ
Ð¾Ð ¿
Ġra ised
yn ch
ĠO per
Ġequ ival
Ġ\ ,
ìĭ¤ ìĿĦ
ìĿ´ ëŁ¬
Ë·"> </
ĠUS A
l ig
m ode
ÂłĠ ÂłĠ
Ġt er
Ġë°©ë²ķ ìĿĦ
h s
up s
Ġto ken
Ð¾Ð ¶
se cond
Ġc ry
ĠS O
ĠìĿ´ë²Ī ìĹĲ
´ íĳ¸
Ġdes k
on a
ãģ Ł
M I
ĠìĥĪ ë²½
Ġve get
ĠìĥĪ ìļ°
Ġê°Ģ ë³į
;; ;
Ġb ott
h ash
Ġtr ansp
Ġcon str
Ġìµľ ìĨĮ
íķĻ ê³¼
ge q
ĠìĪĺ ìļĶ
ick en
ìĦĿ ìĿ´
N G
ĠíĻķìĭ¤ íŀĪ
s ystem
ĠíĬ¹ë³Ħ íķľ
Ġco verage
p df
str ap
ĠâĢ ¢
Ġì¡° ìĦ±
Ġìĭł ìĦł
Ġì£¼ ìĿ¸ê³µ
if ts
Ġë³´ ë©´ìĦľ
Ġt on
Ġover ride
Ġê¹ĶëģĶ íķĺê²Į
t og
Pos ition
ill er
Ġê´Ģìĭ¬ ìĿĦ
P ass
Ġdep ending
ref erence
Ġaccom mod
b ound
Ġres olution
Ġvari ables
ĠM ap
urre ncy
ê¸¸ ìĿĦ
ì£¼ ìĿ¼
ro ad
ĠìķĬ ìľ¼ë©´
ëŀ Ĳëĭ¤
ðŁ ı
ìĭĿ íĴĪ
ĠU N
ë°Ķ ìĿ¼
iz ont
am m
ĠFlor ida
c ustom
Ġâ Ĺ
ĠL ED
. (
ĠT exas
ĠÐ¿ Ð¾
Ġì»´ íĵ¨íĦ°
ĠA lex
Ġgu ests
íĹ¤ ìĸ´
Ġc ivil
Ġintrodu ced
! )
ĠìĻ¸ ë¶Ģ
Ġrestaur ant
ê ¾
os ing
ë²Ħ ê±°
âĹ ı
Ġê°Ģ ë°©
Ġë¹Ħ íĥĢë¯¼
ë³µ ì§Ģ
Ġë³´ ìĿ´ê³ł
Ġpract ices
ĠëĤĺ ì¤ĳìĹĲ
ĠMich ael
ëĭĪ ìķĦ
Ġdeterm ined
Ġ` `
s ol
ĠìĿ´ ìĤ¬
Ġì§Ģ ìłķ
ens ed
ĠJ e
H ER
ĠS il
Ġëĭ¤ ìĿ´
at i
m ake
Ġbe ach
ì¤ĳ ìĿ´
íķ´ ì§ĢëĬĶ
ĠìĹĨ ëĭ¤ëĬĶ
ì¶Ķ ê°Ģ
ë³¶ ìĿ´
ìĭľíĤ¤ ëĬĶ
Ġin fr
st ack
ĠëĮĢ ìĿĳ
Ġl icense
ìĦł ìĿ´
Ġbe coming
F B
() :
Ġl ose
íķĺ ìļ°
&& (
Ġdistr ict
m i
Ġtyp ically
Ġìĺģ êµŃ
Ġì¢ħ íķ©
OR M
ë¦¬ ìĺ¤
Ġdiscuss ion
Ġfund s
Ġë¶Ħ ëĵ¤ëıĦ
ìĺ¤ ëŀľë§ĮìĹĲ
Ġì§ ±
re al
ĠO h
res ource
Ġto w
ê¸° ë§Į
> .
D C
Ġb ill
ê²½ ì°°
out hern
ĠT ext
var phi
Ġcont em
íĶĦ ëłĪ
Ġconf erence
Ġì¶© ìłĦ
íĮĲ ìĿĦ
Ġpref er
Ġê¸° ì´Ī
ĠL eg
ĠëĦĵ ìĿĢ
ĠëĤĺëĪ ł
Ġ} }
Ġex tract
Ġr ing
Ġsub sc
ê°ľ ê°Ģ
ëĭ¤ ë§Į
ĠëĪĮ ëŁ¬
ëį ľ
Ġbeaut y
ì²´ íĹĺ
F in
Ġeconom y
Ġman ner
íĮĮ ìĿ´
Ġap art
ëĤĺ ê°Ģ
íĸī ìĿĦ
G E
Ph one
clud e
Ġë§Ī ìĭľ
M enu
ë¥¸ ëĭ¤
ë§Ī ìĿĮ
n am
ëį° ìĿ´íĬ¸
ī ìĿĢ
ĠR ob
ĠìĦł ë³´
ĠCor p
: \
Ġatt ribute
Ġì¹ ł
s end
ERR OR
M ar
id ers
ë¥ł ìĿ´
Ġbig gest
ìłĢ íĬ¸
ĠS a
P ORT
íħĲ ëį°
ë¡ľ ìĦľ
íĨ ±
ìĦ± ë¹Ħ
f iles
ìĽĮ íģ¬
Ġsu gar
ìľĦ ìĿĺ
Ã ½
ĠIs land
Ġwor ry
Ġad apt
ëĭ¤ ëĵ¤
Ġt it
ĠRep ublic
Ġêµ ¿
v i
ëŀĳ ìĬ¤
Ġë§ŀ ì¶Ķ
Ġex change
ìķĦ ë§Ī
ĠTr ue
ĠìĪĺ ìĺģ
Ġd inner
Ġexp ensive
ê¸° ì¤Ģ
" },
Ġê·¼ ìľ¡
Ġê²ĥ ìĹĲ
aw s
Ġass ume
Ġ Î
Ġê·Ģ ìĹ½
ìĿ´ ìĿµ
dev ice
ëªħ íķľ
ì±ħ ìĿĦ
f aces
ĠD ev
ë¯¸ ê°Ģ
Ġìĭľ ì¼°
Ġj ump
return s
Param eter
Ġë ®¤
ìŀĲ ëĵ¤ìĿĺ
Inter face
ì¤ĳ ê³ł
ĠëıĦ ë¡ľ
AT A
ĠAng el
Ġwh om
Ġr ub
ĠìĤ¬ëŀĮ ìĿĦ
h ab
n one
Ġreg istered
Ġsound s
am in
ì§Ģ ìĸ´
ram es
x b
Loc al
ìŀ¥ ìĿ¸
Ġìĥ ĲëŁ¬ëĵľ
{ }
az z
ëĤ¨ ëıĦ
Ġfocus ed
ë¿Ĳ ë§Į
Ġê°Ģ ê¸°
ì£¼ ìĭł
Ġocc up
L eft
ĠT or
ĠìĦľë¹ĦìĬ¤ ë¥¼
Ġì ĩ¼
Util s
ĠI l
k o
f inal
ìłľ ìŀĳ
Ġ eth
Ġbuy ing
ìĽ ¨ìĿ´
ìłĢ ê¸°
Ġê°ķ íķľ
Ġê´ ´
G ET
Ġcomb ined
Ġ ~~
Ġìłľ ì¶ľ
Ġhead er
ĠM ad
ĠM o
Ġad vent
Ġë¿Ĳ ë§Į
istr ict
íķĺ ìħĶìĦľ
Ġdi et
Ġëĭ¨ ì²´
ig r
ìĨĮ ëĵĿ
ĠCh ild
ĠD iv
!!!! !!!!
ref ix
Ġìĭł ê·ľ
Ã© n
Ë· ?
ĠìķĬìķĦ ëıĦ
ëĵ± ë¡Ŀ
n ote
Ġline ar
R el
M ain
Ġt asks
ìĿ¼ ê¹Į
Ġë§Į ìĹĲ
Ġg un
Ġneigh bor
ëħĦ ìĿ´
H A
Ġíİ¸ ìĿĺ
Ġê°Ħ íİ¸
ĠëıĻ ëĦ¤
sh ould
Ġì§ ķ
Ġst one
Ġvisit ors
ìĪĺ ìĽĲ
Ġë¹Ħ ìĭ¸
ëł ¬
ex port
Ġrespect ively
Ġclass ic
Ġb rief
E B
ìĥĪ ìļ°
W A
re place
Ġíķĺ ëĬĶëį°ìļĶ
ĠL ove
Ġ ç
ê¿ Ī
miss ions
reed om
Ġìĭľ ì²Ń
. ~\
Ġíĸī ëıĻ
ĠÐ Ŀ
Ġst ack
type of
ë²Ī ê¸¸
Ġdescrib e
ĠNew s
Ġdesign s
ĠíĨµ íķľ
ĠìĹ´ ë¦°
by te
Ġë§¤ ìļ´
rel ated
pe ed
Ġìĭ« ìĸ´
util s
ìļ° ë¦¬ëĬĶ
Ġê¸Ģ ë¡ľë²Į
Ġsu itable
Ġìŀ¡ ê³ł
ê¸° ì¡´
Ġë Įĵê¸Ģ
Ġm ail
Ġë°° ëĭ¬
ĠìķĦìĿ´ ëĵ¤
Ġfl ag
Ġê³ ±
Ġê¸Ī ë°©
ĠF il
Ġíķ¨ ìľł
Ġthous ands
nt ax
Ġëį ĺ
Ġr Ã©
ĠW ater
S U
Ġëļ ľ
ìĿĺ ìĽĲ
Ġìļ´ ìłĦ
in ternal
ĠW ed
ãģ ª
at in
ĠC are
ìĭľ íĭ°
Ġbo ost
de bug
ad os
ê·¸ ëłĪìĿ´
Ġem erg
Ġfail ure
Ġin tr
over line
ĠC amp
ĠM ont
ig e
ĠìĹŃ ìĤ¬
ĠMus ic
· Ķ
â Ħ
Ġtast e
ãħİãħİ ãħİãħİ
it ness
Ġìĭ¶ ìĸ´ìĦľ
ĠS l
Ġmajor ity
ĠëĶ°ëľ» íķľ
Ġì°į ìĿĢ
Em pty
h igh
Ġë´Ĳ ëıĦ
ìĹĦ ì²Ń
Ġx ml
Ġt ro
ëĶ ľ
Ġìķŀ ìĦľ
Ġê¸° ë°ĺ
ê±´ ì§Ģ
ëĭ¤ ìĿ´ìĸ´íĬ¸
Ġa uf
ê¸Ī ìķ¡
if ies
k l
ëĲĺ ë©°
ĠI d
ê±´ ìĦ¤
,, ,,
ot ic
íķŃ ìĥģ
D P
ĠëĪĪ ìĿ´
ìĸ´ ë¡ľ
ĠÐ ł
)$ ,
Ġì¦Ĳ ê±°ìļ´
ĠìĿĺ ìĽĲ
Con st
ìķĦ ë¹ł
ìŀ¥ ìĨĮ
Ġd ump
h over
ìĹĲ ë§Į
ĠE nt
Ġp roud
Ġcon ver
pro du
Ġc os
ĠëĦĪë¬´ ëĤĺ
ĠH all
ber t
Ġcon sequ
Ð´ Ð°
ë¯ ¹
ë¬¼ ìĿĺ
f ocus
ĠìķĦëĭĪ ì§Ģë§Į
ĠSt ar
ĠìĺĪ ìĪł
Ġpro ceed
ĠìłĦ íĻĺ
omet ry
d ot
ìļ© ìľ¼ë¡ľ
Ġv ideos
Ġexpl ain
ĠÐ½ Ðµ
Ġ ÑĤÐ°
ĠB ack
R ed
D irect
ä¸ Ģ
Ġë¨¹ìĸ´ ìķ¼
Ġanim als
ìķĦ ê¸°
Ġsc r
k in
im ation
Ġ ãħľãħľ
ìŀ¥ ëıĦ
ĠN O
Ġvol unte
Ë· !
ĠëĲĺ ëĬĶëį°
Ġst ars
Ġíķľ ìŀĶ
Ġr is
ëĪĪ ìį¹
ĠëĽ° ìĸ´
Ġj son
ut y
ë³´ íĺ¸
T ree
Ġl abor
S w
Ġal s
aut o
Ġpost s
Ġqu i
w iki
Ġloc ations
Ġallow ing
Ġt un
Ġfab ric
y cl
ĠëŃ ĺ
is hes
ĠO N
ol ar
ĠD en
ex ports
ë¹Į ëĿ¼
ë²ķ ìĿĦ
Ġê²Ģ ìĤ¬
ĠL ight
ë¬´ ìĽĲ
Par ams
Ã¡ n
ĠE rror
P U
Ġj ournal
Ġsp r
W S
g s
D ocument
Ġrecomm ended
Ġìµľ ì¢ħ
Ġwrit er
tx t
J ust
Ġíĸīë³µ íķľ
Ġaud io
pr ise
Ġrem aining
us hed
Ġìĺ¤ ëŀľ
u gh
CO L
Ġd ur
es h
oc ation
Un it
Ġê°Ļ ëĦ¤ìļĶ
Ġthought s
Ġs umm
v m
Ġf ans
ìĽĮ ìļĶ
Ġdec isions
Ġsp in
Ġê¸° íĥĢ
Ġê°Ģ êµ¬
Ġel im
ĠìĤ´ ê³ł
ed ge
ìłĦ ì²´
Ġb oot
ĠìĨį ìĹĲìĦľ
Ġê²Į ìĭľ
Ġwalk ing
Ġproced ure
el le
ĠìĬ¤ë§ĪíĬ¸ íı°
íĬľ ëĶĶìĺ¤
Ġëª¨ë¥´ ëĬĶ
ì¸µ ìĹĲ
ĠìĤ¬ëŀĮ ìĿĺ
Ġê³Ħíļį ìĿ´ëĭ¤
Ġë§ ĳ
Ġcent re
Ġìĸ ĩ
Ġre nd
* )
è ¡
íļĮ ìĹĲ
st ar
ë°Ľ ëĬĶ
ìĿ¸ ë¶Ħ
Ġê·¸ ëıĻìķĪ
ë¬¸ ìłľ
ĠëĤł ìĿ´
O O
er ies
ĠL ook
Ġexc ited
Ġch osen
Ġêµ¬ ì¶ķ
d ist
ĠSh ow
ap pro
ê±° ëĿ¼
ar ks
Ġb ought
Ġjo ined
Ġìļ°ë¦¬ ìĿĺ
Ġwas te
Ġê°ľ ìµľ
Ġbre ath
ĠSt and
ł ì§Ģ
ë§Ī ë¦¬
Ġë§Įëĵ¤ ê³ł
Ġì§Ģ íĤ¤
Ġtrans action
ë¬ ĺ
re q
Ġl ux
ĠM ex
ĠëķĮ ë§Īëĭ¤
d est
Ġê°ķ ìĿĺ
Ð¸ Ñģ
Ð°Ð» ÑĮ
Ġv en
ĠM ain
D I
Ġrec ipe
ë¯¸ ìļ©
ì¤ ĢìĿ´
ĠPe ople
ĠM ax
out s
C I
Ġìħ ĭ
ìĦ± íĻĶ
ë§Į ëĳĲ
ell er
ĠComm it
ëĭĺ ìĿĦ
al ian
Ġê°Ģ ìłķ
Ġh ospital
P P
Ġp ure
ìħĺ ìĿĦ
ìĭ¶ ìĿĢ
Ġnov el
ĠìĹĨ ì§Ģë§Į
ĠT ur
c z
ê±° ìĹĲìļĶ
Ġh yd
ĠìĨĶ ì§ģ
Ġsh ut
Ġë°Ķ íĥķ
o very
Ġëħ Ħ
íĥĢ ìŀĦ
Ġup load
Ġv ent
Ġse at
Ġnot es
Ġ ri
ĠìķĬ ëıĦë¡Ŀ
ĠW ord
Ġsc hedul
ĠGe orge
Ġhe t
re nd
hand le
ĠPar is
Ġsur g
ìļĶ ë¦¬
Ñĩ Ðµ
Ġcirc um
ĠC lick
ëĦ¤ ìĿ¼
ê¹Ķ ëģĶ
ĠíĽ Į
P e
Ġsim pl
in line
Ġíľ´ ëĮĢ
Ġimport ance
å Ĭ
Ġinflu ence
Ġed itor
ĠThe refore
ĠìĤ¬ìļ© íķĺê³ł
ĠOn ly
ac cess
ì£¼ ìĭľë©´
ĠìĿĮìĭĿ ìĿĦ
ĠìĦ± ê²©
Ġê·¸ ëł¤
Ġt a
ĠìĹĨ ëĭ¤ê³ł
u able
ĠW ood
êµŃ ë¯¼
Ġëķ Ĳ
Ġsal t
Ġìķ ±
ist a
ad ing
O p
ëĤĺ ë§Ī
ĠSe ction
est ion
=\ "
ĠCent ral
ro ke
Ġë´ ħëĭĪëĭ¤
è ¯
ì¤ Į
Ġdep th
ĠìĺĪ ë»Ĳ
ern el
urs day
ìĺ µëĭĪëĭ¤
Ġìĸĳ ìĿ´
Ġess ay
ĠìĪĺ ëĬĶ
res ents
ìļ¸ ìĤ°
Ġj u
Ġâĸ ³
Ġë§Ī ìĭľê³ł
ìĦ °
Ġê³³ ìĹĲìĦľ
Ġabsol utely
Ġsus p
L ook
Ġmost ly
Ġapproxim ately
ĠG en
ìĦ± ìĿĺ
Ġìŀħ ì£¼
âĿ ¤
ĠTh us
az ine
Ġpl astic
ap ed
f n
Ġê²ĥ ìĿ´ëĿ¼ê³ł
Ġset up
ĉ Ġ
ĠAma zon
Ġsust ain
Ġrelationship s
E ng
Ġì¤ĳ ìĹĲìĦľ
Ġìĭľ ë¦¬ì¦Ī
ĠâĨ Ĵ
Ġ ),
Ġclaim s
ort hern
íĸī ë³µ
oper ator
or ry
Ġìºł íķĳ
Im pl
ĠIt s
Ð½ Ñĸ
ĠBl ue
Ġê²ģ ëĭĪëĭ¤
Ġpol icies
Ġv el
ock er
ìĨį ìĹĲ
ell ed
ĠìĦł íĺ¸
CO DE
ĠM er
Ġin ner
ĠR ad
ap os
ĠìµľëĮĢ íķľ
Ġsu it
ĠëĮĢíķľ ë¯¼êµŃ
ĠìĿ´ ìģľ
Ñĸ Ð´
Ġê´ĳ ì£¼
Ġpro ve
Ġì§Ģê¸Ī ìĿĢ
Ġì§ ĵ
ĠëĮĢ ê¸°
ãĤ Ĵ
un finished
w a
Call back
íļĮ ëĬĶ
Ġë¶Ģë¶Ħ ìĿĦ
ãĦ ±
ä¸ Ń
ìĸ´ ìļ©
ĠC A
Ġobserv ed
Ġres idents
Ġêº¼ ëĤ´
ĠS E
l ife
Ġì¡° ìļ©
Ġsign ed
ĠL ear
Ġpr in
ist or
ĠR equ
ìŀĲ ìĹĲê²Į
Ġis t
Ġst ores
íĽĦ ê¸°
ĠV ir
Ġrem ote
íķĺ íķĺ
Ġë³´ ìĭľë©´
ĠA L
Ġw ur
Ġë°° ê²½
Ġê°Ģ ë¥´
êµ¬ ì¡°
ĠK ore
Set tings
ĠíĴį ê²½
c ategory
íĺ¹ ìĭľ
ĠìĹĨ ìĸ´ìļĶ
ĠìĽĮ ëĤĻ
e ction
ìĥī ìĿ´
ë¸Ķ ëŀĻ
ì²´ ë¥¼
Ġredu ced
Ġaut hent
ĠìłĲ ìĿ´
ìĤ° ìĿ´
C ore
ĠThe ir
ple t
Ġinteg r
ìłĲ ìĹĲ
Ë·) $
Ġë°ĺ ëĮĢ
ak ed
f ramework
ðŁ ¤
ick er
ĠĠĠĠĠĠĠĠĠĠĠĠĠĠĠĠ ĠĠ
ìĦľ ë¡ľ
Ġì°¸ ê°Ģ
Ġìłĳ ê·¼
Ġë Ĥ¬
typ es
å °
Ġëĭ¤ ë¥´ê²Į
cl aim
Ë· =
Ġal gorithm
Ġê¸¸ ìĿĦ
Ġs port
å į
ê°Ħ ìĿĺ
ëħ ¹
Ġt or
ëĩ ¨
Ġdou bt
ann els
x a
Ġw a
Ġìĸ¸ ê¸ī
' ],
ÑģÑĤ Ð¸
Ġw id
ĠH REF
ud d
Ġep is
sp ring
Ġì¦Ĳ ê±°
íķĺ ê²łìĬµëĭĪëĭ¤
Å ĳ
ĠìķĦëĭĪ ë©´
ëĵ¤ ê³ł
Ġíķ© ê²©
izont al
est ic
im ents
ere r
ĠìĤ¬ìĿ´ ìĹĲ
lic t
ol es
Ġcomp are
Ġke ys
x c
ĠìĬ¤ íģ¬
ĠìĿ¸ ê·¼
ë° Ń
Ġf aster
ce an
Ġì¤ĳìĭ¬ ìľ¼ë¡ľ
Ġf ederal
d ouble
Ġmot iv
ì£¼ ìĨĮ
Ġ< =
ìĪ ¨
Ġíĺ¹ ìĭľ
ìĤ° ëıĻ
ap plication
Ġshe l
ĠT im
su ccess
Ġp sych
ĠìķĦëĭĲ ê¹Į
P G
Ġprep are
ĠÃ ¤
ĠS u
Ġíŀĺ ìĿ´
Ġcit iz
ic ians
Ġaccom pl
sc ious
Ġevent ually
Ġwill ing
ĠìĿ´ìļ© íķ´
ri ev
ĠìķĦìĿ´ ê°Ģ
ĠL ike
Ġag reed
( !
Ð Ĵ
Ġì¹ Ń
ëĵľë¦¬ ê²łìĬµëĭĪëĭ¤
St ore
H ash
pl ing
ues day
se ar
Ġun ivers
\ ,
Ë· Â·
in ations
Ġwatch ing
ÐµÐ» ÑĮ
Ġì°į ê³ł
Ġm outh
am l
ap se
Ġend ed
C ustom
ĠìĥĿ ê²¨
ĠDirect or
¬ ë½ķ
st op
ĠëĤł ìĶ¨ê°Ģ
Ġãħĭãħĭãħĭãħĭ ãħĭ
i ro
ë°Ķ ëĭ¤
ë¯¸ ë¦¬
ìĿ´íģ¬ ìĹħ
Ġëĵ¤ìĸ´ ìĺ¤
ĠEduc ation
ìħ ī
P tr
=" _
ëĤ¨ ìŀĲ
Ġë¶Ħ ë¦¬
fr ak
ĠP M
to String
ĠìĤ¬ìĭ¤ ìĿĦ
ë¶Ħ ìĿĢ
Ġqu iet
ë¹Ħ ëĬĶ
Ġsp aces
mod al
row ser
p atch
fort unately
Ġcont aining
íħĮ íģ¬
ìłĲ ìĭ¬
ĠëĴ¤ ìĹĲ
Ġart ists
ĠFr ank
Ġb on
Pro ject
Ġident ity
Ġph il
N T
ig ration
ur ies
ĠìĥĿê°ģ íķ´
ĠëĤĺ ìĿ´
Ġpur poses
s ession
al ax
ãħĭãħĭãħĭãħĭãħĭãħĭãħĭãħĭ ãħĭãħĭãħĭãħĭãħĭãħĭãħĭãħĭ
Ġtr av
ìĭ¤ ìĹĲ
ĠëĦ ī
Ġcontin ues
Ġcour ses
Ġth r
Ġcr is
Ġn ative
x d
Ġe en
ì¡° ìĤ¬
Ġhon est
Ġde ploy
Ġsur vey
it ems
ĠF ind
ì¹ĺ ì§Ģ
ir ty
íĻĶ ëĲľ
Ġê° ¤
Ġv ary
ocol ate
ìĭľ íĶ¼
Ġl ab
Ġem p
Ġpract ical
Ġm al
ĠìĥĿê°ģ íķĺëĬĶ
P o
Ġc ities
Ġí ľ
Ġput ting
Ġd ensity
Ġrap id
Ser ial
ĠJ ava
C ons
ip ped
ip al
G R
ê°ķ ëĤ¨
Ġsuccess fully
Ġm ac
ĠíĿ °
AC E
ĠëĤĺ ìĻĶëĭ¤
ĠP ass
Ġë§¤ ë§¤
ĠìĦ¸ íĬ¸
Ġfav our
ĠìłľíĴĪ ìĿĢ
Ġëį ®
Ġë§ŀì¶ ¤
Ð¸ Ð»
b el
Ġìĸ´ëĸ ł
im a
ĠSt ep
and a
Ġr ise
Th ank
ìĿ´ ê³³
. }
Ġr ide
h line
íĨµ ìĭł
Ġì·¨ íĸ¥
ic he
Ġserv ing
P RE
ĠT wo
ĠIn formation
Ġâĺ ħ
íıī ê°Ģ
Ġs elling
¤ ë²Ħ
ëĤ´ ìļ©
inst all
ìŀĪ ëĬĶëį°
ĠìľĦ ë¡ľ
St at
Ġleaders hip
ëħĦ ë¶ĢíĦ°
ëĲĺ ê¸°
Ġinter pret
ĠE vent
Ġì¢ĭ ëĭ¤ê³ł
IC E
Ġmeas ures
ĠìķĬ ì§Ģë§Į
het ic
ok er
Ġpol y
ìŀĦ ëĮĢ
ĠìĤ¬ ë§Ŀ
ĠìŀĲ ë¦¬ë¥¼
Ġfeed back
ë¶Ģ ìĹĲ
ne ctions
ëļ ľ
ëĬĲ ëĤĮ
Ġì¡° ìĦł
ĠëķĮ ëıĦ
Ġê¸°ìĸµ ìĿ´
j u
ĠE lect
As ync
ĠP ay
Ġstrateg ies
Ġp un
x FF
F R
ĠComm ission
b u
Ġout door
ĠëĤĺìĺ¨ ëĭ¤
.. ?
ans ion
Ġt ail
Ġdep artment
Ġenjoy ed
ĠĠĠĠ ĠĊ
ìļ° ë¦¬ê°Ģ
g raph
Ġs in
ë°ĺ ê¸°
ìĹ ł
Ġíİ ľ
ĠF ort
Ġfr uit
Ġê²½ ê¸°ëıĦ
Ġcre ation
Ġcho ices
Ġconcern s
arr ant
ĠìĺĪìģĺ ê²Į
Ġposs ibly
gr id
Ġbus y
Ġspecific ally
Ġëĭ¬ ëŁ¬
Ġingred ients
Ġíģ´ ëŀĺ
Ġdest roy
P M
Ġëħ¸ ëıĻ
S ession
ĠDevelop ment
ëŀ Ń
ak s
ë± ħ
ĠÐ Ķ
Ġê´ľì°® ìĿĢ
íļĮ ìĹĲìĦľ
Ġmark ets
Ġíĺ ģ
ent er
ĠìĹ ī
ĠP et
ĠHT ML
alle l
Ġfam iliar
Ġgir ls
ë©Ķ ë¦¬ì¹´
ĠR ock
ug ins
ìĺ¤ëĬĺ ìĿĺ
k u
Ġconf irm
By Id
Ġe ating
Ġ rom
ì²ľ ìĽĲ
Ġëĳ Ķ
ìĤ´ ìĿ´
ĠU nder
Ġupd ates
Ġinter ior
= &
P at
] );
B undle
ix el
ê°ĳ ëĭĪëĭ¤
Ġbr ings
Ð¼ Ð°
Ġaspect s
íĻľ ëıĻ
Ġmot ion
Or der
M ark
ĠìŀĲì²´ ê°Ģ
ĠìĹĨ ìĹĪ
¨ ë²Ķ
t ask
Ġëĵľ ë¦½ëĭĪëĭ¤
Ġcompre hens
} ),
Ġs ou
app y
ëŃ Ķê°Ģ
ad or
ĠëĲľ ëĭ¤ê³ł
ĠëłĪ ìĿ´
íĺķ ìĿĦ
rom ise
Ġparam s
B ody
Ġr aw
$ (
Ġteacher s
Par ser
w idget
ë¥´ ì§Ģ
ĠM el
ĠëĤĺìĺ¤ ê³ł
pos ite
S QL
ìħ¨ ëĭ¤
ĠS ociety
Ġchem ical
B efore
Ġì·¨ ëĵĿ
Ġë² ¤
íĦ° ë¥¼
nes day
ì§ģ ìłĳ
ĠëĪĦ ê°Ģ
Ġê³¼ íķĻ
ĠÐ¸ Ð·
íļ¨ ê³¼
Ġk ing
ëıĦ ìĻĢ
ic ago
r im
ĠìĤ¶ ìĿĦ
M ore
on om
Ġs ides
Ġìı Ł
EN D
V ari
ĠíĶĦë¦¬ ë¯¸ìĹĦ
Ġê·ĢìĹ¬ ìļ´
Ġf if
unc hed
Ġì¶ľ ì²ĺ
ëĭ¤ ìĿ´
ìķĦ íĬ¸
ach ine
Ġabsol ute
ĠìĦł ê±°
ê³ł ë¥¼
Ġê³¼ìłķ ìĹĲìĦľ
ĠìĤ¬ ìłĦ
Ġmin or
Ġcar ried
ìĿ¼ ë¦¬
Ġassist ance
Ã© t
Ġíıī ìĨĮ
ĠRe al
g reg
Ġfor g
Ġìĸ´ ë¨¸ëĭĪ
Ġì² Ļ
Ġíİ¼ ì³Ĳ
Ġê²½ìļ° ëĬĶ
ĠíĶĦë¡ľ ìłĿ
ìĭĿ ìĿĢ
B R
Ġsp ending
Ġfac ility
Ġrequest s
ë© ľ
IT E
Ġstre t
ĠëĤ® ìĿĢ
ld ots
ĠTr ump
lo se
pass word
S ign
ì²´ ê°Ģ
á ĥ
Ġb an
B M
Ë·% ),
W indows
Ġm ent
Ġz u
ra f
ĠìĤ¬ìļ© íķ´
Ġê°ľ ëħĲ
r id
O h
ĠëĤĺ ë¨¸
Ġst ored
S m
Col lection
Ġíĥ ģ
Ġcas ino
} ^Ë·
ĠA M
Ġpro pos
ĠëıĻ ë¬¼
Ġcom o
Ġd ining
Ġp a
Ã¨ re
ĠS ocial
re ens
Ġdist inct
Ġì¢ĭ ìķĺëĭ¤
S u
is ters
Ġk m
ĠSec urity
Ġli qu
ÑĤ Ð¾
T itle
ê³¼ íķĻ
ĠReturn s
ĠíķĺëĤĺ ìĶ©
C al
ë¿ į
Ġìķŀ ìĹĲìĦľ
ìŀĲ ëĵ¤ìĿĢ
O nce
V D
co pe
ìĪĺ ìĪĺ
ĠìĹĲ ìĦľ
ìĦ¸ íķľ
on ic
b olds
Ġacc ident
Ġê¸°ì¤Ģ ìľ¼ë¡ľ
d ict
f ull
Ġfor t
Ġê¸° ìĤ¬
Ġë¨¹ ìľ¼ëŁ¬
ke ys
ive red
T im
ins ert
ĠH ill
Ġask ing
ĠH D
ì§ĳ ìĿĦ
Ġfe es
Ħ ë¦¬íĭ°
n n
Ġë©Ģ ë¦¬
Ġv ote
Ġs izes
Ġì§Ī íĻĺ
Ġconf idence
ĠUn ion
Ġart icles
ê±´ ì¶ķ
Ġë³´ ìŀħëĭĪëĭ¤
Tem plate
bolds ymbol
íķľ ì§Ģ
ëį ¤
Ġem er
ĠM ot
ëĵ± ê¸ī
is chen
Ġëķ ¡
ë¦¬ ê²Į
Ġâ ĳ
ìłĲ ìľ¼ë¡ľ
ol ic
net ic
ĠìłĦ ìŁģ
ri age
ìĬ¤íĥĢ ê·¸ëŀ¨
ĠP RO
ĠìĹ¬ëŁ¬ ê°Ģì§Ģ
ĠìŀĪìĿĦ ê¹Į
ask et
Pro t
Ġexc iting
d irect
ĠíħĮ ìĬ¤íĬ¸
ĠêµĲ ìĪĺ
Ð´ Ð¸
ĠìĿ¼ ìľ¼
F E
Ġhold ing
Ġj av
Ġt ill
ìĦł ìĥĿ
Ġbe at
ĠC H
ol ved
ë°° ìĨ¡
f amily
Ġour selves
ĠM aster
Ġëĵľ ëĿ¼ìĿ´
Ġaw ait
m id
ĠíĮĮ ìĬ¤íĥĢ
ĠB E
Ġìµľ ìłĢ
ìĭ¤ ìĿ´
Ġwebs ites
Ã§ Ã£o
Ġs plit
Ġun c
Ġëª© ìĨĮ
Ġgu ys
ì£¼ ìĹĲ
Ġo dd
od ies
à ¥
el ing
Ġsen ior
Ġm ine
Ġdim ension
N um
Ġê²Ģ ì°°
sk ip
Ġt ight
Ġëħ Ģ
ĠëĪĦ êµ¬ëĤĺ
ìĸ´ ìł¸
Ġrespons ibility
omet imes
if est
Ġis land
Ġre sear
ĠOn line
Ġìł ĬìĿĢ
ĠAc adem
Ġs s
Ġopin ion
íħĮ ìĿ¼
Ġenvironment al
Ġfant astic
Ġy es
Ġaccount s
Ġint ended
Ġê³ł ìłķ
Ġìĸ´ ê¹¨
íĥ Ĳ
ĠìĪĺ ìĽĲ
E very
íĻķ ìĭ¤
Ġphot ograph
Ġm a
ĠíĨµ íķ©
Ġíķĺ ëĭ¤ê°Ģ
Ġê³ °
ĠJ SON
Ġë©Ķ ìĿ¸
Ġ" /
Ġdes pite
Ġìłģ ìĿĢ
let s
ĠëĦī ëĦī
ëĭ¨ ìĿ´
Pro perties
Ġlov ely
ì¦ Ļ
lang le
e per
Ġbro ken
wh ite
ĠìĦ¤ ê³Ħ
Ë· <
Ġìĭł ë°ľ
ĠW all
RE E
Ġappe ared
Ġê³Ħ ìĭľ
Ġë¶Ģë¶Ħ ìĿĢ
ĠD uring
leg al
Ġê¸° ê´Ģ
ĠD istrict
Ġëĵ¤ ìĹĪëĭ¤
Ġëĵľ ë¦´
app a
ë°¥ ìĿĦ
Ðº Ð¾
Ġany where
i h
Ġëĸł ëĤĺ
Ġm ental
Ġl ived
Ġcor porate
S R
Ġte a
qu are
ĠB et
Ġext ended
ĠìķĦëĭ ĻëĭĪëĭ¤
ìĿ´ ìļ©
Ġenh ance
ĠTh ursday
Ġì²ľ ìĹ°
Ġìľł íĨµ
ìĺ¤ ìĿ¼
Ġë°° ê°Ģ
ì© į
íķĦ ìļĶ
Ġc ache
c opy
ĠìķĦ ëĵ¤
Ġë§Ī ëĬĺ
ìľ Ī
Ġvill age
Ġë³´ ìĿ´ì§Ģ
ff ff
Ġde bt
ìĿ´ ëŀįëĭĪëĭ¤
ì´ ¬ìĺģ
Ġf uel
ìŀĳ ìļ©
Ġpar se
ial s
Ġr an
ir a
Ġê¸° ë¦Ħ
ê´Ģ ëł¨
Ġf Ã¼r
Ġìĸĳ íĮĮ
Ġê³ł ìĥĿ
Ġs itting
Ġìį °
H ost
Ġveh icles
ĠM useum
ĠíķĺëĤĺ ìĿĺ
ĠìĨĮ ìĬ¤
âĪ ¼
us her
Ġë²Ħ ìĬ¤
M ult
in ates
ëĵ Ń
ĠPro duct
Ġ era
ì¡ ¸
Ġcult ural
ê¸° ëĭ¤
Ġ iron
Ġfor ces
Ġìŀ¥ ìķł
St ack
C M
ĠGerm any
u ated
Ġëĵ¤ìĸ´ ê°ĢëĬĶ
Ġh yp
ìĪĺ ìĹħ
âĨĵ âĨĵ
Ġê±° ì³Ĳ
ed y
c ut
Ġì§Ģ ì§Ģ
Ġinj ury
or ter
M any
L ambda
D U
ê±° ìķ¼
n ap
ple ments
ìľł ë¦¬
Ġë§İ ìĬµëĭĪëĭ¤
ĠìłķëıĦ ìĿĺ
Ġ Ñĸ
Ġê° Ŀ
Ġì¤ĳ ìĨĮ
ĠíĥĢ ìŀħ
ìŀĲ ëıĦ
ëĿ¼ íħĮ
Ġf le
ĠV alue
Ġê¸° íļį
al ysis
Ġê²ĥ ê³¼
F alse
ê³¼ ìłķ
íķŃ ê³µ
od d
ĠE st
ens ure
ì¶ ¤
ìķĦ ìķĦ
ĠìĻĢ ìĿ¸
Ġê¼ ½
Ġìĸ¸ìłľ ëĤĺ
Ġì¤ĳ ìĿ¸
Ġë³ĳ ìĽĲ
math frak
Ġsuff icient
ĠìĨĲ ìĿĦ
âĢ¦ âĢ¦
ï ½
Ġbut ter
é Ģ
ëĭĺ ê»ĺ
ë¬´ ìĹĩ
Ð¾Ð» ÑĮ
Ġìĥ Į
Ġë ±
ĠìĬ¤ íĭ°
ĠìľĦ ìĽĲ
Ġh tml
ĠH en
og rap
Ġequ ation
are a
Ġvis ible
Ġbrow n
íĬ¸ ëĤ¨
íķĺ ëįĶëĿ¼êµ¬ìļĶ
H R
Ġìŀĳ ê°Ģ
W ell
Ġdep art
ĠP eter
( *
ĠM ath
ĠWill iam
Ġw rap
ìłĪ íķľ
ãĦ· ãĦ·
- )
ĠëĮĢ ëĭ¨
Ġìĭł ë¢°
Ġë²Ħ íĬ¼
ĠM a
Ġread er
ĠI ll
ê°Ħ ëĭ¨
ë© ¸
Ġcontr ast
ĠíĿĺ ëŁ¬
Ġag ency
Ë·] )
ìĹ¬ê¸° ìĦľ
Ġë© Ī
Ġsong s
ê°Ħ ëĭ¤
Ġp ip
Ġdi am
ìĨĮ ìĬ¤
Ġì¢ ģ
Ġg ro
Ġê³µ ê³µ
ëĵ± ìĿĦ
G u
ĠìĿ´ìľł ê°Ģ
Ġë¬¼ ìĿ´
ĠP en
ĠCar ol
Ġìŀł ê¹Ĳ
Ġrep resents
B B
ë¦¬ìĬ¤ë§Ī ìĬ¤
os h
we et
ĠëĮĢíķ´ìĦľ ëĬĶ
is co
ev en
Ġdel ay
Ġê¹ĶëģĶ íķľ
Ġë§ĽìŀĪ ìĸ´ìļĶ
Ġe ase
å Ľ
ìĬ¤ ì¹´
ĠC ard
ĠP o
pl ates
Ġdo ors
ott en
Ġë°Ľ ìķĺëĭ¤
ph as
el ines
m aster
ou ter
Ġì¦Ĳ ê²ģ
se ct
ĠCommit tee
Ġíķĳ íģ¬
est amp
ing u
ĠS QL
ĠP ack
ut ing
A pi
ĠêµĲ íĻĺ
íķł ìĿ¸
Ġindust rial
S M
ĠU sing
Ġf ramework
ĠâĢ ŀ
} /
ëª¨ ìĬµ
Ġê°ľìĿ¸ ìłģìľ¼ë¡ľ
Ġdep ends
Ġoccas ion
N e
ë³´ ëĵľ
er d
Ġm ur
Ġb attle
ĠP oint
Ġsud den
Ġê³Ħ ìĤ°
Ġìŀħ ëł¥
or ough
Ġdisc overed
ê³ł ì¶Ķ
ĠT uesday
plic ations
Ġan imal
St ep
Ġí ĳ
b uf
ĠTe am
Ġ( '
ĠìķĪ ìĭ¬
íķĺ ëĬĺ
Ġê·¼ ë¬´
Ġhas h
Ġh at
íĺ¼ ìŀĲ
ëĨ ¨
ë§¤ ë§¤
Ð° Ñģ
V ector
Ref erence
Act ivity
ĠE qu
ìŀĲ ê²©
inter face
ĠNet work
S K
íİ Ģ
Ġresult ing
ëĭĺ ê³¼
Ġìļ° ìľł
ĠìłĦ íķ´
Ġëª° ëŀĲ
ê³Ħ ìķ½
ìĪĺ ìĪł
ition ally
Ġin structions
ëĵ Ģ
Ġsignificant ly
Ġsol ve
ëĭĪê¹Į ìļĶ
ĳ ¥
Ġê¸°ëĭ¤ ë¦¬
Ġdest ination
Ġìĺ¤ ë¹ł
Ġstop ped
D raw
Ġcor re
Ġb ond
astr ucture
Ġëĵľ ëĶĶìĸ´
ĠM ass
Ġappear ance
Ġord ers
Ġafford able
m al
k ing
Ġì¡¸ ìĹħ
ĠGovern ment
Ġstand ing
u v
Ġfl ight
ìĩ ł
ê´Ģ ê´ĳ
Int eger
íĴĪ ìĿ´
Ë· ^Ë·
ëı¼ ì§Ģ
ang o
ĠO ld
w est
ĠPart y
ĠìĿ´ ëģĮ
ĠëĪĪ ìĿĦ
Ġno ise
Ñ Ĭ
Ġaw esome
r at
êµŃ ìĿĺ
Ġë§Į ëĤľ
s ort
Ġë¹Ħ ë°Ģ
Ġíĺķ ìĦ±
mod els
Ġì°½ ìĹħ
ëł¥ ê³¼
h idden
Ġëıħ ìĿ¼
ck now
ĠY es
Ġê³ ģ
Ġíķł ìĪĺ
Ġsupport s
l at
t ool
}} ,
Ġì·¨ ìĹħ
sc reen
ĠìĨĮ ìľł
z ure
ìĥ ĺ
Ġident ified
Ġsw im
ĠC as
ug s
poss ible
ĠìĹ° ìĨį
ĠĠĠĠĠĠĠĠĠĠĠĠĠĠĠĠ ĠĠĠĠĠĠĠĠĠ
; \
ìłĦ ìĿ´
ìĿ¼ ìĥģ
U D
ĠëıĮ ëł¤
ĠìĪĺ ë°ĸìĹĲ
ict or
ind s
ê·¸ ë¦¼
ëĵľë¦´ ê²ĮìļĶ
tern oon
Ġê³³ ìĿĦ
ãģ ¨
ĠìĪĺ ë¶Ħ
Ġê°ĢëĬ¥ íķĺëĭ¤
ë¦¬ íĬ¸
ĠëĦ Ĳ
Ġìĥģ ê´Ģ
Read er
Ġadmin istr
Ġal le
IN D
Ġreli able
ab et
ri or
ĺ ¥
ĠSm ith
ĠSpec ial
Ġl unch
ic ian
Ġíĸī ìłķ
ëĲ ¨
êµŃ ìłľ
ëĦ Ľ
Ġëĭ¬ ëĭ¬
ĠUS B
ĠìķĬ ìķĦìļĶ
ĠB oth
Ġbatter y
ì» ¬ëŁ¬
he ll
Ġ ÑĢÐµ
L G
ĠAss ert
íİĺ ìĿ¸
B ook
ê¸ ĭ
Ġs ac
ãģ §
Ġíĳľ ìĭľ
ëģ¼ ë¦¬
Ġëĭ «
Ġê²½ìļ° ëıĦ
th m
ĠB ill
Ġg ather
Ġê° Ĵ
T F
Ġrepresent ation
Ġê³¨ íĶĦ
Ġca uses
ĠL o
ĠBe ach
ðŁı »
ëĵľ ëĶĶìĸ´
b ur
Ġwall s
Ġëĭ¨ ì§Ģ
Ġì¢ĭ ì§Ģ
íķ µ
ëªħ ìĿĢ
og y
B E
âĸ¼ âĸ¼
į ìłķ
ĠìĿ´ë¦Ħ ìĿĦ
ìĪ Ń
Ġun signed
Ġby te
Ġtri al
ìº Ķ
ĠN E
ĠìłĲ ìĿĦ
íĬĢ ê¹Ģ
ìĥģìĦ¸ ë³´ê¸°
Ġdynam ic
Ġrel ation
Ð° Ðº
ĠìķĦëĭĮ ê°Ģ
li k
class es
Ġint ellig
íĮĲ ìĿ´
Ġê·¸ ëŁ´
m osp
Ġfore st
W R
Ġìĸ´ì© Į
Ġs pl
ĠEn ter
in ating
au x
Ġê²Ģ íĨł
ĠëįĶ ë¶Īìĸ´
Ġêµ ½
igh ter
L ong
Ġëª© ìłģ
Ġfund ing
Ġcomm itted
Ġyou th
Q ue
ĠëĮĢ íĻĶ
ë¶ģ ëıĦ
ar c
ĠìĪĺ íĸī
co hol
Ġw ave
Ġco ast
ff ect
ĠìŀĲìĭł ìĿĦ
Ġguarant ee
Ġëĭ¹ ìĹ°íŀĪ
ĠRober t
ĠìĥģíĻ© ìĿ´
ĠW hether
ë¡ ¬
Ġn uc
AT H
íķĺ ê²łëĭ¤
Ġmag n
ual ity
ìĿ¸íĦ° ëĦ·
ra wn
Ġshe et
g lobal
Ġlight s
ëŁŃ ìĭľ
ìĿ´ ìĤ¬
ëĨ Ĵ
st at
ĠE arth
ëĶ° ëĿ¼
ë²ł ë¦¬
Ġgood s
íķ´ ê°Ģ
Ġê·¸ ë£¹
ĠAcc ording
Ġdes ire
Ġë Į
ĠJ ournal
Ġdes ired
ìĭľ íĤ¨
Ë· ^
ĠC EO
âĶĢâĶĢ âĶĢâĶĢ
ĠC LASS
Ë·} ^{
ĠÐ ĵ
Ġê³¼ ìłķìĿĦ
Rec ord
Ġte ach
ĠëĮĢ ë°ķ
Ġarriv ed
íķĺ ëł¤
ĠíĹ Į
Ġpattern s
Ġë¬ ĺ
ĠLe ague
ÂłÂłÂłÂł ÂłÂłÂłÂł
Ġë¶Ħ ìĿ´
Ġê²°ê³¼ ë¥¼
") );
ĠÐ ŀ
Ġëĵ ¬
Ħ ê¹ĥ
êµ¬ ìĹŃ
Ġê°Ĳ ìĹ¼
c up
Ġì£¼ ëª©
ĠìĻĦìłĦ íŀĪ
íģ¬ ë¡ľ
Ġcons umer
Ġìı ĺ
l ie
ë§Į ëĵ¤
ë³´ ìŀĲ
íķĺê¸° ìĹĲ
Ġëª¸ ìĿĦ
Ġcy cle
ë¸Ķ ë£¨
ìĸ´ ëĶĶ
ëĤĺ ë¬¼
ê» ĳ
LE D
Ġbuild ings
Ġv ir
ĠìĬ¤íĬ¸ ëłĪ
ĠP erson
sm art
ìŀ¥ ëĭĺìĿ´
ë¯¸ ìĪł
word s
ê°ĲìĤ¬ íķ©ëĭĪëĭ¤
Hel per
ap pe
Ġal ert
ÑĤ ÑĮ
ĠìĨĮ ê¸Ī
el d
os oph
íĶĮ ëĿ¼
Ġê³µê°Ħ ìĿ´
Ð½ Ð¾Ð³Ð¾
Ġê³ł ì¶Ķ
Ġtot ally
Ġê· ł
ë° ĳ
ĠSoft ware
Ġíķĺ ìĭ¤
Ġtechn ologies
ĠWed nesday
Ġê±´ê°ķ íķľ
ĠÐ¿ ÐµÑĢ
cl oud
Dev ice
Ġap ps
Ġby tes
ĠL os
ĠEx ception
Ġsk y
ëĿ¼ ìļ°
le ments
Ġm ixed
co in
Ġne ck
Ġìĺ¬ëĿ¼ ê°Ģ
Ġìĭľê°Ħ ìĹĲ
Ġë¨¹ ìĹĪëĭ¤
Ġimpro ved
Ë· âĢĻ
ìķŀ ìľ¼ë¡ľ
ĠíĻĶ ëł¤
Ġë°Ķê¿ Ķ
ì°¨ ëĬĶ
ĠìŀĲìĦ¸ íŀĪ
Ph i
ĠëģĿ ëĤĺ
ãħĭãħĭãħĭãħĭ ãħĭãħĭ
ĠìĻ ĢìĿ´
Ġë¯¿ ê³ł
Ġê´Ģëł¨ ëĲľ
Ġëĸ ¨
Ġexpert ise
Ġl ap
ian o
Ġprom ote
Ġê·Ģ ì°®
ĠVal ley
ë¯¸ ë¥¼
Ġk id
Ġgl ad
ĠN ov
Ġbo at
Ġconsider ing
ĠEx ec
Ġcircum st
r ich
t ons
ĠN or
íķ´ë³´ ìĦ¸ìļĶ
sh ot
D om
> ();
íģ´ ëŀĺ
M ENT
com ment
Ġtrad ing
styles heet
Ġf ly
Ġìĭľ ëıĦ
ĠC reat
ìĹĪ ìĿĦ
Ġì¶ľ ê·¼
ìĹ¬ ìŀĲ
Ðµ Ð·
ãģ Ļ
Ġíļ¨ ìľ¨
ìķ¼ ì§Ģ
ìĺ ´
ĠìŀĪ ëįĶëĿ¼êµ¬ìļĶ
Ġaccept ed
ëĵ¯ íķľ
ing ly
ĠJ ul
Ġdiscuss ed
ìķĦ ëħ¸
Ġd ire
, .
ic ons
ë¶Ħ ëĵ¤ìĿĢ
i est
Ġ è
ì§ĳ ìĿ´
Ġperfect ly
KE Y
Ġeff iciency
Ġvers ions
ë¬¼ ë¡ľ
Ġë¹Ħ íĸī
Ġê³ł íĨµ
fo o
Ġdel icious
ynch ron
ê¸° ë¦Ħ
Ġrel atively
ĠíĴĢ ìĸ´
ĠíĺĦ ì§Ģ
ĠM ethod
Ġì²ĺìĿĮ ìľ¼ë¡ľ
Ġn odes
og a
Ġsym pt
ĠìĤ¬ ìŀ¥ëĭĺ
Ġparticip ants
Ġad opt
Ġn amespace
are n
ĠëĪĦ êµ°
ĠC opyright
Ġt ip
ëĭ¨ ìĹĲ
ĠG lobal
Ġëĵ¯ íķľ
ë³¼ ê¹Į
ĠìĹ´ ìĸ´
V er
iven ess
ĠT ake
M an
ĠìĤ¬ì§Ħ ìĿ´
Ġres erved
Ġìľł ìĿ¼
ëĭ¬ ëĿ¼ê³ł
urb an
Ġ ],
Ġmar ried
Ġbel ie
íĸĪ ìľ¼ë©°
Ġëĸ ¼
ìłķ ì±ħ
ac c
ĠëķĮ ê°Ģ
Ġre tain
Ġacadem ic
ĠìĿ¸ ëıĦ
Ġl ie
Ġleg is
Ġship ping
ĠíķŃ ê³µ
ĠMod el
ĠìĦ± ëĬ¥
ĠìŀĲ ëħĢ
Ġbehav i
Ġë³´ ìĦ¸ìļĶ
n ic
ê³ °
i pl
ìĿ´ ì¦Ī
Ġ+ +
g i
Ġind eed
Ġê³¼ ìĿ¼
Ġaccur ate
Ġus ual
ï¿½ ï¿½
ig ital
ìĺ¤ ë¹ł
Ġcl imate
å º
íĻķ ìĿ¸
Ġsc an
-------- ----
Ġlay out
ĠìłĲ ê²Ģ
Ġre put
ìķĦ ëıĦ
ĠE U
ê¾ ¼
Ġex port
Ġdel ivered
Ġeffect ively
Ġë³´ ìĭ¤
Ġpark ing
ãģ ¯
Ġê¸°ëĬ¥ ìĿĦ
Ġ Ø
ìĭľ ìĽĲ
ìŀ¥ ìķł
ĠSer ver
Ġê¼¼ê¼¼ íķĺê²Į
Ġb tn
ìĽł ëįĺ
ĠY O
A V
ìłķ ìľ¼ë¡ľ
Ġnet works
ë¯¸ ëĭĪ
l g
ìĹ ī
Ġs am
nab la
ear s
Ġent r
ÑĨ Ñĸ
íĶĮ ëŁ¬ìĬ¤
Ġê¸¸ ìĿ´
ad ian
ê³Ħ ê°Ģ
ur i
Ġend s
Ġtr ained
ìķĦ ìĽĥ
Ġê¹Ĭ ìĿĢ
F ont
A c
HT ML
Ġpos itions
D ep
) =
Ġsup pl
Ġbl ocks
ê¸Ī ìĿĢ
Ġë§Ī ì¼ĢíĮħ
ĠëĤ´ ëĤ´
p ool
ĠìĤ¬ëŀĳ ìĿĦ
ĠìĤ¬ì§Ħ ìĿĢ
D ir
Ġflow ers
c ript
Ġequival ent
Ġconvers ation
um es
ĠìĥĿê°ģ íķĺê³ł
Ġf ellow
foot er
Ġin line
ĠìĪ ²
C ar
ĠCommun ity
Ġìķł íĶĮ
Ġíķľ ëĭ¬
ëĭĺ ëĵ¤ìĿ´
ì¢ħ ë¥ĺ
ĠT oday
ë¡ľ ë¥¼
ìĸ´ ëĬĶ
ere nt
ê³ł ê°Ģ
ĠR est
ĠíĨ ¡
ĠìĪĺ ìĥģ
sub set
Ġsav ed
Ġtw ice
Ġìŀħ ë§Ľ
Ġf older
ag en
ì§ģ ìĽĲ
Ġd b
Val ues
Ġst yles
Ġì¦Ĳ ê²¨
Ġansw ers
ĠM ult
ĠìłĦ íĸĪëĭ¤
Ġdocument ation
} ^{\
Ġconsist ent
at ural
Ë·} (
ì¡Į ìĬµëĭĪëĭ¤
ĠTw itter
íĶ¼ìĬ¤ íħĶ
ĠAt l
Ġë³¶ ìĿĮ
ìĭľ ìŀĳ
ëĮĢ ìĥģ
rad ius
Ġì Ńī
Ñ Ķ
y r
Ġìĭł ìļ©
Ġìĭ¶ ìĸ´ìļĶ
D L
ĠW estern
Ġê°Ĳ ìŀĲ
p erson
ìĿ¸ ëĵ¤ìĿ´
ĠMed ia
w ater
Ġíķĺ ëįĶëĿ¼êµ¬ìļĶ
ĠF ield
Ġinst it
Ġ river
ĠÐ ¢
ì¦ ī
ìľĦ íķ´
ON E
ìĭ¤ ìĹĲìĦľ
ĠëĨĢ ëŁ¬
ĠìĿ´ ëĤ´
os a
ìľ¼ ìĭľ
IN FO
ĠCont rol
ì§Ħ ìĿĦ
Ġkind s
Ġk illed
ĠAd min
Arg s
ëŀĺ ìļĶ
ĠëķĮë¬¸ ìŀħëĭĪëĭ¤
Ġpl ate
u zz
Ġde pos
FA ULT
ë¦¬ ëĿ¼
Ġinsp ired
ĠH a
ê°Ģ ìĬ¤
ĠìķĪ ëħķ
_ ,
MA X
mod ules
Ġìĸ´ìļ¸ ë¦¬ëĬĶ
on ym
ëħĦ ëĮĢ
Ġê°ĸ ì¶Ķ
im s
t v
Ġund efined
Ġê·¸ ê²Į
Ġencour age
at re
Ġìĥģ ì²ĺ
Param eters
Ġë¶Ģ ìłķ
h al
Ġsup posed
Ġëĭ¤ ë§Į
ĠCh icago
ìĻĶ ìĸ´ìļĶ
Ġì§Ģê¸Ī ê¹Įì§Ģ
m box
Ġent ity
ìĹ° íķ©
ê²Ģ ìĤ¬
Ġd ance
Ġform ed
Ġìłľ ê¸°
iz z
h l
Ġë³´ ëıĦ
Ġca ught
m g
Ġprom pt
Ġsche me
Ġ$ {
ĠNA VER
ou n
ìĽĶ ë¶ĢíĦ°
Ġgu y
Ġemploy ee
child ren
ist ent
ĠT own
ĠB ur
F ound
ìķĪ ìĿ´
In s
b les
ìĥģ ê°Ģ
ist ant
ĠIm age
ĠJ ose
Ġwin ning
Ġr id
ë°Ľ ìĿĦ
Ġr ail
c irc
Ġs amples
ob s
ĠìĦ¸ íĥģ
Ð°Ð» Ð¸
s ave
Ġê²° ìłľ
Ġreal ize
f d
ìĪĺ êµ¬
ĠëĦĪë¬´ ëĦĪë¬´
ĠĠĠĠ ĠĠĊ
Ġst y
Ġì±Ħ ìĽĮ
Ġme al
ê¶ģ ê¸Ī
ìłľ ê±°
ĠìłľíĴĪ ìĿ´
equ al
u er
dis abled
com ponent
N N
Ġnot ed
ĠO p
} ).
ĠìĺĪ ìłĦ
ĠB ase
ner gy
ëĤ¨ íİ¸
Ġm ilk
çĶ ¨
tog gle
ĠëĮĢ ì¤ĳ
I X
Ġcompar ison
Ġì§Ģ ìĭĿ
Ġb read
Ġê°Ģê¹Į ìĿ´
Ġì¼ĢìĿ´ íģ¬
Ġp ul
Ġde als
Ġper man
ëįĶ ë³´ê¸°
Ġpers pective
Ġê³µ ê¸°
Ġo d
P ER
. *
Ġtr ouble
Ġ à¤
Ġì¤ įëĭĪëĭ¤
ìĤ° ë¬¼
V ar
Ġtre ated
Ġë³´ ìŀ¥
Ġë º
ê°Ĳ ëıĦ
Ġê°Ģ ë²¼
Ġext ensive
Ġbreak fast
Ġgreat est
Ġì¡° ìłķ
Hand le
ĠìĦ¤ ë¦½
Ġdeg rees
ĠOr gan
ì£¼ ë°©
ĠSe cond
m ond
ìĦ¤ ì¹ĺ
Ġìĸ¸ ë¡ł
Ġê³³ ìľ¼ë¡ľ
Ġì¶© ê²©
Ġì į¼
ì²ĺ ë¦¬
Ġv oc
Ġco vers
Ġc ro
por ation
ĠD ownload
Ġsign s
Ġinterest s
ĠL im
Ġaf ternoon
sv g
ĠPro v
ĠìĹ° ê¸°
Ġpub lish
ĠThom as
t i
Ġher self
ĠR o
ëħĦ ìĿĦ
ĠW here
On ly
ìĿ¼ ëŁ¬
ampions hip
an z
ĠëĤ¨ ìĦ±
ĠF ood
ëĵľ ìĿĺ
p anel
Ġì°¨ ëĭ¨
Ġread ers
Ë· |
Ġturn s
Ġtrans l
ìļ© íĴĪ
N C
est ed
íĻĶ ë¡ľ
Ġprovid ers
ĠSc ott
Ġar ms
Ġë¶Ī ê°ĢëĬ¥
M ay
ìĪĺ ìĹĲ
Ġfe els
Ex pression
Ġìĺ Ģ
ĠH ave
Ġs ex
ëł¥ ìĿĢ
íķ´ ë¥¼
ê±´ ëį°
ìĽ¨ ëĶ©
ip p
Ġëª¨ ì§ĳ
Ġval uable
G O
ëĤĺ ìĿ´
Ġman ual
Ġë¶Ļ ìĸ´
Ġj oy
Ġê°ķì¡° íĸĪëĭ¤
I ter
ëļ Ŀ
ĠëŁ °
PE CT
Ġê°Ģ ì¹ĺ
ĠìĪĺ ìłķ
Oper ation
N on
ĠìĭľìĽĲ íķľ
N OT
ìĽ ¨ìĸ´
Ġf ell
Ġconven ient
íı¬ ìŀ¥
Ġë§İ ìķĺ
Ġvisit ing
Ġëĭ¤ ìĨĮ
Ġë¶Ī ê°Ģ
Ġëı ĭ
Ġref er
ëĬĶ ê²Į
text it
Ġa us
Ġf ro
ê¸° ì§Ģ
Ã³ n
Ġìľł íĬľë¸Į
Ġìī¬ ìļ´
ìī Ĳ
col l
ĠAN Y
ëıĻ ìĥĿ
Ġì¹ľêµ¬ ê°Ģ
Ġcomp at
ìĪ ²
Ġem phas
Ġìľł ì¹ĺ
Ðµ Ñģ
ëį ´
ìłĦ ê¸°
Ġë§ĪìĿĮ ìľ¼ë¡ľ
Ġìĭł ëŀĳ
ëĭµ ê²Į
ib ilities
ìłľ ëıĦ
ĠìĨĮ ëĵĿ
ĠA T
ĠëĤĺ ìĹĲê²Į
æ Ŀ
Ġgr id
Ġp ump
o ice
ĠíŀĲ ë§ģ
Ġcreat es
ĠRev iew
ĠëĬ Ķ
Ġd ella
Ġapplic able
ĠëĶĶ ì§ĢíĦ¸
ĠìŀĲ ìłĦê±°
Ġë§Ľ ëıĦ
Ġneighbor hood
Ġìļ´ëıĻ ìĿĦ
Ġlaw y
ê³ł ëĬĶ
ì³¤ ëĭ¤
âĢĻ ,
ĠìĽ ¹
Ġêµ¬ ë¶Ħ
íĥĢ ìļ´
in em
P arent
Ġhous es
av ed
ìĹŃ ìĿĦ
Ġatt or
Ġìĭ¬ ê°ģ
ast e
t otal
ĠLou is
it ar
Ġê°Ģê²© ìĿĢ
an na
Ġëħ¸ ì¶ľ
ĠWh o
Ġw arrant
Ġcont roller
print f
Ġê±° ì£¼
cite p
Ġhe aring
Ġrat io
Ġê³µ ê°Ĳ
êµŃ ìĿ´
Ġport ion
Ġtyp ical
Ġown ed
ë° ĸ
ìłľ íķľ
íĺ¸ ê°Ģ
Ġr ough
Ġê³ł ìĨĮ
Ġcomprehens ive
ĠM il
Ġv it
Ġat mosp
t ip
ĠìķĦë¬´ ë¦¬
ìĵ ¸
Ġëľ ¯
ĠL ine
: {
ĠìŀĪìĹĪ ê³ł
un a
ĠìĿ´ë¯¸ ì§Ģ
ìĨĮ ê°ľ
ĠìķĦì§ģ ëıĦ
ĠTechn ology
IG HT
i em
ĠA ccess
all oc
ìľ¼ë¡ľ ìĦľ
p u
ãĢ ĭ
ë¹ ¼
ëĤ ®
Ġex pos
ĠCent re
ÑĢ Ð¾Ð²
Ġelect ronic
Ġc ere
Ġíı¬ íĨł
Ġser ial
ëĮĢ ìĹĲìĦľ
erv es
P ress
W here
íĺ¸ ìĤ¬
Ar t
ĠF OR
ìłľ ìĿ¼
Ġme at
ê± ±
end or
M r
ir med
Ġì§Ī ë¬¸
Ġapp arent
Ġê·¸ ë¦ĩ
co very
ĠW al
g b
ìĻĢ ëĬĶ
ect ed
Ġadult s
Ġfund ament
ĠìĿ´ìłľ ëĬĶ
ĠíĿĶ ëĵ¤
w r
ĠìĥĿê°ģ íķ©ëĭĪëĭ¤
Ġent ered
Ġsp ons
Ġinnov ative
pl us
íĳ ¼
ìĭľ ê¹Įì§Ģ
ëĲľ ëĭ¤ê³ł
Ġne ut
Ġì¹´ ì¹´ìĺ¤
Ġprot ocol
Ġë³´ìĹ¬ ì£¼
Ġpl ot
t mp
Ġy ellow
ist an
er ry
Ġë§Ĳ íķĺëĬĶ
Ġcare fully
Ġp in
Ġë¬´ ìĦľ
)) )
Ġíı¬ìĬ¤íĮħ ìĿĦ
ìĸ¼ êµ´
ìī½ ê²Į
ìľ¼ë¡ľ ë¶ĢíĦ°
Ġche ese
ĠA D
Ġstruct ures
ì²ľ íŀĪ
Ġwhe el
ĠW il
íĺķ ìĿ´
Ġdis h
Ġ' /
ìĿ´ ìĽĥ
Ġê´Ģ ëŀĮ
ãħ ħ
ĠAfr ican
Ġì¢ĭ ëįĶëĿ¼êµ¬ìļĶ
ê°Ģ ìĬ´
!! !!!
ĠT ry
ĠìķĦìĿ´ ìĬ¤íģ¬ë¦¼
êµ ¿
ĠìĿĺ ìĤ¬
ĠA ward
Ġëĭ¤ìĸĳ íķĺê²Į
Ġpl ays
ë¥ Ń
ĠìĹ¬íĸī ìĿĦ
ì§Ģ ë©´ìĦľ
ĠI de
ÑĪ Ð¸
ĠD om
Ġë°Ķ ëĶĶ
B I
Pro duct
Ġë¶Ģëĵľ ëŁ¬ìļ´
d em
ĠìłķíĻķ íķľ
ë¬¼ ê´Ģ
Ġre nder
ĠðŁ ĺ
Ġrepl aced
Ġëĵľ ë¦¬ê³ł
ê³Ħ ìĨį
z t
N ames
ĠìĤ Ń
Ġaffect ed
le ep
íĸ ĩ
ĠE v
J SON
Ġfrequ ency
epend ency
Ġë¯¸ ìĪł
ì¤ĳ ìĿ¸
ĠíĿ¡ ìĪĺ
Ġcrow d
Ġëħ¸ íĬ¸
Ġtick ets
ĠìĤ¬ ê³¼
Ġë¹Ħ ìĭ¼
íĽĦ ìĹĲ
Ġreg ions
Ġmat ches
Ġappreci ate
Ã ²
Ġìĸ´ ë¥¸
ÑĤ Ñĥ
Ġst ated
Ġrepl acement
E rr
Ġincre ases
ì¢ĭ ìķĦìļĶ
ë§Ľ ìŀĪëĬĶ
S k
id x
Ð² Ð¸
ìĥĿê°ģ ë³´ëĭ¤
Ġsub mit
ĠT R
Ġsurround ing
ëĤĺ ëĭ¤
ĠìĿ¼ ìĿĢ
ĠìłĢ ëłĩê²Į
ĠInst ead
ĠíĮ¨ ìħĺ
ìĭľ ìĺ¤
ĠS and
ĠìĿ½ ê³ł
Ġz one
Ġex cess
Ġbr anch
Ġë§Ľ ìĿĢ
ë§Ī ì¼ĵ
Ġëª¸ ìĹĲ
Ġcook ing
H S
ë¶ ķ
ĠJapan ese
Ġd os
######## ########
Ã¨ s
Ġemerg ency
ëĨ Ī
ì¡° ì°¨
ìŀ¬ ë¥¼
H as
A v
ì§ķ ìĸ´
Ġas sets
Ġentire ly
âĨ Ĵ
Ġì»¤ íĶĮ
Ġë°° ì¹ĺ
ìķĦ ë¦¬
ë³¸ ëĭ¤
Ġíķ´ ì£¼ëĬĶ
Ġìŀĺ ëĿ¼
Ġêµ¬ ì²´
Ë·- \
Ġê² ī
Ġknow ing
ul ous
app ly
ĠF urther
Ġf reedom
Ġclos er
el a
ĠC a
Ġm ere
Ġbr ands
Ġrecord ed
Ġê°ľ ë´ī
ĠìĿ´ìľł ë¡ľ
put e
Ġo m
ĠíĺĲ ìĿĺ
Ġë³´ ëŁ¬
ëıĮ ìķĦ
Ġp p
ë¬´ ë£Į
ìĤ¬ ìĿ´íĬ¸
ê²½ ìļ°
Ë·} {\
ĠíĨµ ê³¼
Ġë°©ë²ķ ìĿĢ
ĠR oman
ëłĪìĿ´ íģ¬
Ġappro ved
ĠV ersion
= (
å ¯
Ġhous ing
íĤ¤ ì§Ģ
f c
an ish
t ics
ê¹Į ìĬ¤
Ob j
Ġë°© ì§Ģ
íķł ê¹Į
Ġa id
ìĹ¬ ìĦ±
Ġs aving
Def inition
Ġt ou
fol io
Ä ĩ
is c
Ġsubst ant
íĮĲ ìĹĲ
Ġhard ware
ĠìĦ± ë¶Ħ
Ġla ugh
ord ers
Ġì£¼ ìĭł
n ames
he m
ot i
Ġk ick
ĠA P
Ġì§§ ìĿĢ
im ately
Ġê³ ¤
Ġìī½ ì§Ģ
Ġf old
Ġbring ing
et her
R ev
Ġp ed
un ning
ê°Ģ ìĿĦ
point s
Ġf unc
w ar
ĠN Y
Ġsub sequ
il a
ëĤľ ëĭ¤
ë²Ħ ë¦°
ëĶĶ ìħĺ
Ġgu est
ìĿĮ ìķħ
Ġëļ «
ĠâĻ ¥
Ġê±° ìĺĪìļĶ
ĠëĤĺ ë©´
is ms
Ġë°©ë²ķ ìĿ´
ê¸¸ ìĿ´
tr ack
t re
Ġdi vers
um mer
Ġê°Ħëĭ¨ íķĺê²Į
Ġstud io
field s
ĠìĬ¤ íĶ¼
p an
ìĸ´ëĸ »ê²Į
Ġsol ar
b g
ë¶Ħ ìľĦ
Ġíĸ¥ ìĿ´
ere n
ĠCong ress
ĠG ame
Ġrece iving
ĠO S
Ġpartners hip
ê·¸ ë¦¬
Ġíĳ¸ ì§Ĳ
ë©Ķë¦¬ì¹´ ëħ¸
å ¼
th read
ë´ ĩ
Ġto m
Ġdog s
Ġìŀ¥ ìłĲ
Ġì§Ħíĸī íķĺê³ł
d ated
ĠìĹĦë§Ī ê°Ģ
Ġì¢ħ ëª©
ë¦¼ íĶ½
G M
ĠìĿ½ ìĸ´
Ġex plicit
Ġsh ower
FI LE
Ġë¶Ļ ìĹ¬
ë§Į ì¡±
ĠìķĦ ìĭľ
ĠìĻĶ ìĸ´ìļĶ
æ ī
Ġìŀĳ ìļ©
ëĭ¨ ìĿĺ
Ë·" :
Ġadmin istration
íķ´ ìł¸
Ġëĵ¤ìĸ´ê°Ģ ìĦľ
ë§Ĳ ë¡ľ
Ġë°Ķíĥķ ìľ¼ë¡ľ
Ġhundred s
Ġë¹ ħ
Ġla unched
sh ort
Ġtechn ique
ĠV AL
equ als
ĠíķĺëĤĺ íķĺëĤĺ
Ġëĸł ìĺ¤
Ġì§ĳ ìĿĦ
ole c
ì¤ĺ ìĦľ
Ġform al
St orage
ê²° íĺ¼
up le
Ġs an
-- >
"," ","
íķ ı
Ġex it
Ġseg ment
k appa
Ġte eth
Ġì±Ħ ëĦĲ
re p
ĠìĹĦì²Ń ëĤľ
ìłĢ ê²ĥ
Ġsa uce
Ġadvert ising
Ë· Â°
Ġmass ive
cl ip
Ġpresent ation
Ġwur de
Ġfil ms
Ġsupport ing
M ake
Ġìĭ¤ íĸī
Ġus age
ĠSpr ing
. __
íķľ ê²Į
Y PE
Ġë§ŀ ìĿ´
ĠC ast
Ġê½ ī
ĠìĬ¤íĬ¸ ëłĪìĬ¤
ëł¸ ìĬµëĭĪëĭ¤
Ġì¡ ±
ĠìĨĮ ìĨį
Ġ{ "
Ġap i
An other
Ġbeg ins
ĠK ar
Ġë¬´ ê²Į
Ġhistor ical
Ġstr ugg
Ġrec overy
og en
Ġëį§ ë¶Ļ
It ems
ìĸĳ ëħĲ
ë´¤ ëĭ¤
Ġeduc ational
ĠìķĦë¬´ ëŀĺëıĦ
Ġíķľ ì°¸
ĠFig ure
Ã¤ r
Ġëĥ īìŀ¥ê³ł
Ġì£¼ ìĨĮ
) /
ĠMay be
ìħ¨ ìĬµëĭĪëĭ¤
íĺ¸ ìĦł
Ġê³ł ìļ©
Ġfe at
el come
ìĽĶ ëĵľ
enc ing
Ġbig ger
Ġconcern ed
ë¦¬ ìĬ¤íĬ¸
ëĿ¼ ëĸ¼
Ex p
b orn
Ġë¿Į ëł¤
u an
Ġp il
Ġbow l
íĳľ ë¥¼
ìĹĪëĭ¤ ê³ł
ĠHot el
oc ity
C F
Ġcap ture
ĠP age
re nt
ìĦľ ê´Ģ
ĠAr g
ow s
(" Ë·
Ġinv al
ê²° ê³¼
Ġent ertain
Ġcr im
Ġl ift
ìľ¼ ìĭ¤
ëĮĢ ë¬¸
ĠíĶ¼ ìŀĲ
Ġun iversity
Ġsuggest ed
ĠS ign
Ġcharg es
Ġreg istration
ê¿ Ģ
g ers
Ġw est
Ġall oc
ĠìĬĪ íį¼
ĠìĭĿ íĴĪ
íĶ Ķ
w id
ĠìĬ¤ íı¬ì¸ł
Ġê³µ íķŃ
Ġë¬´ íķľ
Ð ł
ce ived
ĠVir gin
Ġìĸ´ëĶĶ ìĦľ
Ġtherap y
l ive
Ġconsum ers
ì§Ħ ìĿ´
Ġac comp
Ġs ister
ĠìķĪ ëĤĺ
Ġìº ¡
ìĹ ĳ
Ġreason able
ĠP R
is che
Ġëĵ¤ìĸ´ ê°Ķ
h us
ot imes
Ġen em
set tings
ĠëĿ¼ ìĿ¸
br idge
Ġpay ing
Ġgr ade
ĠìĹĲìĸ´ ì»¨
Acc ount
ĠL ast
Ġex tr
Ðº Ñĥ
ĠInd ust
Ġë© ¤ë²Ħ
Ġcl uster
ĠíĻľ ëıĻìĿĦ
ĠìĤ¬ëŀĳ íķĺëĬĶ
i pt
Ġìĥģ ìĥģ
Ġrestaur ants
Ġìĺ¤ ë©´
âĪ¼ Ë·
Ġprote in
ìŀĸ ìķĦ
ĠD O
Ġì²ĺ ëŁ¼
ĠCon st
ë¦ İ
ester day
Ġì§Ħ ì¶ľ
Ed it
Ġê·¼ ë¡ľ
Ġfour th
ìķĦë¬´ ëŀĺëıĦ
ì¡Į ìĸ´ìļĶ
Ġtop ics
ìľ¼ ëł¤ê³ł
Ġexpl ained
ìļ´ ìłĦ
Ġcompet itive
ĠJ o
Ġcomp r
ic ol
Ġì¹ĺ ìķĦ
ig an
ìµľ ê³ł
Ġìĥģ ê°Ģ
pl ugin
ĠìłĢ ìĿĺ
Ġìł ĸ
um ps
Sche ma
Ġcut ting
Ġengine ering
ëĦ Į
ĠK it
... )
ë³´ ìĿ´ëĬĶ
art icle
Ġprom ise
Ġìŀĳ ëħĦ
Ġdi agram
Ġcr uc
Ġthe rm
ë§¤ ìŀ¥
Ġatt ached
}} $
Ġ ï»¿
ĠëĲĺ ê¸°
ĠìĹĲ ëĦĪì§Ģ
Ġauth ors
Ġwe ap
ìĺ¤ ëŀĺ
Ġë¯¸ ìļ©
ĠíĮĮ ëĬĶ
Ġdri vers
Ġd ies
Ġmat ters
Ġê°ķ ìķĦì§Ģ
mon th
Ġcorrect ly
Ġë¬´ìĹĩ ë³´ëĭ¤
ê°ľìĿ¸ ìłģìľ¼ë¡ľ
Ġê²ĥ ë§Į
íķĺê³ł ìŀĲ
Ġëĭµ ë³Ģ
êµ¬ ëĬĶ
Ġre con
resh old
L I
ãģ Į
ëĩ Į
Ġprem ium
Ġhor se
re port
ìĭľ ë¡ľ
ĠC OM
Ġabs or
Ġë¨¹ ìĹĪìĸ´ìļĶ
ìĮ į
her it
Ġch icken
lo or
pro ps
ĠìĨĮ ìĦ¤
anc er
? âĢĿ
ensure math
Ġest imate
ë°© ìĿĦ
ë¦¬ ê·¸
Ġì§ĢëĤľ ëĭ¬
ĠP ub
ìļ´ ëĵľ
A Y
ow nt
ĠHe ad
ëŀ« íı¼
Ġfact ory
ĠíĻķìĿ¸ íķł
Ġdoll ars
Ġ\ "
sh ape
Ġh ook
ĠëĦĺ ëĤĺ
Ġì½ĺ íħĲì¸ł
_ +
d iff
Ġw et
ch annel
Ġshe ll
ĠìķĦìĿ´ íı°
Ġì ¾Į
Ġë² ¨
Ġpass ing
Ġëª¸ ìĿ´
ãĥ ³
ĠìĨĮ íĨµ
ĠD C
X T
is er
.... ...
ìĦ¸ ë¨¼
Ġëħ¼ ìĿĺ
Ġìĭľìŀĳ íĸĪëĭ¤
inst agram
ĠÃ ¨
ëªħ ìľ¼ë¡ľ
ëĥ ĦìĥĪ
Ġmin im
Ġimag ine
G S
` .
Ë·\ %
Ð½ Ð¾Ð¹
ĠíĻķ ìłķ
Ġspe aking
ðŁĳ į
reg ister
ì°¨ ë¡ľ
Ġìłľì£¼ ëıĦ
Ġseek ing
Ġê³Ħ ìłĪ
Ġregular ly
ĠS P
Ġëª¨ ìķĦ
y es
ëıĻ ë¬¼
f ire
Ġmach ines
ĠìĿµ ìĪĻ
Ġëĭ¤ìĿĮ ìĹĲ
Tr ack
Ġëĵ¬ ë¿į
clud ed
ĠÐ ¶
ìĭľ íĤ¬
he red
Ġfem ale
Ġë¬¼ ìĹĲ
ë©´ ìłģ
Ġdec ades
Ġscient ific
ed it
add r
ìĿ´ íĶĦ
D elete
ĠìĮ į
Ġgu ard
ìĬ Ĳ
ëĬ ¦
u ke
Ġsil ver
ĠìĿ¸ ê¸°ê°Ģ
Ġì°¨ ê°Ģ
ĠíĽĪ ëł¨
Ġp as
ë¨¼ íĬ¸
ov ed
ĠB i
ĠìĿ¸ ìĭĿ
F ind
Ġs ight
ĠìĿĺ íķľ
S igma
Ġann ounce
Ġpurch ased
ĠDem ocr
Ġord ered
ë¥ĺ ë¥¼
ìĭĿ ìĤ¬
IM E
ê² ¸
re nder
Gr id
H z
k ins
Ġmonth ly
Ġì°¨ ë¥¼
ë´Ĳ ëıĦ
eff ect
ìĦ± ëıĦ
Ġfood s
ëĵľ ë¦¬ëĬĶ
EX T
ĠëĬĲê»´ ì§ĢëĬĶ
ëıĦ ìļ°
ãģ ¾
ĠÐ¿ ÑĢÐµ
Ass ert
ĠM S
Ġíķľ íİ¸
ì§Ī íĻĺ
Ġrow s
Ġfrequ ently
ent e
ĠRich ard
ĠU I
Ġìĺ¤ë¥¸ ìª½
ìĿĮ ë£Į
th let
ĠC R
=" "
Ġclin ical
êµ¬ ë¡ľ
ĠìĻ¸ ìĹĲëıĦ
d eg
ĠíĶ¼ë¶Ģ ìĹĲ
ĠìŀĲìĦ¸ íķľ
Ġë ¼Ī
ë§Ī ëĬĺ
ĠL em
_ -
ail ability
ìľ¨ ìĿĦ
íķ´ ì§Ģê³ł
S ION
ĠëĤ´ ìĿ¼
Ġsu c
Ġag ents
Ġlet ters
ìŀĲ ì¹ĺ
ĠìĥĿ ìĿ¼
Ġk ill
Ðµ ÑĢÐ°
íİ Ļ
Ë· =Ë·
ĠF ROM
Ġi Phone
By tes
Ġëĵ¤ ìĹ¬
l ers
ac ht
Ġhab it
Ġm el
Ġìļ¸ ìĤ°
Sh ow
Ġwor se
Ġdiffere nces
ļ ê½ĥ
ĠM anager
ĠìĪĺ ìłľ
ìĦľ ê°Ģ
ìĥī ìĿĦ
Ġê°Ħëĭ¨ íķľ
Ġì²ł ìłĢ
Ġsup plies
ir l
Ġarchitect ure
++ ;
Ġsm ile
< <
Ġvert ical
ĠL td
er ia
Ġinv ent
ell s
Ġëª¨ ë°ĶìĿ¼
ĠìĶ ¹
Ġex ceed
ëł¤ ìķ¼
Ġê¸Ī ì§Ģ
In valid
ĠëĦ£ ìĸ´ìĦľ
] ]
Ġco ach
ĠëħĢ ìĦĿ
Ġper mission
Ġì²Ń ëħĦ
un signed
Se cond
Ġìĺ¤ëĬĺ ëıĦ
ĠR oyal
re r
& \
if i
ìŀĲ ë£Į
Ġp ep
ĠĠĠĠĠĠĠĠĠĠĠĠĠĠĠĠ ĠĠĠĠĠĠĠĠ
yout ube
ĠJ ud
ë©´ ìĹĲìĦľ
Ġëª ½
ĠíķĦìļĶ íķĺëĭ¤
E Q
ĠÐ± Ñĭ
ĠL ead
Ġch ocolate
Ġcal c
Ġë§İìĿĢ ëį°
ĠB rown
z ing
v s
íĥĢ ìĿ´
Ġl it
M ath
Ġë§ĽìŀĪ ìĹĪìĸ´ìļĶ
Ġcandid ates
y y
ĠìĿĺ ìĽĲìĿĢ
ĠëĤ´ìļ© ìĿĢ
Ġcolumn s
ëĮĢ ë¹Ħ
Ġun able
Ġê·¸ ê°Ģ
Ġcommit ment
h n
Ġd ialog
Ġlight ing
D ialog
IN S
A F
ìĬ¤íĥĢ ìĿ¼
f lex
ìºł íķĳ
ĠIt alian
ĠĠĠĠĠĠĠĠĠĠĠĠĠĠĠĠ ĠĠĠĠĠĠ
Ġê·¸ ë§Įíģ¼
ere nc
u its
ĠC ert
Al so
Ġê³µ ìĤ¬
Ġpain ting
ĠìĿ¼ ìļĶìĿ¼
Ġì§ĳ ìľ¼ë¡ľ
Ġat tr
B N
f ound
Ġs oul
Ġen abled
ëķĮ ë§Īëĭ¤
oper ation
Ġìı Ļ
D oc
ĠìłĦ ìĦ¸
ë°± ì§Ī
Ġìĥī ìĥģ
n ie
Ġê¸ įìłķ
ĠìķĪ ìĹĲìĦľ
ĠìĹĨ ìĿĮ
Ë·) }
ĠF und
Ġv i
Ð° Ð¼
ĠìĪĻ ìĨĮ
Ġtele vision
im pl
Ġinvol ve
âĢ¦ .
ĠìĨĮ íĻĶ
m ove
âĹ ĭ
ê°Ģ ìŀħ
Ġele ction
Ġn p
ëĳ ĳ
ë§Ĳ ìĿ´
Ġch at
A meric
ĠìķĪ ëĲĺëĬĶ
Ġsurg ery
ĠL ibrary
ĠH y
init ial
Ġs essions
ĠìĨĮ ìĭĿ
ê¸° ê¸°
H ave
ì§Ģ íķĺ
sc roll
SI ZE
ļ ìĭľ
boot strap
Ġun known
ì§ģ íķľ
ĠAs ia
pro file
ĠN ext
Ġcitiz ens
Ġkeep s
ĠĠĠĠĠĠĠĠĠĠĠĠĠĠĠĠĠĠĠĠĠĠĠĠĠĠĠĠĠĠĠĠ ĠĠĠĠĠĠĠĠĠĠĠ
Ġimprove ment
ì£¼ ë³Ģ
Ġnot iced
ë¡¯ ëį°
é ĩ
Ġìĭľ ê¸°
ip ping
ë ·Ķ
Ġsitu ations
ĠC up
"> &
ĠR oom
Ġgr ab
Ġëĭ¹ ì²¨
á »
Ġíķ¸ëĵľ íı°
ìģ ¨
ĠìłĦ ë°ĺ
ìĿ´ ë²¤íĬ¸
ìĭ¤ ìłľë¡ľ
select ed
Ġëª¨ë¥´ ê²ł
\ Ë·
ĠB as
) ),
Ġhouse hold
Ġì´Ī ê¸°
ĠìłĢ ìŀ¥
Ġa cknow
Ġbel ief
fe ction
Ðº Ð¾Ð²
Ġì¢ĭ ê²Į
ut able
Ġìĭľìŀĳ íķľ
Ġcompl iance
íŀĪ ê³ł
d ots
Ġim possible
Ġor ient
W riter
Con nect
ìĿ´ ìĺĪìļĶ
\ |
ĠRuss ian
Ġ Ñį
ĠëĮĢ ë¡ľ
Ġëĭ ¿
u ous
ëĭ¹ íķľ
;; ;;
M ost
p ie
ĠN umber
Ð Ŀ
ë§¥ ì£¼
Ġìķ¼ ìĻ¸
Ġëį° ìĿ´íĬ¸
ëħĦ ëıĦ
ĠìĿ´ ëķĮ
ĠìĪĺ ë¦¬
s in
Ġê°Ģë³į ê²Į
az e
ëĭ¹ ìĿ´
Ġcircumst ances
ple x
íķ¨ ê³¼
Ġso le
ëįĺ ì§Ģ
Ġìĸ´ì© Ķ
Ð ļ
R oot
Ġcon nections
Ġì£¼ ìĭľ
Ġload ed
ĠF amily
k w
íħ Ģ
ê³µ ë¶Ģ
ĠMin ister
. ~
ĠìķĮ ìķĺ
Ġatt ributes
Ġíĺĳ ëł¥
ĠìłĲ ìĿĢ
Ġun iform
r ule
b ro
Ġì¢ĭ ê²łëĭ¤
y an
Ġë°© ì¹¨
Ch anged
Ġsympt oms
Ġprob ability
Ġn ine
In it
as ant
ìłķ ë¦¬
Ġrecogn ized
íĬ¸ ìĹĲ
( :
Ġì½ľ ëĿ¼
Ġth in
Ġb inary
pre ne
Ġmom ents
iv a
id ad
Ġlink ed
as er
Ġì°¨ ë¡Ģ
Ġin du
Ġì¤ ĺ
non umber
art ifact
Ġpick ed
LO G
J E
Ġappoint ment
ĠAcc ount
Ġsk ill
Ġfor ced
pl ed
w as
Ġs ending
Ġac id
Ġsearch ing
ĠAut hor
Ġë°© ìĭĿìľ¼ë¡ľ
Ġì§ģ ìĹħ
Ġm sg
d c
Ġtr uck
Ġê·¸ ìłĢ
Ġrelig ious
Ġcandid ate
ĠF unction
ĠA C
ê°Ħ ìĹĲ
ress ion
Ġinfr astructure
BU G
ìĦľ êµ¬
íķ´ì£¼ ê³ł
pr ime
Ġgrow n
Ġmount ain
D IR
Ġë¬¸ ìĿĦ
Act ive
Ġrent al
ĠíĶĦ ëŀĳìĬ¤
Ġbl ess
ub y
Ġev olution
Ġëª¨ìĬµ ìŀħëĭĪëĭ¤
call back
Ġposs ibility
Ġplan e
ëłĮ ì§Ģ
x s
ĠPro cess
Ġad m
ĠAr ts
å ¾
plic ated
g it
Ġinter action
Ġtw enty
Ġc m
Ġb ike
b c
en o
ê¹Įì§Ģ ëıĦ
ob uf
Ġn arrow
b ad
Ġcons ists
g age
Ġëª¨ ìŀĦ
Ġsc roll
ë¥ ¨
ëĶ ĺ
Dat abase
Ġtest ed
ÐµÐ½Ð¸ Ñı
Ġì¤Ģë¹Ħ ëĲĺìĸ´
Ġcontem porary
P ay
ĠSer ies
ĠM P
Ġìľ¼ ë¡ľ
Ġíĳ ¹
ĠìľĦ íķĺìĹ¬
ìłķëıĦ ë¡ľ
} "
ĠPl us
Ġspe ech
Ġm m
Ġê±´ ëĦĪ
Ġmanufact uring
Ġ? >
ìĿ´ ë¦Ħ
Ġì» µ
ĠIn itial
ass ets
ëĪĪ ìĹĲ
Ġp m
ĠíĢ Ħë¦¬íĭ°
Ġwe alth
ĠV ictor
_ ;
ĠN AME
ian a
iver se
ìĿ´ ìľł
ĠT our
ĠíĤ¤ ìĽĮ
Ġ ip
A E
De bug
Ġìļ° ìĪĺ
Time out
Ġcheck ed
s ur
En abled
H D
ëľ ©
ë° ´
Ġst ood
Ġiss ued
ag raph
ĠE s
ĠGe org
ìĺĢ ê³ł
ç »
iss ue
ëłĮ ì¦Ī
Ġtell s
Ġsp an
Ġìĺ¤ ë¥´
Ġë§ º
ĠH istory
Ġì»¤ ë²Ħ
ìĺģìĹħ ìĭľê°Ħ
ëĿ¼íħĮ ìĬ¤
\ [
Ġë²Ī íĺ¸
ë°© ìĹĲ
ìĸ´ ì©
ĠëģĮ ìĸ´
ĠíĸĪ ê³ł
cont in
ĠÃ¤ r
un ting
ĠìĥģíĻ© ìĹĲìĦľ
Ġ" "
ĠëĴ¤ ë¡ľ
ĠP y
T X
Ġtem p
ìĭ ¹
Ġle ather
Ġdis pl
ĠìĤ¼ ê²¹ìĤ´
Ġrem ark
Ġ$ ('
w orld
Ġìķī ìķĦìĦľ
Ġach ieved
sk i
angu ages
Ġ> >
V C
rit ing
ĠW IT
ĠAustral ian
å ¹
ìĿ´ íĽĦ
ge bra
Ġw itness
ë§Ī ìĬ¤íģ¬
Ġaccess ible
p aper
íķĺ ëĭĪê¹Į
Ġg lo
ci ples
Ġsh oes
Ġê·¸ ë§Į
Ġre venue
ĠìĹ¬ ê¸°ìĹĲ
ìĤ¬ íķľ
Ġm aps
ĠCont act
Ġturn ing
ëĪĦ ë¦¬
or al
umm y
Ġëĭ¹ ìĿ¼
ìĹĪ ëĦ¤ìļĶ
mat rix
st one
Ġë³¸ ìĿ¸
Ġsuc ceed
W idget
Ð³ Ð¾
ĠëĤ´ìļ© ìĿ´
Ġpl anned
Ġwhen ever
Ġproced ures
Ġh ur
Ġta ught
ê²Į ëĭ¤ê°Ģ
cre en
ĠíĶ¼ ê³¤
ĠíĥĿ ë°°
ì¡° íķ©
Ġëļ Ŀ
Ġcont ents
ĠM O
Ġì¶Ķê°Ģ ë¡ľ
Ġìĭ ¹
Ġs ad
ë¹Ħ ìĹĲ
ìĬ¤ ë§ĪíĬ¸
ìķ ī
ĠëŁ¬ ìĭľìķĦ
ìĦ¸ ìļ©
Ġëģ Ī
U V
ë·° íĭ°
Ġíķ© ìĿĺ
ĠíĬ ¼
g ame
end o
ë°© ìĿ´
Ġclos ely
ĠìĤ¬íļĮ ìłģ
ìĬµ ëĭĪëĭ¹
Ġd ust
Ġconstant ly
Ġëĭ¹ ìĹ°
I con
ur ally
Ġch apter
Ġíĸ¥ íĽĦ
Ġauthor ity
Ġh all
Dis play
ĠW AR
ì£¼ ê¸°
bs ite
O ther
D el
ãģ ĭ
Ġë©´ ìĹŃ
Ġë³´ ìĺĢëĭ¤
Ġed it
Ë· ~
ëŁī ìĿĢ
ê±° ìĿĺ
ë¶ĢíĦ° ëĬĶ
Ġs z
ê¸° ìĤ¬
Ġele g
| -
G A
âĦ ¢
ential s
T ab
in f
ê¶Į ìĿ´
Ġal cohol
ĠìŀĲìĹ° ìĬ¤ëŁ½ê²Į
Ġd raft
ĠëĬ¥ ëł¥
pl an
Ġhe ro
íĬ¸ ìĿĺ
ĠI O
Ġê³ł ê³ł
Ġv ast
Ġparticip ate
Ġë¶ĦìľĦ ê¸°ë¥¼
Ġinteg er
ë©´ ìĿĢ
g ba
K ind
sec urity
Ġinteg rated
att ribute
form ance
Ġm ask
R ect
Ġì§Ħ ëĭ¨
ê° ¤
ag ger
Ġanc ient
Ġë§Ī ì¹ĺê³ł
F S
and on
erm an
Ġc ake
Ġorgan ic
Ġbirth day
Ġëĭ¤ ë¦¬
Ġsh ares
ĠíĶĦ ëłĪ
ĠÂ »
Ġan gle
Ġmin i
Ġfunction al
Ġofficial s
Ġj ew
Ġë¯¸ ìķĪ
ĠìĥģíĻ© ìĿĦ
Ġë¶Ī ê³¼
ĠAd v
b ul
' (
ĠìĹ´ ê³ł
ict ure
Ġê°Ģ ë¡ľ
Ġp hen
Ġìĥģ ìĦ¸
Ġdisplay ed
Ġcollect ed
ĠW ay
Ġe ine
am i
Ġt ur
Ġnear by
Ġë´Ĳ ìķ¼
Ġt ough
æĺ ¯
Ġë¶Ħ ëĵ¤ìĹĲê²Į
R ule
Ġdel ight
ĠìĥĿê°ģ íķľëĭ¤
ĠìĪĺ ê°ķ
mer ce
Ġìĸ´ëĸ ¨
O wn
Ġth orough
}, \
Ġinstr ument
ĠíĨµ ìĭł
ìĺ¤ ë©´
ìĹ¬ëŁ¬ ë¶Ħ
I l
Ġliqu id
ê³µ ìĿ¸
Ġíı¬ìĬ¤íĮħ ìĿĢ
Ġë³´ ë©°
à ¦
s id
ê» į
Ġë§Į ìķ½
eng er
ì¢ħ íķ©
ìĺĪ ìĪł
ĠíĻĶìŀ¥ íĴĪ
Ġreg ul
ar on
Ġfac ilit
Ġn urs
Ġê°Ĳ ëıĻ
Ġse vere
ë°Ķ ëĶĶ
r as
ĠìķĦ ìĭľìķĦ
Ġwalk ed
Ġb le
ĠO K
ĠD at
Ġform ula
A uth
est yle
ele ction
up lic
^{ (
cm d
r uit
ë²ķ ìĿ¸
Ġëª» íĸĪëĭ¤
ëĿ¼ ìĿ´íĬ¸
ĠJ im
Ġt iny
ĠMark et
ion es
Ġde ck
ëłĪ ìĿ¸
Ġre new
íı¬ êµ¬
ĠëĳĲ ëł¤
ĠC ond
Ġres olve
Ġslow ly
Ġë³´ ëĭ¤ëĬĶ
B Q
Ġíķľ ìłķ
ob by
ì¤ĳ ê°ľ
ĠìĤ¬ëŀĮ ëĵ¤ìĿĺ
Id ent
Ġëıħ ë¦½
o or
Ġë³µ ìŀ¡
ĠKe ep
ĠAn other
w p
ĠìĻĦ íĻĶ
Ġfl ash
Ġconduct ed
Ġcap able
TE ST
ì§Ħ íĸī
ìĥģ íĻ©
ly mp
ĠëģĿ ê¹Įì§Ģ
Ġmain ly
ë°° ëĭ¬
Ġcon crete
íĿ Ķ
Ġìĸĳ ëıĦ
ĠL ink
COL OR
Ġmus ical
dom ain
Ġse ed
ok es
Ġreal ized
Ġëĵ¤ ëł¤
Ġê±° ìĭ¤
ĠF ull
c pp
ë°° ìļ°
ĠW omen
Ġë© °
ìĦł íĥĿ
Ref erences
ĠìĤ¬ ìĦľ
Ġin n
ĠëĬ¦ ê²Į
Ġbe ar
ì§Ģê¸Ī ìĿĢ
Ġëĳĺ ìĿ´
Ġimplement ed
D own
bl ack
ê³Ħ ìĿĺ
ick et
Ġincred ible
Ġê°Ī ìķĦ
art s
Ġê³ł ìĸĳìĿ´
Ġhappen ing
Ġë¶ĦìľĦ ê¸°ê°Ģ
ĠëĤĺë¨¸ ì§Ģ
Ġar r
rib ution
ĠAcadem y
íĶ¼ ìŀĲ
ĠëĬĺ ìĸ´ëĤĺ
Ġp y
H ome
S ing
Ġë°¥ ìĿĦ
ĠB it
L Y
Ġg rew
ĠëĦĺ ëĬĶ
ser ve
HE CK
S Y
ĠìłĦ ëĤł
Ġì¹ĺ ë£Įë¥¼
Ġcontinu ous
ì¿ Ħ
ĠMart in
ìłľ ìĿĺ
Ġstand s
j ar
ĠÐ Ľ
ê·¸ ë¦ĩ
Ġc odes
equ iv
Ġocc urs
Ġestim ated
Ġë¬¸ìłľ ëĬĶ
Ġoption al
ìĬµ ëĭĪê¹Į
ĠìĭĿ ë¬¼
íķľ ê±°
ìĭľíĤ¤ ê³ł
Ġexist ence
ott ed
ëŀ ĢìĿ´
íĺ¸ ë°ķ
ĠíķĺëĤĺ ë¡ľ
ĠíĻķ ì§Ħ
ĠëĤĺíĥĢ ëĤ¬ëĭ¤
Ġdr ag
Ë·Â· Ë·
ê±´ ë¬¼
ĠSec ret
c ert
ìĹŃ ìĹĲìĦľ
z one
Ë·- .Ë·
h av
ĠMed ical
ĠìĥĪ ë¡Ńê²Į
app oint
Ġíķĺ ìŀĲ
Ġt ub
ĠS D
av ity
Ġboy s
ëĵ± ìĿ´
ra zy
ĠëĮĢíĳľ ëĬĶ
Ġë§ŀ ìķĦ
Ġíİ Ģ
ast s
Ġassess ment
ĠS af
Ġt all
Ġpriv acy
Ġv irt
Ġmatch ing
pos itory
æ Ń
ê³± ì°½
ê°Ĳ ëıħ
ĠP an
Ġìĥ¤ ìĽĮ
Ġê°Ĳ ìłķ
Ġ{ {
ult ural
ĠB uy
v c
W E
ĠF estival
Ġ !!!
Ã³ w
ĠIn vest
ëĮĢ ì²´
Ġ Ñı
Ġsl ot
os itory
Ġê±° ë¶Ģ
ar ation
ĠìĽĶ ìļĶìĿ¼
Ġíķ© ë¦¬
ìĥ ĲëŁ¬ëĵľ
Ġëı¼ ì§Ģ
ber ry
C B
ĠF alse
Ġì±Ħ ìļ©
Ġland scape
ĠìĽ¨ ëĶ©
AR Y
ìĮ ¤
Ġì¢ħ ì¢ħ
Ġbl ank
et ic
Ġr ig
ĠT imes
Ġëī´ ìĬ¤
Ġìĭ¤ ì²ľ
Ġsh ock
íĮĮ ìĬ¤íĥĢ
red it
ĠëģĿ ëĤĺê³ł
Ġsurpr ise
Ġf n
íĭ ¸
ĠìķĦì¹¨ ìĹĲ
V ol
íİľ ìħĺ
Ġíĥ ĵ
Ġd ates
Ġëģ Ħ
ë°ľ ìĿĦ
ĠìľĦì¹ĺ íķ´
ĠS earch
Ġìĭľ ê°ģ
g ment
Ġc ircle
ĠìĺĪ ìĤ°
Ġê°Ķ ëĬĶëį°
Ġfor th
Ġìłĳ ìĪĺ
ĠUp date
g reen
or i
R S
ir ms
Ñĩ Ð¸
Ġch annels
Ġre ward
W rap
ĠìĪ «
Ġnorm ally
Ġpl ugin
pr imary
bl ue
Ġfil ename
Ġd ating
Ġre ject
Ġcomp act
I VE
ist ed
Ġplan et
ë°Ķ ë¥¸
Ġ ãħĭãħĭãħĭãħĭãħĭãħĭãħĭãħĭ
ê°Ģ ëĵĿ
ĠC ross
z i
By te
ëĭĪ íĭ°
Ġcont ained
st ood
ack et
ĠìĿ´ìļ© íķł
! \
Ġele v
Ù Ħ
Ġc ategories
ess ages
ĠíĻĺ ìŀĲ
Ġíĩ´ ê·¼
te en
ë³´ ìĿ´
ĠSup port
Ġì´Ī ì½Ķ
Ġì ŃĪ
Ġê±° ê¸°
ĠìĽ ¨ìĿ´
ut ch
C RE
Ġinstit utions
in ator
Ġtell ing
ĠSh op
Ġë§Ĳ íķľëĭ¤
Ġpr ison
Ġg ate
P anel
Ġdi verse
ìį ¬
e cho
Ġë¹¨ ê°Ħ
Ġcl othes
Ñĺ Ðµ
Pol icy
Ġíİ ´
ìĭľ ëĮĢ
ĠìĨĲ ìĹĲ
Ġed ition
ch ain
Ġre ar
ë¬´ ë¥¼
íķĳ íģ¬
Ġh ire
Ġl atter
ĠP op
âĢĻ .
Ġì¡° ë¦¬
N ET
W ill
ìĹĪ ëĬĶëį°ìļĶ
ê°ľ ë¡ľ
ĠO ption
Ġexpl an
Ë·" ;
Ġê¹ĶëģĶ íķĺê³ł
at ile
ograph ic
ĠB efore
ĠíĽĮ ë¥Ń
íĻĶ ìĿ´íĬ¸
ë¶Ģ ë¶ĦìĿ´
ì§Ģ ëĤĺ
Ġadd s
ë°ľ ìĿ´
Ġíı °
Ġqual ified
ĠSt at
Ġext end
ĠëĤ´ ë¦¬
Ġì§Ģíķĺ ì²ł
ä¸ į
ĠêµŃ ë¬¼
Ġexp ansion
ĠìŀĪ êµ¬ìļĶ
Ġdis k
Ġreg ional
ament e
ëĦ ĵ
Ġch ief
il ton
line ar
ĠìķĮ ìķĺëĬĶëį°
ĠëķĮ ê¹Įì§Ģ
ìłľì£¼ ëıĦ
ĠTh rough
íĤ¤ ë¡ľ
form s
Ġst able
+ "
ER S
Ġp up
ìĦ± ìŀ¥
Ġas ync
Ġë³´ ëĭĪê¹Į
L IC
ĠLoc al
O B
c it
ĠEx t
print ln
Ġh ole
Ġë§Į ëĤł
aw ay
Ġpo inter
ìĦ¼ ìĬ¤
ac count
; ">
íķ «
íĥĢ ìŀħ
ĠP ac
ê³³ ìĿ´
ov a
a ud
ë¸Į ëŀľëĵľ
ynam ic
Ġê³ł ìĸĳ
en um
ê±¸ ìĿ´
Ġemot ional
Ë·; Ë·
o ose
ĠV an
Acc ording
ĠíļĮ ìĿĺ
ê¸° êµ¬
Ġì¶ľ ìĭł
Ġpay ments
Ġhand ling
ost on
ĠG ar
Ã ´
ult y
Ë·) \
ì² ©
Ġìĺ¤ëĬĺ ìĿĺ
e ach
or gan
Ġì£¼ ê±°
ĠëĶĶ ìłĢíĬ¸
ì§ľ ë¦¬
Ġë°ĺ ë©´
Ġserv es
ìĬ¤ íĭ±
ê´ ľ
Ġë¬ ¶
ĠPh ot
ë§Ĳ ê³ł
Ġex clusive
/ \
d x
Ġë°©ë²ķ ìľ¼ë¡ľ
Ġëª¨ ìĹ¬
ĠìĪĺ íķĻ
ĠS ar
Ġì³ Ĳ
Ġíķł ë¨¸ëĭĪ
Ġsign ature
ĠConf erence
Ġë¶Ģ ë¥´
ĠChar les
êµĲ ì²´
ëĬĶ ê±°
u ing
ë¡ľ ìĽĮ
wid et
Ġindic ate
Ġcharg ed
ë°± íĻĶìłĲ
ĠëĤ ¸
low er
cent ering
Ġì°¨ ìĿ´
Ġmiss ed
Ġredu ction
Ġdef in
Ġcomp ens
PO ST
C or
Ġben ch
Pr int
Ġê³¼ ìĹ°
ĠìĤ¬ íĥľ
ĠíĨł ìļĶìĿ¼
ìĺ¤ íĶĪ
F i
ok ing
ollow ing
F il
y ard
ì¡° ìĦł
ĠëĲĺ ê²Į
Ġë°° ì¶ľ
ĠP DF
Ġp apers
Ġê³¨ ëĿ¼
ĠíĻľ ìĦ±íĻĶ
ìĦ¸ ìĥģ
ë§Ī ìĿ´
ĠM os
Ġëĵ± ìĿĢ
ë ¼Ī
ĠSe lect
Ġpur s
uc ks
yout u
ĠìĪĺ ìĪĺ
ĠìĪĺ ë§İìĿĢ
Ġë§Į íķľ
Ġì¹ľ íĻĺê²½
Ġschedul ed
Ġis ol
Ġê°Ĳ ìĥģ
ĠÐ¿ÑĢ Ð¾
Ġmix ture
Ġëĭµ ëĭµ
ig ible
Ð Ĳ
ê°Ĳ ê³¼
reg ion
ĠìĪĺ ëĤ©
Ġsym met
ìĭľê°Ħ ìĿĦ
Ġcontrol s
Ġíĭ Ī
param eter
íĨł ë¦¬
ëĳĲ ë¶Ģ
Ġìĥ ĺ
ĠRe port
Ë· (\
Ġë¶Ī ë²ķ
ĠìķĦ ìĺĪ
Ġwe aring
Ġë³´ëĤ´ ê³ł
Ġexpect ations
Ġë²Į ìĸ´
Ġì ª¼
Ġtick et
ost er
ĠëĮĢ ì¶©
Ġsc al
ĠíĮĮ íĭ°
Ġê´Ģ ë¦¬ë¥¼
Ġaccur acy
for ward
Ġìĭ¶ ìĹĪëĬĶëį°
ĠëĤ Ń
? :
Ġprof it
ab il
U ID
ë¦ ħëĭĪëĭ¤
e a
ĠH uman
Ġë¨¹ê³ł ìĭ¶
Ġap artment
ìļ ¤
ĠCan adian
e ah
ìĹĪ ëĭµëĭĪëĭ¤
Ġre ct
Ġë°Ŀ íĺĢ
ìĤ¬ ìĹĲìĦľ
Ġh ung
íĥĢ ìĽĮ
ĠH aw
Arg ument
Ġìĺ¤ ìĿ¼
ang ular
Ex ternal
ĠíĮ ©
ì§Ģ ëĭĪ
Ġchalleng ing
Ġë°Ľ ì§Ģ
Ġìĭ Ń
Ġmin imal
Ġfac ing
ush ing
ĠAr ab
ëł¸ ìĸ´ìļĶ
Ġpack ages
ĠëıĦ ìĽĢ
ì¹ĺ ë¡ľ
å Į
ĠS om
ĠRuss ia
l anguage
cha ft
Ġlist ening
Ġê·¼ì²ĺ ìĹĲ
SE LECT
Ġbu ck
Ġcho osing
ĠëĤĺ ìģĺ
Ġì¼ ľ
D i
ë³´ ì¦Ŀ
ak a
Ġpr ime
ĠëĤ ¼
Ġë¬´ ì²Ļ
Ġcomm ission
or able
Ġëı ķ
ìĸ´ë¦° ìĿ´
X ml
Ð½Ñĭ Ð¹
r ase
Ġprior ity
ĠT erm
ĠìĹ ĳ
Ġê°Ģê²© ìĹĲ
Ġëĸł ìĺ¬
Ġpres c
Ġìĭł ì²´
Met adata
ĠP rem
Ġìłģ íķ©
ìĭľê°Ħ ìĹĲ
T ool
íķĺëĬĶ ê²Į
Ġcar bon
drop down
ĠMex ico
Ġë¨¹ ìĹĪëĬĶëį°
Ġde let
ëĭ «
ĠëĤ´ ê³ł
ĠC ath
al o
ëħĦ ìĿĺ
="../../../../ ../
Ġë°Ķ ìĤŃ
ĠA I
ëĤł ìĿ´
ëıĻ êµ¬
. <
V M
Ġëª¨ë¥´ ê³ł
ìł ĵ
tem p
ĠJ ah
Ñģ Ð¿
ìĿ´ëŁ¬ íķľ
ĠAmeric ans
it an
ìľ¨ ìĿĢ
Ġatt ach
\ ]
un icip
Ġar rest
ĠEX PECT
A CT
ĠìķĪ íĥĢ
Ġ" <
Ġìķ ¨ë²Ķ
m ade
Ġìĸ´ íĶĮ
äº º
Ġap pl
Ġfeature d
bo olean
ĠëĲľ ëĭ¤ëĬĶ
ëĭ¤ ë³´ë©´
Ġin struction
ë¥´ ë¥´
et ry
Ġíģ¬ ê³ł
ĠìĻ¸êµŃ ìĿ¸
il st
ê¸¸ ìĹĲ
ĠOr der
ì´Ī ë°¥
t le
Ġìŀħ ìĿĦ
ĠëłĪ ëĵľ
ìĬ¤ íĮĮ
ëĵľ ë¦Ħ
ï¼ ļ
Ġcl ar
" ],
ut ter
ĠD B
âľ Ķ
íķĻ ìĬµ
Sup port
Ġê¸¸ ìĹĲ
am ps
ĠìĤ¬ ìĹħìĿĦ
Ġint ent
Ġoper ate
ĠT re
ç Ľ
ìļ´ ìĺģ
ĠìĦ¤ íĥķ
F ull
Ġtr ick
n eg
Ġdraw ing
Ġorgan ized
ì¢ħ ìĿĺ
ìŀ¡ ê³ł
Ġë²ķ ë¥ł
ĠìĤ¶ ìĿĺ
Ġë§ĽìŀĪ ìĸ´ìĦľ
Ġed ges
ĠíķĺëĤĺ ëıĦ
Ġpull ed
ĠìĿ´ ìĿµ
ĠëĮĢíĨµëł¹ ìĿĢ
Ġë§¤ ìĪĺ
i at
ly ph
Ad apter
f ix
ì¶ľ íĮĲ
' ))
ca fe
ê·¸ ë¦°
ì£¼ ìĭĿ
ĠìĨĮ ìļĶ
ĠL ib
Ġm ock
ëĥ ł
Ġn g
ë¹ Ĺ
e en
Ġëª» íķł
ë¶Ģ ëĭ´
Ġìłķ ê¸°
ì½ľ ë¦¿
ìĺĪ ìłĦ
ĠA ction
Ġê³ł ë§Ī
h ot
ĠìĿ´ íĥĪ
Ġlim its
ë¹Į ëĶ©
Ġdis s
Ġde bug
//////////////// ////////////////
íĭ° ë¸Į
Ġì¢ĭìķĺ ëįĺ
que ue
Ġaware ness
ĠTh ose
ì½ ķ
) "
ë¥´ íĬ¸
Ġëıħ íĬ¹
Ġe ast
T wo
ĠìıŁ ìķĦ
Ġìłģ ìĸ´
íĶĦ ëĿ¼ìĿ´
w hen
widet ilde
Ġê°ľ ìłķ
íĪ¬ ìĸ´
ĠL ee
ĠëĤĺíĥĢ ëĤĺ
Ġrepresent ed
ĠC ost
ĠëģĿ ìĹĲ
ìĭľ ìĿĺ
Ã© r
Ġbel ieved
ou red
Ġappro aches
pro to
ĠìĿĺ ìĭ¬
ĠI re
w atch
Ġref erred
ìķŀ ìĹĲ
ë²Į ìį¨
ê±´ ì¡°
ëĭ¤ íĸī
d p
ĠL uc
Ġsize of
Ġworld wide
ĠE conom
in v
íķĺ ê¸´
Ġst orm
Ġì§Ģ êµ¬
Ġìķŀ ëĳĲê³ł
ë¯¸ ëĦĲ
Ġë° ´
ìĺĪ ìģľ
Ġê¸° íļĮ
sh adow
Ġìĺ¤ ëŀ«
Ġmod ified
Ġìĭľ ëĮĢ
ê³Ħ ëŀĢ
ìĦĿ ìĿĦ
íĬ¸ ìĽĮíģ¬
Ġg ent
Ġoffic er
as tern
Que ue
ĠëĤĺìĻĶ ìĸ´ìļĶ
Ġ ãħ
result s
Ġhe av
Ġlist s
Ġìĭł ì¶ķ
Ġëª¨ ìŀĲ
Ġë¬´ë£Į ë¡ľ
Ġê·¸ ê²ĥ
pm wiki
py thon
ë§Į ìķ½
íģ´ ëŁ½
v y
Ġtr ou
ĠìĤ¬ëŀĮ ëıĦ
ê³¨ íĶĦ
Ġë¹Ħ íĮĲ
log in
ê³ł ë¯¼
ãĢ Ģ
ìĦ¤ ëªħ
ãĢ ı
Ġì¤Ģë¹Ħ ë¥¼
ĠìĪĺ ìĤ¬
Ġëĭ¬ ìĦ±
e z
Ġperform ing
Bo olean
Ġimmedi ate
Ġê²ĥ ìĿ´ëĿ¼ëĬĶ
Ġfound ation
ĠAngel es
Ġqu ote
Ġle an
OD O
Ġê¾¸ ë©°
Ġstud ied
o ir
Ð½Ñĭ Ñħ
ìķĪ ëĤ´
RE S
íĦ° ê°Ģ
íİĺ ìĿ´ìĬ¤
ire ment
ĠìĿ¸íĦ° ë·°
Ġw arn
Ġìłķë¶Ģ ê°Ģ
å ·
Ġlux ury
Ġcl ock
ĠíĬ¹ ìłķ
Ġag encies
s en
ëĭ¨ ìĿĢ
ê²ł ì§ĢìļĶ
Ġfin ite
ĠëĤĺ ê°Ī
Ġatmosp here
Ġmeet ings
ìĽł ìĸ´ìļĶ
Ġb are
Ġse ctions
s pl
íĸĪ ëĭµëĭĪëĭ¤
Ġë¯¼ ê°Ħ
ëĵ¤ ìĹ¬
Ġê¸° ê³Ħ
Ġsomew here
Ġinteg ration
Ġê°Ģ ë³´
t ical
ĠDo es
Ġorigin ally
Ġcou ns
ind ent
ĠìĿ´ìļ© íķľ
Ġëģĵ ìĹ¬
w ait
Ġstat ements
ëĬ ¬
Ġì¸ µ
ra id
Ġrequest ed
ĠìķĦ ê¹Į
Ä ģ
ìłĦ ì£¼
as hed
ĠSt ore
ì¹´ ì¹´ìĺ¤
ëįĶëĿ¼ êµ¬
ĠC ook
Ġm ale
em b
as ters
ëª© ìĿ´
Ġexec utive
Ġë© ĺ
il ation
ë§Īì§Ģë§ī ìľ¼ë¡ľ
ë§Į ìľ¼ë¡ľ
Ë· âĪ¼Ë·
ĠCom put
M eta
ĠSp anish
Ġinsp iration
Ë·; </
Ġmark ed
ìĬ¤íĨł ëŀĳ
Ġjav ax
å ±
v irtual
o i
é ģ
ê·¸ ëķĮ
Ġd ir
Ġmed icine
z ip
Ġë¬´ ëł¤
Ġconc ert
Ġì²Ń ìĻĢ
Ġëĵ¤ìĸ´ ê°Ī
Ġcruc ial
ë¥ Ļ
ĠI II
Ġflex ible
Ġ[ "
ig ate
Ġdanger ous
Ġìŀ İ
Ġemploy ment
ëłĮ ì§ķ
Ġv ul
Ġìĺ® ê²¨
Ġinvest ors
ìĨĮ ëĬĶ
Ġm useum
Ġfig ures
Ġíķĺ ìĭł
B L
Ġtransp arent
Ġb odies
c am
Ġì¶Ķì²ľ íķ´
Ġfair ly
Ġs ich
ĠB ox
ê·¸ ëıĻìķĪ
ĠM ill
ĠE R
æľ ī
Ġass igned
Ġ% }
Ġìĥģëĭ´ ìĿĦ
Ġpre gn
ë¨¹ ê¸°
Ġì²´ ê²°
ì¢ħ ìĿ´
ĠS ite
ĠL A
ìĹĲìĸ´ ì»¨
P AR
ëıĦ ì²´
tab ular
Ġë¶Ģì¡± íķľ
ìĪĺ ìļķ
Ġbuild er
it i
Ġbr idge
ik a
Ġhy per
ĠM ur
ë½ Ģ
ĠJ ac
M icrosoft
ĠP A
Ë·] {
Ġíļ¨ ëĬ¥
w all
ok ed
ë°° ì¶Ķ
o op
Ð½ Ðµ
Ġexec ute
Ġê°Ļ ê³ł
he mat
[ :
Ġgr ass
smart store
=" -Ë·
. =
ë§Ī ëĶĶ
å ¸
ĠíĮ¨ íĦ´
C opy
Ġê°Ħ ìĭĿ
* Ë·
Ġliter ature
ìŀĪ ëįĺ
u j
AN G
Ġì²ľ ì²ľíŀĪ
ì¡° íĬ¸
ê² Ł
anc el
ol ver
Ġìĭ¤ ìłģ
Ġpol l
Select or
Ġë°ľ ê¸ī
à ¯
ĠíķĻ ìĽĲ
" `
AN T
ìĭľ ë¶ĢíĦ°
Ġì´Ī ë°ĺ
ëĵľ ë¦°
ĠH or
M W
Desc riptor
dim ension
ìĬ¤ íĤ¤
Ġíıī ìĥĿ
n ÃŃ
Ġoccur red
Ġë¶Ģ ìĹ¬
Ġì§Ħ ìłķ
Ġphil osoph
Ġv ital
Ġsup erv
ĠN on
P D
il ly
ä ¼
ìĤ¬ì§Ħ ìĿĦ
Ġì Ł
Ġext ent
Ġfr ag
Ġmov ies
Ġëª» íķ´
ìĿ¼ ê¸°
Ġë³´ ê²Į
Ġexec ution
ĠëĬĲëĤ Ģ
Ġdrug s
Ġíķľ ëį°
è ¦
ĠDef ault
Ġc oc
f all
Ġcopy right
ìĨį ëıĦë¡ľ
Ġì¤Ģ ëĭ¤
ĠëĶ¸ ê¸°
ĠN ode
ĠëĬĲ ê¼
Ġinter act
íĻĶìŀ¥ ìĭ¤
Ġr ul
ĠìķĦë¦Ħ ëĭ¤
Ġk ne
ê²½ ìĺģ
ë¦¬ ë·°
ì°½ ìĹħ
ĠAut o
Ġìŀ¥ ë¹Ħ
ìĭľ ì¼°
ë ī
å ĩ
ro le
Ġì¤ĳ ëĭ¨
ë°ķ ìĿ´
st al
Ġëĳĺ ì§¸
ĠëıĻ ìŀĳ
z ed
ê¶Į ìĿĺ
Ġimpress ive
Ġstret ch
Ġs ed
Ñĥ Ð´
Ġadv is
Ġb at
ĠíķĺëĤĺ ê°Ģ
y t
Ġlay ers
Ġì£¼ë¬¸ íķľ
íĺķ ìľ¼ë¡ľ
íĮĮ íĭ°
ë ĺĳ
ìĺ ¹
ĠÐ² Ð¸
Net work
ĠíĻķ ìŀ¥
íİĺ ìĿ´
ĠêµŃ íļĮ
êµŃ ê°Ģ
Ġun f
ìĻĶ ìĬµëĭĪëĭ¤
ì Ńī
ar ia
Ġvis ited
Ġprint ed
pe at
ĠìĨĮ ì¤ĳíķľ
ëĵľ ìĹĲ
Ch annel
AL SE
Ġinform ed
ëħ¸ ëŀĺ
ë¥ł ìĿĦ
ĠìĥģíĻ© ìĹĲ
Ġcheck ing
} )$
ìķĦ ëĬĶ
íĮ Ł
det ail
Ġg am
ut f
Ġent ries
Ġw arning
êµ¬ ëĭĪ
ìĭ¤ ëĤ´
arg ument
ê°ķ ìĿĺ
H i
th row
Ġì¤ĳ ìĿ´ëĭ¤
ĠíĬ¹ ìĿ´
Ġ urban
Ġrecogn ize
Ġì¡° ëªħ
qu ir
iz able
ĠW in
Ġreve aled
Ġìľł ìļ©
Ġg ap
Ġìľł ê¸°
w er
Ë·" );
Ġevery day
Ġcontrib ution
ìļĶì¦ĺ ìĿĢ
Ġdro pped
ĠS on
ĠE ll
Ġh ang
Ġremov al
ĠìĨĮ ë¦¬ê°Ģ
Ġeval uation
Ġê°Ģ ëł¤
Ġres idential
Ġëĭ¤ëħĢ ìĺ¨
ìĹĪ ìĿĮ
Ġhost ing
Ġop posite
ploy ment
ung en
ëŁ° ì¹ĺ
Ġrec all
S y
ĠJ un
ST AT
Ë·% .
ĠìĨĲ ìľ¼ë¡ľ
Ġbe er
Ġìĥī ê¹Ķ
Ġrepe at
G ood
F loat
Ġprinc ipal
íķ´ ëĭ¹
Ġìłķë¶Ģ ìĿĺ
Ġp it
ĠíĻķ ìĤ°
Ġconf lict
Ġëħ¸ íķĺìļ°
ìłĦ êµŃ
G V
Ġë©Ķ ëª¨
Ġar bit
ìı ĺ
Ġìµľ ìĦłìĿĦ
ìĿ¸ ì¹ĺ
Ġë³¸ ëĭ¤
ot ed
Ġíģ¬ ê¸°
Ġrepe ated
Ġmonitor ing
hel p
ìŀĦ ìĿ´
Ġhand ler
ÑĢ Ð¾
Ġì°¾ ê³ł
Ġadv oc
Ġë§¤ ìŀħ
ê±° ë¦¬ëĬĶ
N a
Ġì¦Ŀ ìĥģìĿ´
Ñĩ Ð°
Ġleg s
Ġlik ed
l an
ĠìĻ ¼ìª½
pl ot
ìĦ¸ íı¬
Ġë£ ¸
ìĪĺ ìĿµ
Ġê½ Ĥ
up load
Ġin ches
ë¸Į ë¦¬
ëĤĺ ëĤĺ
B it
pro perties
íĥ ł
Ġc able
\ ":
iv o
m ann
Ġab stract
ĠB ed
ĠL es
ĠB oy
Ġcre w
Ġg olf
ot ion
ì¸ Ħ
ĠÑģ Ð²
ĠRes ult
íģ¬ ëĮĢ
ĠTr ust
ìŀĪ ìĿĦ
ĠíĶĮ ëŀ«íı¼
ab a
ĠìĻ łì§Ģ
ë© ĭ
anc he
Ġind epend
re act
Ġë§ µ
ìĿ¸ ì¦Ŀ
ĠëĲĺ ìĹĪìĸ´ìļĶ
Ġëį° ëł¤
ĠìħĢ íĶĦ
ëĿ¼ ê°Ģ
D ay
ĠëŃ Ķ
ĠìĹĨ ëĬĶëį°
íļĮ ìĽĲ
j query
Ġb its
ĠìķĪ ê²½
it age
s ome
is a
Ġi o
ìŀĲ ì²´
ìĤ¬ëŀĮ ìĿ´
osp it
íıī ìĨĮ
ĠPr int
íĭ° ì§Ģ
lem ma
ê³³ ìĹĲìĦľ
ÃŃ t
u ent
P ool
ãĤ Į
ĠIt aly
Ġë¶Ģë¶Ħ ìĹĲ
ĠìĦľ ìĦľ
d ays
) ?
Ġsp oke
Ġs ick
ĠëĤ ³
p res
S end
ĠíĽĦ íļĮ
Ġíİĺ ìĿ´ìĬ¤
Ġm and
ìĶ¨ ìĿĺ
Ġì°¨ ë³Ħ
Ð½ Ñĥ
ĠÐ² Ñĭ
ug gle
Ġres ort
Ġdef ense
ĠE nergy
sa fe
Ġinst itution
ĉĉĉ Ċ
ê¸° ëħĲ
Ġìķł ëĭĪ
Ġ Ù
Ġst im
Ð¾ÑĢ Ð¸
Ġcr ack
p red
íĤ ·
Ġì²Ń ìķ½
re ated
con nection
Ġê°ľ ë³Ħ
Ðµ ÑģÑĤ
Ġmembers hip
ì³Ĳ ìĦľ
ëłĪ ëĵľ
U SE
Ë·+ \
ãģ £
ë¯¸ ëĬĶ
) -
ìĬ¤ íĤ¨
Ġso il
Ġout standing
Ġspect rum
Ġ ....
Ġesc ape
CE SS
ĠWe ek
Ġar rive
ĠW ild
Ġìĺ¤ ê³ł
ìĪľ íĻĺ
ĠìĿĳ ìĽĲ
b d
Ġdom estic
ty ped
Ġb asket
Ġrem ind
ĠPh ys
Ġprogram me
ĠìĽĲ ì¹Ļ
Ġentertain ment
ëĭĪ ê¹Ĳ
Ġmar riage
De cl
ĠInd ex
ìļ° ê¸°
ìĦľ ìĹĲ
Ġb anks
Ġìĭ¬ ë¦¬
Ġìķ Ļ
ìķł íĶĮ
artifact Id
Ġê¸° íļĮë¥¼
Ġbound ary
Ë·\ \
ĠP ath
pp ing
Ġê³¨ ëª©
ĠS H
Ġent hus
Ġíķľëĭ¤ ë©´
Ġìłģ íĺĢ
íķ´ ì§Ī
Ġsh adow
æķ °
Ġinnov ation
Ġsy nt
ãħłãħł ãħł
ĠM id
__ (
Ø ±
è Ģ
Ġincor por
ìħ¨ ëĤĺìļĶ
Ġintrodu ce
el ly
Ġë§Ī ì£¼
Ġnew sp
ì¹ĺ ê¸°
Ġg ear
Ġhe nce
ĠÐ £
ê°Ĳ ìĿĢ
Ë·] );
ìĭľ ì¦Į
ĠE q
ĠìķĦ ê°Ģ
user name
íĮħ ìĿĦ
l as
ĠíĺĦ ê¸Ī
ĠĠĠĠĠĠĠĠĠĠĠĠĠĠĠĠ ĠĠĠĠĠĠĠĠĠĠĠĠĠ
ë° ¸
ĠAp plication
al and
ìĿ¸ ëĵ¯
ĠìķĬ ìľ¼
ì¥ Ĳ
ë°© íĸ¥
Ġsh r
Ġris ks
Ġstr ings
A K
Mat rix
ĠëĬĲê»´ ì§Ģ
us ers
Ġresear chers
Ġar ts
ĠCon nect
Ġinval id
ĠëĲĺ ìĸ´ìĦľ
ë£ °
ë£ ¬
Ġlo ans
A I
ë¨¹ ìĸ´
ot es
Ġëĭ¨ ëıħ
Al though
ìłĦ ìļ©
Ġexpress ed
ë§Ľ ìĿĢ
Ġìĭ¶ ìĿĦ
Ġwid ely
Ġì¢Ģ ëįĶ
Ġdiv ision
ĠD I
ĠCon fig
ĠìĿ¸ ìĪĺ
t or
iss ions
ìļ´ ëĮĢ
R est
Ġì¶ķ íķĺ
ëŁī ìĿĺ
Ġgar age
íķ´ ë³¼
ìĭ¤ ë¡ľ
; <
ëħĦ ìĥĿ
** *
Ġspirit ual
our se
Ġinvest igation
ĠS M
Ġres istance
ĠF air
ëĭ¤ìĿĮ ìĹĲ
Field s
Ġìĭ¶ ìĬµëĭĪëĭ¤
Ġcont ribute
Ġp ill
ir ts
S ymbol
Ġíļ į
ĠM iddle
Ġë§¤ ë¬¼
ĠPl ace
ì½Ķ ë¦¬ìķĦ
Ġíİĺ ìĿ´ì§Ģ
t f
Ġro les
m ask
Ġsuper ior
t c
ĠíĶ ½
play er
ĠíĥĦ ìĥĿ
D id
Ġê²ĥ ëĵ¤ìĿ´
ìĦľ ëıĦ
Ġmo ist
Ġíľ´ëĮĢ íı°
ê¶ Ī
Ġt ags
ãħĭãħĭãħĭãħĭ ãħĭãħĭãħĭ
Ġì¡° ê°ģ
let on
v ideo
F ree
Ġë¹ Ļ
Ġaff ili
us r
ĠìŀĲ ë¦¬ìĹĲ
p b
ìĿ¸ ëıĦ
âĿ¤ ï¸ı
ĠìŀĲ ìĤ°
Ġíģ¬ ë¡ľ
P erson
ĠìłĢëł´ íķĺê²Į
ĠC ab
Ġëĭ¤ìĿĮ ëĤł
Ġìķ ¤
Ġdeal ing
Ġ' ,
Ġíĥľ ìĸĳ
Ð½Ñĭ Ðµ
ì»¤ ë²Ħ
ĠM en
ĠëłĪ ìĬ¤íĨłëŀĳ
p f
ĠEx per
ëıĻ ìĿĺ
ĠíĬ¹ ìĪĺ
ĠíĶ¼ë¶Ģ ë¥¼
Ġëĭ´ ìĿĢ
ĠëŃ ī
ëĭ¹ ìĿĢ
Ġadvent ure
sw itch
Ġapply ing
Ġoper ators
Ë· ::
ìĭĿ ìĿĺ
ê°ķ ìķĦì§Ģ
Ġo ven
Ġmag ic
Ġmod ify
Ġsuggest s
Ġg od
J S
Ġê°Ģ ìĦ±ë¹Ħ
ìĺ¨ ëĭ¤
ĠSc ot
Ġë§İ ìķĦìļĶ
ev ents
íķĺ ëł¤ëĬĶ
ĠD er
el i
Ġperson ally
Ġìĸ» ìĿĦ
int age
Ġair port
ë³´ ëĭ¨
U sing
æ ³
r b
arg uments
ëĤ´ ë¶Ģ
ĠìĬ¤íħĮ ìĿ´íģ¬
T oday
M sg
C lose
ĠS anta
Ġìĺ· ìĿĦ
íĻĶ ìĹĲ
ìŁģ ìĿ´
ëĮĢ ìĭł
> \
ĠS uch
Result s
ow a
Ġoffic ers
F IG
Ġìĥģíĥľ ìĹĲìĦľ
ì²ľ ìĭľ
ìĦł ê±°
B D
ìĤ¬ ë¦¬
Ġì·¨ ìĨĮ
R C
ìĥĪ ë¡ľìļ´
Ġ ).
og raf
Ġdirect ed
ĠìĬ¤ íĤ¨
P erm
ë°° ê°Ģ
ê³ §
ĠëĮĢ ëĭµ
ĠíĹ ¬
C ap
it Ã©
J ob
Ġver ify
Ġmov es
Ġple ased
Ġë²Ĺ ìĸ´ëĤĺ
ìĪĺ ìĻĢ
aw a
ãģ Ĩ
Ġëĭ´ ê²¨
id ays
ĠH om
ĠìŀĪìĹĪ ì§Ģë§Į
F iles
om orph
Ġíŀĺ ëĵ¤ìĸ´
Ġh ide
íĸī ìĤ¬
ĠìĿ´ ë¥¸
m ock
íķ¨ ìĹĲ
ĠìĥĿ ê¸°ëĬĶ
ìħ¨ ëĬĶëį°
dep th
Ġìłľ ìķĪ
ĠT ask
ĠH ard
ì¹ĺ ê²Į
} ]
annot ation
ë²Ħ ìĦ¯
ÐµÐ½ ÑĤ
Ġëį§ë¶Ļ ìĺĢëĭ¤
s ys
ìĻ¸ ë¡ľ
Ġtext ure
z eta
R ad
ts d
Ġf asc
ëĦ¤ ìļ©
ĠìĺĪ ë¹Ħ
ë©´ ìľ¼ë¡ľ
Ġíĸ¥ íķ´
ĠìĺĽ ëĤł
Ġdesign er
group Id
Ġìĥģíĥľ ë¡ľ
Ġacc eler
ê¸° ëķĮë¬¸ìĹĲ
Ġprogram ming
ĠìĹ° ìŀ¥
Ġëĵł ëĵł
Ġd ict
Ġcrit ic
ìľł ë¥¼
gy pt
Ġund ert
ìĿ ½
ðŁ ¥
Ġìĩ¼íķĳ ëª°
ĠUn ivers
ex ception
Ġìį ¬
ch or
Ġsomew hat
íĺĳ íļĮ
ĠT ri
ap y
Ġch ose
M atch
Ġrel ief
Ġcollabor ation
ĠC lean
ëĦ ¬
ict ed
ĠíĨ¡ íĨ¡
ĠP O
y cle
Ġr ac
Ġì§Ħ ìŀħ
Ġas ide
Ġmeas ured
Ġflav or
ter ior
f i
Ġn ob
Ġle tt
Ġelect ron
m ac
ë´¤ ìĬµëĭĪëĭ¤
Ġìĭľê°Ħ ìĿĢ
ĠìĿ´ë¦Ħ ìĿ´
Ġrem ained
ĠìĿĺ íĺ¹
ìĭľ ìĬ¤
Ġbott le
ì°¸ê³ł ë¡ľ
Ġs ummary
in ch
n p
ë°ĶìĿ´ ìĺ¤
íĩ´ ê·¼
ĠìĿ¸ ë¬¼
ĠĠĠĠĠĠĠ Ċ
Ġìĺ¬ ë¦¬ê³ł
Ġsurpr ised
Ġê³µê°Ħ ìĿĦ
Ġìĸ´ëĬĲ ìłķëıĦ
Ġro se
cont roller
ĠR ight
Ġinstance of
Ġt utor
Ġìĺ¤ ìĹ¼
Ġguid ance
man ager
ail ing
Ġìħ Ī
ĠYou ng
am ber
Ġë²Ķ ì£Ħ
p ower
g ood
Ġa vec
ìĸ´ ë§Ī
Ġë© ľ
ìĿ¼ ì°¨
ìĭł ëıĦìĭľ
ìĹ´ ìĭ¬íŀĪ
íķł ì§Ģ
Ġag es
el lect
ĠL ive
ul s
Ġattack s
íĶĦ ë¡ľê·¸ëŀ¨
Ġì¤Ģë¹Ħ íķ´
íı¬ ìĬ¤íĮħ
Ġaddress es
ëİ ħ
ele gate
sh ift
Ġax is
Ġfeat uring
ì¹´ ë¡±
Ġìº Ķ
r andom
ëĮĢ íļĮ
Ġë§Ī ìĿ´
ĠìłĦ íĪ¬
In itial
Ġpref erred
ĠìĬ¤ íĮĮ
ë¦¬ íķľ
íķĻ ìĿĦ
ĠF re
ÑĢÐ° Ð²
ê³µ ìĹ°
Ġêµ³ ìĿ´
Ġëī´ ìļķ
ĠA ff
ĠëĳĲ ë²Īì§¸
ë¦¬ ë©°
L P
Ġì°¾ ìĿĦ
Ġë§Įëĵ¤ìĸ´ ì§Ħ
l aw
Ġë¶ ĵ
ĠS pe
Ġfavour ite
Ġr ice
ê²½ ë§¤
Ġì¥ Ĳ
Ġpers ons
Ġprov en
Ġbox es
Ġê¸° ìļ¸
ĠC ou
Ð° Ð´
ĠB on
Ġrout ine
ê·¼ ì²ĺ
Ġequip ped
Run time
Ġë§¤ ëħĦ
ë¶Ħ ê°Ħ
Ġë© į
R T
Ġë§Ĳ ìĿ´ëĭ¤
Ë·} ^
ĠìĤ¬ìļ© íķĺê¸°
Ġm ouse
s ch
ax is
ìĿĺ ëıĦ
ë¬´ìĹĩ ë³´ëĭ¤
Ġact s
wrap per
Ġw aves
Ġmag netic
Ġê¹¨ëģĹ íķĺê²Į
Ġë¬´ ìĭľ
ìŀĲ ìĤ°
ĠíĬ¸ ëłĪìĿ´
er ial
Ġlif estyle
alax y
ĠëĮĢë¶Ģë¶Ħ ìĿĺ
b et
ê³Ħ ìĹĲ
ĠìĤ¬ì§Ħ ì°į
Ġpart ial
Ġë§Ĳ ìĿ´ì£ł
Ġd uration
ë§ Ļ
Ã© es
Ġad j
Ġlabel s
sche ma
ĠB oston
Ġplatform s
ë¹¨ ë¦¬
ot ton
è ®
Ġv eter
Ġreport ing
Ġdef e
é Ļ
Ġwin ner
Ġd rawn
Ġtrans formation
ĠëĽ° ìĸ´ëĤľ
ìĹ¬ ê¸°ëĬĶ
ê°Ĳ ìŀĲ
ë¯ ¿
ĠE p
Ġfact s
Ġepis ode
qu es
Ġeng agement
f b
ĠThe orem
ĠW alk
ĠC ur
Ġhe ll
Ġì¹Ń ì°¬
Ġë§Ī ëĿ¼
by tes
T ube
ëĭĪ íĦ°
ìĸµìĽĲ ìĿĦ
íģ´ ë¦Ń
P op
Ġcon vent
ìĪĺ ìŀħ
Ġë¯¸êµŃ ìĿĺ
Ġneg oti
ë§Ĳ ìĿĦ
Ġ" ,
Ġreg ulations
ĠíĪ¬ ìŀħ
e b
Ġst unning
ìľ Ĺ
Ġì§Ī ë³ĳ
Ġhon or
ĠS che
Ġìłķ ìĿĺ
Ġexpos ure
ãĦ ´
Ġë¶Ģëĵľ ëŁ¬
G l
Ġpl ain
ìľł ëŁ½
Ġany way
Ġder ived
n ed
il arly
Ġì¦Ŀ ìĥģ
SS ERT
ession al
Ġrecord ing
Ġfl our
Ġì°¾ ê¸°
ê´ Ħ
In ternal
de velop
Ġen ables
E ven
Ġy esterday
Ġëĸ¨ìĸ´ ì§Ħ
Ġê³µë¶Ģ ë¥¼
Ġë¬´ ë¦İ
ĠPro perty
Ġnew ly
= [
Ġd uty
ê±´ ìĿĦ
Ġcol le
ĠChild ren
lay er
Ġeng age
ĠVirgin ia
ëĿ¼ íĶ¼
ìŀĲ ê¸Ī
ĠT urn
ìĿ´ ëķĮ
Ġcris is
ĠíĿ ī
Ġë²ł íĬ¸ëĤ¨
ĠS aint
ĠìĮ Ī
ĠS C
Ġê°ķëł¥ íķľ
ë¡ł ìĿĦ
Ã ¸
ĠG al
ìĥī ìľ¼ë¡ľ
H igh
ĠìĥĿ ê¸¸
Ġíĸ Ħ
Ġprin ciples
Ġfunction ality
ĠëĬĲëģ¼ ëĬĶ
Ġë¶Ħ ë¥ĺ
ĠìĽĲ ìĿ¸
L INE
ì²ľ ìķĪ
Ġfundament al
b its
Ġearn ed
ë¹ ħ
Ġimpro ving
ê°ĳ ìŀĲê¸°
Ġtr igger
d k
p ons
Ġt ank
ĠìķĮëł¤ ì¡Įëĭ¤
Ġreput ation
ond er
( __
Ġë²Ħ ìĦ¯
Ġdis appoint
Ġg ifts
ĠìĤ¬ëŀĮ ëĵ¤ìĹĲê²Į
Ġìľł ëĭĪ
ĠìĭĿ ìĤ¬ë¥¼
Ġtal ent
Ġì¢ĭìķĦ íķ´ìĦľ
en ess
Ġsav ings
Ġë³´ ìĬµ
ab out
Ġelect rical
Ġtrans late
Ġt error
Ġíķ´ ìĦĿ
is ch
Ġcon scious
b ot
ë£Į ê°Ģ
ì½Ķ ëĵľ
ê³µ ìŀ¥
Ġs ig
ë¶Ģ ìĻĢ
sem ble
Ġlog o
Ġëĭ¤ëħĢìĻĶ ìĸ´ìļĶ
s ymbol
ë¨¹ ìľ¼ë©´
at ar
Ġinst ances
D uring
íĥĢ ìĿ´ìĸ´
Ġëª¨ë¥´ ê²łì§Ģë§Į
ĠëĤĺ ìĺµëĭĪëĭ¤
m aterial
Ġunder stood
ìĺģ ìĸĳ
ĠëĤ´ ê²Į
ìĦ¸ ë¡ľ
ul f
Ġb low
Ġf ing
ĠÐ³Ð¾Ð´ Ð°
Ġg allery
ëĭ¨ ìľ¼ë¡ľ
qu ality
ĠìĦ± ìĿ¸
ic er
Rep ository
ëĤĺ ìĻĢ
Ġprim arily
ìĭ¬ ìľ¼ë¡ľ
Ġb ug
íģ´ ë¦¬
ĠíĶ¼ë¶Ģ ê°Ģ
Ġneigh b
Ġë³´ ì¦Ŀ
ëĵľ ìľĦì¹ĺ
Ġìľł ìĤ°
ĠëĮĢ íķĺìĹ¬
not ation
Ġconf irmed
ĠB ow
ëħ Ķ
ê²½ ìĥģ
ĠK n
rib le
com ponents
ê²¼ ëĭ¤
Ġup coming
ud i
ì£¼ ìħĶìĦľ
P H
ĠFin ally
Ġì¶ ĺ
Ġless ons
r ating
j et
z o
Ġìłģ ìĿĳ
HER E
Ġd ent
er ning
ĠIre land
ĠëĬĲëĤĮ ìĿĺ
ĠëĲĺ ëĬĶëį°ìļĶ
Ġstrong ly
in ant
ìķ½ ê°Ħ
ä ¿
Ġentre prene
anc ial
ĠìĿĢ ê·¼
w d
Ë·', Ë·
Â· Â·
Ġrequire ment
Ġpercent age
F D
ĠëĤ «
âĹ Ĩ
æ Ģ
ìŀĲ ìľł
Ġ Ñħ
Ġd in
Ġl ies
ëħĦ ê¹Įì§Ģ
Ġíľ´ ë¬´
P N
Ġë¡ ¤
Ġë¯¼ ì£¼
Ġconf ident
Trans action
ĠìĿ´ìļ© íķĺìĹ¬
Ġmanufacture r
ì¨ Į
] :
Ġindic ates
ëĮĢ íĺķ
ê°Ģ ì§Ģê³ł
ĠO lymp
Ġwor st
or ial
a us
C ond
spring framework
Ġfound ed
Ġdisc ipl
Ġtrad ition
M ed
Ġa st
ìłķ ìĥģ
ĠìĦł ë°ľ
ĠíĴĪ ì§Ī
Ġche cks
íķĺ ìħĶìķ¼
Ġne ither
ëıĻ ëĦ¤
Ġf ault
Ġìĸ´ ëĳĲ
M edia
Ġviol ence
Ġë§Į ëĵľ
ĠëıĻ ë°ĺ
Ġf ishing
Aut hor
ìĤ° ìĭľ
fl ags
ì§Ģ ì»¬
ĠëĮĢíĨµëł¹ ìĿ´
ĠìĿ´ ë»Ĳ
Ġacc ord
ĠV ill
Ġcare ful
Ġcont rolled
Ġfr ust
bl ank
ë¡ľ ê°Ģ
ĠíħĮ ë§Ī
Ġon going
Ġas set
ĠìĦ¼ íĦ°
ont o
ĠìķĪ ë³´
Ġê°ķ ì¶Ķ
ëŁ¬ ë¸Ķ
Con f
ëĶ° ëĿ¼ìĦľ
ĠìķĦë¬´ ê²ĥëıĦ
Ġinvol ves
Ġtrend s
ex pr
ĠëĳĲ íĶ¼
au ge
ĠíĮĮ ìĿ¼
ĠL ittle
Ġdat aset
ĠHen ry
c n
ê¹ ¥
ì°¨ ê²Į
hold ers
Pack age
orge ous
Sec urity
Ġìĺģ ìĥģìĿĦ
ĠíĨł ë§ĪíĨł
ìº ¡
if er
ĠìĿ´ ìĻĢ
Eng ine
Ġmanag ing
Ġíģ¬ ë¦¬ìĬ¤ë§ĪìĬ¤
enn is
Ġë°ľìĥĿ íķĺëĬĶ
Ġgu itar
ir th
ëĮĢ ìĻĢ
ë²ħ ìĬ¤
h ide
Ġíĸ¥ ìĥģ
ĠN av
ĠìĬ¤ ì¼Ģ
str a
Ġamount s
M ock
sup er
Ġnecess arily
ĠìĬ¤íĭ° ì»¤
Ġb in
ibr aries
ha ust
ê·Ģ ìĹ¬
IT ION
Ġê²½íĹĺ ìĿĦ
v in
ĠëıĮìķĦ ê°Ģ
ãĢ Į
Ġëĭ ®
ìłķ ëıĻ
Ġcon version
ĠStud io
ĠN a
ê° ĸ
ens us
a ire
ĠCl oud
ĠF ederal
~~ ^^
Ġb is
ĠC urrent
ĠB G
Ġì¿ł íı°
ign ment
Ġì¦Ŀ ê±°
Ġclass room
ëĵľ ë¦¼
Ġgener ic
Ġë¹Ħ ì£¼ìĸ¼
ê°Ģê²© ìĿĢ
) ->
Ġì§ĢìĨį ìłģìľ¼ë¡ľ
ud es
Ġdef end
Log ger
ìĿ´ì§Ģ ìļĶ
Ġcert ificate
fin ite
Ġg ard
Ġëªħ ìĿĺ
Ġmag azine
im m
ĠìķĦ ëĤ´
j ob
ì¸µ ìľ¼ë¡ľ
Ġìŀ¥ ìłĲìĿ´
ĠìĿĺ ë¢°
=" @
Ġobject ive
ìłľ ìĹĲ
Ġmod er
ment e
Ġreturn ing
Ġlos ing
... ?
Ġê°ĢëĵĿ íķľ
ĠAr my
ìĦ¼ íĬ¸
ĠìŀĦ ìĭł
ill iant
prot obuf
Ġl ad
Ġdevelop ers
Ġëį° ë¦¬ê³ł
t ex
ìĿ¸ ìĥĿ
Ġcur ve
Ġë¨¸ ë¦¬ë¥¼
Ġëĵ Ŀ
Ġë¹Ħë¡¯ íķ´
Ġëª° ëĿ¼
f x
ìĦ± ìľ¼ë¡ľ
Ġ ÂłĊ
íĮĮ ìĿ¼
Ġìŀ¬ ìĥĿ
íĻĶ ìĿĺ
ìĬ¤íĨł ìĸ´
Ġhealth care
eng ine
ap ing
Ð° Ð¹
Ġê¸° íļĮê°Ģ
E V
Ġv a
Ġ< -
ĠëĿ¼ ë©´
D T
w an
ĠB Y
Ġëĸ¨ìĸ´ ìł¸
Ġë°ľ ëĭ¬
ĠìĨĲ ìĿ´
ë°° ë¥¼
Ġvol t
Ġë©´ ìłĳ
Ġ{ };
Ġshould n
Ġant icip
ĠEn vironment
Ġb atch
Ġì£¼ ìĭľë©´
ac on
rec ord
Ġë½ Ģ
Ġë¯¼ ì£¼ëĭ¹
w hat
Ġ[ ];
G lobal
Ġìī Ĳ
ĠìłĦì²´ ìłģìľ¼ë¡ľ
Ġl in
ê´ĳ ê³ł
Ġì¦Ĳ ê¸°ëĬĶ
Ġê¸Ī ìļĶìĿ¼
ìĺ¤ íĽĦ
e h
ĠíĥĢ ìŀĦ
ì ŃĪ
ĠìĹĶ ì§Ħ
Ġlog in
ĠíĬ¼ íĬ¼
Ġtrack s
Ġsatisf ied
S ER
Ġê·¸ ë¦¬ìĬ¤
Ġê³µ ëª¨
Ġsens itive
pe ction
ac ious
Ġê» į
requ ired
Ġde leg
Aut o
å ¿
Ġì¢ĭ ëĦ¤ìļĶ
Ġë°Ľ ê²Į
press ed
Ġë¹Ħë¡¯ íķľ
ra pe
ĠCont ent
ëĭĪ ê°Ģ
ĠÃ ¼
o a
Ġbon us
Us ers
ĠìĿ¸ ê³µ
ìĦ° ëĭ¤
i ams
ëıĦ ìĸ´
Ġun ion
Ġcommon ly
ìĿ¸ ê±°
ë³µ ìĿĦ
Ġas sembly
res et
Ġca using
ì§ĳ ìĿĢ
ĠSh ould
Ġref resh
ëĵ £
ĠìĥĿ ëªħ
Ġë¬´ ì§Ģ
ĠìĦ¸ ìĽĮ
a wn
Ġd ownt
amp ion
Ġìľł ë°ľ
ĠCol umb
er as
ìłģ ìĿ´ëĭ¤
ĠìķĬ ê¸°
cl uster
v et
pl ugins
ĠS ource
() ).
Ġdis appe
/ .
Ġëŀ ľ
ì¹ĺ ìĹĲ
get Element
íĮ ģ
Ġì¶Ķ ì¶ľ
ĠìĻĶ ìĬµëĭĪëĭ¤
ìĨ ¥
Ġf ib
Ġt ourn
ëŀ ´
Ġcr ime
ĠS at
Ġëĵ¤ìĸ´ê°Ģ ë©´
D ouble
Ġë³´ ì§Ģ
Ġign ore
ĠìłľíĴĪ ìľ¼ë¡ľ
ad ed
Ġê¿Ī ìĿĦ
@ @
J oin
key word
ĠCo ast
Ġatt ended
(" #
w orth
Or ig
ĠOr ig
ìĭľ ì§Ģ
êµ¬ ë¦¬
Ġh urt
ê¸° íķľ
íĮ¨ ëĵľ
="../../../../ ../../
Ġcamp us
Ġposs ess
Ð· Ð¸
[ $
Ġë¶ĢëĵľëŁ½ ê³ł
Ġë¦ ½
Ġd ual
ĠëĮĢíĳľ ìłģìĿ¸
Ġíķł ê¹Į
ĠC ore
R oute
ìĥ Į
ëª¨ëį¸ ë§ģ
Ġìļ° ìļ¸
ĠJ eff
Ġprint ing
ÐµÐ½Ð¸ Ðµ
b n
Ġì²ľ ìķĪ
F unc
ìŀĲ ë©´
ĠãĢ Į
ĠëĮĢ ë¦¬
Ġst uck
Ġëķ Ģ
ĠL ow
Ġstrateg ic
ay a
ìĺ¤ ë¦¬
ìĺ¨ ëĿ¼ìĿ¸
Ġwrit ers
ud o
cd ots
ê°Ģ ëģĶ
Ġìĥ ´íĳ¸
Ġcomb ine
İ Ħ
Ġm olec
ĠJ on
ĠìĿĺê²¬ ìĿĦ
Ġcirc uit
Ġì¤ĳìĨĮ ê¸°ìĹħ
Å Ħ
Û Į
G raph
íķ ¸ëĵľ
ĠS ometimes
Ġlist ing
ĠÐ´ Ð¾
ìĿ¼ ê¹ĮìļĶ
ag ues
Ġlov es
G reat
Ġëĵł ëĭ¤
Ġpe ak
Ġnat urally
ce ive
Ġ[ [
ìĥ¤ ë¸Į
Ġtrans actions
Ġê±± ìłķìĿ´
Cont act
êµ° ìĿĺ
Ġì¤ ¬
ĠÐ ĺ
ĠH ope
Ġhyd ro
Ġê³ł ê¸°ë¥¼
ur se
Ġde but
Ġë§Į ëĳĲ
__ _
ê²ģ ëĭĪëĭ¤
ut en
ĠK en
P si
ul um
Ġìłľ ëª©
Ġíĺ¸ íĿ¡
êµ¬ ìĿĺ
Ġinc ident
Play er
") ]
Ġvac ation
ëĵľ ëĿ¼ë§Ī
ðŁ Į
ble m
ĠCh ief
Ġë§Į ëĤ¨
ĠìĨĮ ê³łê¸°
Ġintrodu ction
ĠN ight
Ġì£¼ ê¸°
Ġshop s
ĠìĺĪ ìĪĺ
È Ļ
ĠSm all
ĠëıĪ ìĿ´
Ġprepar ation
Ġê³Ħ ìĹ´
in ity
ĠE V
ìĹĲ ìĿ´
) },
ìĨĮ ìĹĲìĦľ
Ġyoung er
ĠSystem s
Ġinv ited
Ġform ation
ĠCol lection
Ġexp enses
ĠM rs
Ġìľł íĸī
Ġst ir
Ġë§Ĳ íķ´
ìŀĲ ìĿ´ëĦĪ
Ġê·¸ ê²ĥìĿĦ
Ġpar allel
Ġcomplet ion
ëĤĺ ì¤ĳìĹĲ
Ġr u
ìĭ¤ ìĿĢ
ag g
ĠìłĪ ë°ĺ
T T
ìĭ¬ íķľ
ìĦ± ë¶Ħ
Ġag ric
t ools
Ġcommun ications
ĠëĨĴ ìĿ´
ĠD igital
Ë·& Ë·
ëĮĢ ìļĶ
ëª¨ ìĸĳ
f ly
ë³¸ ë¶Ģ
U ST
Ġre action
ìħĶ ì¸ł
Ġê¸°ëĭ¤ ë¦¬ê³ł
Ġcelebr ate
Ġê±¸ ë¡ľ
Ġi P
ĠìĿ´ ìĻ¸
Ġstre ets
L ike
.. !
Ġmechan ism
Ġcert ified
) Ë·
ëĴ ·
Ġê·¸ëłĩ ì§Ģ
æ ł
ĠíĦ ±
Ġcrit eria
ìĤ´ ì§Ŀ
Ġl ang
Ġìĥģ ì§ķ
Ġult imately
ĠìĿ¼ ì£¼ìĿ¼
íĹ ¬ìĬ¤
Ġstat istics
Ġcap abilities
ìľł ê°Ģ
ĠGu ide
Ġì²ŃìĨĮ ëħĦ
ĠFranc isco
To String
Ġë²ł ìĬ¤íĬ¸
ĠR O
ent h
ĠIs lam
VER SION
Ġw al
íķĺìĭľ ê¸¸
F P
Ġperman ent
Ġb ars
ĠíĮĮ ìĽĮ
ĠìķĦëĭĮ ëį°
Ġê°Ģìł¸ ëĭ¤
let ter
Ġph arm
Ġë© ¸
íİ¸ ìĿĺ
Ġlap top
Test s
ìŀ¬ ê°Ģ
L ock
ĠR am
ĠìľĦ ë°ĺ
ê¾¸ ë¯¸
od ge
ĠìĦłìĥĿ ëĭĺ
P ATH
ìĹĲìĦľ ë§Į
ìŀ¬ ë¡ľ
Ġappe al
ìĦ¸ íĥģ
Ġì¢ħ ìĿ´
en umer
ë°© ìļ¸
Ġê·¸ëŁ° ê°Ģ
M ember
íķĺ ëĭµëĭĪëĭ¤
ëł¥ ìľ¼ë¡ľ
Pro p
ĠíĬ¹ ìľłìĿĺ
ĠëģĿ ëĤ´
ìĿ´ ìĹĪìĬµëĭĪëĭ¤
ul ating
ĠF ar
Det ails
ìĦł ìĿĺ
ìĿ´ìłľ ëĬĶ
íĻľ ìļ©
ĠÃ© s
ìĺĢ ì§Ģë§Į
Ġfeel ings
ĠìĹĨ ìķł
ëĤĺ ë¥¼
end a
Ġfore ver
Ġjust ice
ĠìķĬ ëĤĺìļĶ
Ġval ign
Ġquant um
Ġassert Equals
ĠëłĪ ìĭľíĶ¼
ĠKore a
U C
Ġple asure
Ġì ĩ
Ġìĭ¶ ëĦ¤ìļĶ
P y
Ġë¯¼ ê°Ĳ
br id
ì¹´ ë©ĶëĿ¼
ak ao
ĠìĿĺ ë¬´
Ġpres ents
ë§ĮìĽĲ ìĿĦ
Ġk il
ìĨĶ ì§ģ
l ich
ì¹´ ìĿ´
Ġphot ograp
Ë· [
Ġíķĺ ìĭľë©´
ĠAb out
ĠìķĮëł¤ ìł¸
Ġtom orrow
t k
Ġbas ically
ì°¨ ë¡Ģ
Ġpotential ly
RE G
ìĪĺ ìĺģ
A x
ĠìĨĮ íĴĪ
Ġlog ic
ĠëĲľ ëĭµëĭĪëĭ¤
ib li
Ġsudden ly
(' /
fil ename
ĠCarol ina
S ave
Ġd ental
h ar
i ors
? >
Ġb ird
íĺķ ìĿĺ
Par se
Ġcab in
Ġcommit tee
ĠMore over
ĠíĮĮ ìļ°
] =
AR D
Ġthous and
ist ing
ĠH on
Ġíĥ ķ
à ¹
) =\
ĠDiv ision
^{ -
a ver
ol i
ĠíĮ Ŀ
íĤ¤ ëĬĶ
íķ¨ ìľ¼ë¡ľìį¨
Ġëľ¨ ê±°ìļ´
ì¹ «
Ġtransport ation
Ġdis abled
Ġplace holder
r an
b ell
Ġìłģëĭ¹ íŀĪ
Ġs ie
ĠD ub
Ġê°Ĳ ê°ģ
S V
ĠëĦĺ ê²Į
Trans form
ĠCh ris
Ġfit ness
Ġin ch
ĠìĪĺ ìĹħìĿĦ
c uss
Ġj un
Ġì» ¬
Ġcal endar
ĠR om
Ġspec ify
Ġêµ¬ìĦ± ëĲĺìĸ´
... "
ìľĦ ìĹĲìĦľ
ĠCh air
z ero
ĠÐ¿ Ð¾Ð»
clos ed
enn y
Ġì° Ĳ
Ġëĥī ëıĻ
Ġfight ing
Ġconsider ation
ĠL ab
Ġë©Ķëī´ íĮĲ
ë°ľ ìłĦ
Ġm ath
edd ed
b ing
ĠT E
Ġcy cl
Ġíķĺ ìĸĢ
ĠB ible
ëĤł ìĶ¨ê°Ģ
Y Y
ĠS ym
Ġaccompl ish
ĠB lo
Ġ$ .
ĠìĿ´ê²ĥ ìłĢê²ĥ
ĠìĨĮë¹Ħ ìŀĲ
Ġë¨¹ ìľ¼ëĭĪ
ì§Ģ ìĹĲìĦľ
ê²½ ìĿ´
Ġsuggest ions
ex tern
d ig
í ľ
ĠìķĬìķĺ ì§Ģë§Į
ÑģÑĤ ÑĮ
Ġcl imb
Ġque ue
Ġeval uate
ĠâĻ ¡
includ ing
z es
Ġcom plicated
w i
ì²Ń ì£¼
T otal
ĠB al
Ġw allet
Ġup grade
âĶ ģ
Ab stract
is ely
ĠíĺĪ ìķ¡
ĠìķĦìĿ´ ë¥¼
ĠV ari
Ġsub mitted
ĠM obile
ĠìĬ¤ íĶĦ
Ġfil ed
Ġë¬¸ ìŀĲ
Ġìľł ìķĦ
Ġë§ŀ ìĿĢ
Ġìłľê³µ íķĺëĬĶ
Ġë§ĽìŀĪ ê³ł
Ġ( _
ĠíĻķìĿ¸ íķ´
æ °
Ġcol on
Ġë§Īì°¬ê°Ģì§Ģ ë¡ľ
Ġì¼Ģ ìĸ´
Ġt ack
ìĬ¤ íĶ¼
Ġê²Ģ ìĿĢ
Ġë¹ Ĺ
ìĿ´ìķ¼ ê¸°
net work
Ð¸ Ð¼
! [
Ġì§Ģ ëĤ´
Ġcount y
ĠW i
Ġì° ľ
ìŀ¬ ìĿ¸
Ġì¶Ķ ìłķ
Ġdriv en
íķĺ ëĬĶëį°ìļĶ
Ġë°ĶëŀĮ ìĿ´
ìĨĮ ë¹Ħ
íĳ¸ ëĵľ
s n
g on
Ġnav igation
Ġst ead
Ġref erences
Ġê°Ģ ì£½
pl ant
G en
ĠP ot
Ġegg s
Ġrec over
ë» ¤
ĠD VD
ĠíĨµ ì¦Ŀ
ĠìĽĲ íķĺìĭľëĬĶ
Ġg enu
ĠY et
ê³µ ê¸ī
Rem ove
åľ ¨
G ame
t wo
Ġë¶Ħ ìĿĢ
ĠP ython
Ġredu cing
Ġdet ection
ÑģÐº Ð¾Ð³Ð¾
Ġf aces
Ġb old
ĠG ames
} _{Ë·
Ġtr ig
å ½
Ġres et
Ġn arr
ĠíĨµ íĻĶ
Î ±
ë¶ģ íķľ
Ġcommun icate
Ġ Å
Ġb ags
ĠìķĪìłĦ íķĺê²Į
RE AD
Ġëĭ¨ ìĸ´
Ġê·¼ ê±°
ĠìĦ¤ëªħ ìĿĦ
Ġíķ Ģ
un es
ìłķ ìĽĲ
Ġa ux
Ë·* Ë·
Ġre fr
Ġserious ly
Ġhistor ic
Ġprodu cing
ëį §
Ġë³´ ì¡°
Ġê±° ì§ĵ
ĠJose ph
Lay er
ĠíķĺëĤĺ ëĬĶ
p refix
Ġìłģ ë¦½
Ġgr an
Ġun s
Ġê´Ģ ìłĪ
Ġim plies
Ġen force
ìĺ¤ ë¥¸
Ġmax im
ĠìŀĲ ë³¸
ĠìĤ¬ìļ© íķĺìĹ¬
ëħ¸ íĬ¸
Ġì¿ ¨
Ġm ob
Ġre q
íķĺìĭľ ê¸°
Ġìħ Ķ
as i
Su ccess
Ġscen ario
Ġoff ices
ĠìľĦì¹ĺ íķĺê³ł
Ġ' <
ĠëĦĺ ìĸ´ê°Ģ
Ġconcept s
ë£¨ ìħĺ
Ġte en
n orm
hand ler
Ġmar ks
ì²´ íģ¬
Sc roll
p ow
Ġrespons es
Ġê²ĥ ë³´ëĭ¤
Se ction
Ġte ch
ĠíĸĪ ëįĶëĭĪ
Ġrecogn ition
c ou
ëĮĢ ê¸°
Ġav ailability
ĠDan iel
Ġincreasing ly
Ġview ed
ì¢ħ ìĿ¼
ëł¸ ëįĺ
Ġê±¸ ì³Ĳ
Ġover w
ìĤ¬ ìŀ¥ëĭĺ
Ġmill ions
ele ase
ë³´ ë©°
ĠM ir
Ġhead ers
Ġle ct
Ġëĳ ¥
ë³¼ ë§Įíķľ
ĠJew ish
Ġê°Ħ ìŀ¥
íĺĢ ìĦľ
Ġcon j
ĠĠĠĠĠĠĠĠĠĠĠĠĠĠĠĠ ĠĠĠĠĠĠĠĠĠĠĠĠ
ĠìŀĬ ì§Ģ
Ġpow der
Ġstr ange
ĠìĿ´ìļ© íķ´ìĦľ
ĠìĨĲ ê°ĢëĿ½
'] )
ë¬¼ ì§Ī
ĠëĥĦìĥĪ ê°Ģ
Ġattract ive
ë¶Ģ ëĵľ
Ġtr im
Ġì£¼ ëıĦ
Ġìłľ ëıĦ
T erm
Ġtrack ing
ĠZe aland
s b
Ġsecond ary
Ġê³ł êµ¬ë§Ī
ĠíĬĢ ê¹Ģ
Ġou ter
Ġcop ies
Ġmin ing
Ġìŀĺ íķĺëĬĶ
ĠM essage
u et
Ġl anguages
g ov
Ġphen omen
Ð Ķ
S cope
Ġmer ch
ìłĦ ìĭľ
Ġstreng then
ĠìŀĲ ëĿ¼
Ë·) {
Ġwat ched
w ing
own er
ĠJohn son
Ġíģ Ĳ
ut ors
Ð» Ðµ
ĠSe a
Ġlimit ations
Ġsh arp
: !Ë·
Ġregard less
J ohn
ìłķ ê³¼
ĠìĤ¬ìļ© íķľ
Ġa z
ĠíĶĦë¡ľê·¸ëŀ¨ ìĿĦ
ĠëĤĺ ìģľ
Ġworks hop
ì¹ľêµ¬ ê°Ģ
EN SE
å¤ §
view s
medi ate
Ġnuc lear
log ger
Ġëĵ± ê¸ī
Ġwood en
ëĸ ł
Ġfol ks
an es
li ament
Ġê³Ħíļį ìĿĦ
ìĤ¼ ê²¹ìĤ´
Ë·], [Ë·
Ġopt imal
Ġë¨¹ ìĿĮ
E lements
Ġê°Ģ ê¹Ŀ
ê´Ģ ìĹĲ
ìĿ¸ ìĹĲê²Į
ĠìłĢíĿ¬ ëĬĶ
Ġcl othing
Ġpep per
ĠSp irit
ìĺ¤ ëĭĪ
ĠìĹĲ ëĦĪ
ateg or
ĠĠĠĠĠĠĠĠĠĠĠĠĠĠĠĠ ĠĠĠĠĠĠĠĠĠĠ
ĠD id
con sole
Ġíķ´ ìĨĮ
Ġme als
ì¹ ©
Ġgo ogle
ĠAre a
Ġvul ner
B ER
M OD
Ġcrim inal
êµŃ ìĿĢ
ëĮĢ ë¶Ģë¶Ħ
book s
ĠS outhern
âĨ ĳ
Pat tern
ĠN ever
ëĿ¼ìĿ´ íĶĦ
Ġê°Ĳ ìĦ±
ëĦ ¥
ct r
Ġhum ans
ĠB ob
Ġsk ip
xi ety
ìĦľ ìĿĺ
Ġr ating
ĠìĿ¸ ì§Ģ
ÑģÐº Ð¾Ð¹
ĠìĨĲ ëĭĺ
Ġconstruct or
ë§ŀ ì¶¤
JE CT
ly wood
ĠB ul
Ġgrad uate
Ġpro port
ol id
ìłģ íķľ
ìĬ¤ íĶĦ
Ġë³´ ìĿ¼
ìĦ¸ ê¸°
ĠìĦ± ë¶ĦìĿ´
rib ed
C am
ë¥ĺ ê°Ģ
ë§¤ ìļ´
Ġbir ds
Ġst ain
ìģĺ ê²Į
Ġcalcul ated
ĠìĦ¸ ìĽĶ
Ġins ight
h u
Ġint ention
L im
um a
ul ator
ĠëłĪ ëª¬
íĸ¥ ìĿĦ
Ġpath s
ĠìłĦ ìĽĲ
ĠìĽĶ ëĵľ
par ser
) ^Ë·
ĠEx pl
Ġy ard
j ango
pro v
Load er
Ġcr usher
ĠëĲĺ ë©´ìĦľ
ĠM ike
ĠA ri
ĠìĹ° ìĺĪ
b at
Ġìĸ´ ë§Ī
m ic
Ë·" )
ìĭľ ëĤĺìļĶ
ìĿ´ ëĵł
Ġun expected
G C
Ġdim ensions
******************************** ********************************
Ġìĭ¬ íĶĮ
aj ax
Ġë°ľ ìĸ¸
íĸĪ ìľ¼ëĤĺ
In v
ìĻ¸ ìĦł
Ġa thlet
Ġconstruct ed
FF FF
Ë· âĢ
ì°½ ìĽĲ
Ġauthor ities
ĠW orks
Ġë°Ķ ë¥¸
Pass word
ì¡° ë¦¼
F ORM
ëł¥ ìĿĺ
ĠìĻ¸ ì¶ľ
Ġìĭľê³µ ìĿĦ
A SE
Ed itor
Ġë©Ķ ìĿ´íģ¬ìĹħ
Ġapp end
Ġcan cel
Ġal ive
Ġattor ney
ëĬ Ħ
em e
ë¬´ ì¹¨
Ġì» ·
ë§¤ íĬ¸
ĠH ospital
Ġim plements
Gener ic
ë¹Ħ ìķĦ
Ġìĭľ ëĤ´
En ter
Ġë°ĶëŀĮ ìĹĲ
Ġë§Ī ìĤ¬ì§Ģ
ĠK now
Ġcontrib utions
ĠJ ones
Ġdump ster
Ġassoci ation
ì§Ģê¸Ī ê¹Įì§Ģ
Ġhead s
Ð°Ð» Ð°
web pack
ĠìłķëıĦ ëĬĶ
Ġëĭ¹ ìŀ¥
ë³´ ë¥¼
ev al
Ext ension
Ġì« Ħê¹ĥ
Ġm es
Âł ĠĊ
Ë· [Ë·
Ġp ink
Ġtax es
Ġc ute
raz il
Ġê º
ëŀĳ ìĿ´
íĪ ¼
Ġë³¼ ìĪĺ
Ġë§ĽìŀĪ ìĹĪëĭ¤
c atch
Ġë©° ì¹ł
s he
ë²Ħ íĦ°
Ġext reme
ì¹¼ êµŃìĪĺ
Ġout come
det ails
clos ure
Ġmem ories
Ġëĭ ĺ
Ġsn ap
sub sc
Ġgrant ed
ìĤ¬ ê±´
ĠC at
Ġhop ing
ĠM ov
Ġë°ĺ ëł¤
U ES
ìĦ± ê³µ
ëĵ± íķĻìĥĿ
Ġì¦Ĳê²ģ ê²Į
íĸĪ ëĦ¤ìļĶ
Ġê·ľëª¨ ìĿĺ
ì°¾ ìķĦ
ìĪĺ ìľ¡
pro fit
Direct ory
Ġt v
Ġê°ĸ ì¶ĺ
ê²¨ ìĦľ
Ġíķĺ ëįĶëĿ¼ëıĦ
ìĪĺ ìłľ
str aint
E P
ìļ°ë¦¬ ëĤĺëĿ¼
ĠìŀĲ ê³ł
Ġphot ography
ãĤ ī
ì½Ķ íĮħ
Ġsustain able
ĠìĹ° ë§Ĳ
x t
int erest
Ġevery where
ĠB all
Ġstr uggle
Ġcover ing
ost ic
Ġbehavi our
Ġdec ade
íĦ ±
Ġë§İ ìķĺëĭ¤
Ù Ĩ
Ġì¢ħ ë¡ľ
ip her
ì¹ĺ ìĿĺ
t ags
iter ator
Ġre in
.. )
ìŀĲ ì£¼
ëĤł ìĶ¨
Ġëĭ¤ëĭĪ ëĬĶ
Ġëĭ¹ íĻ©
Ġ é
X ML
DE BUG
ĠìļĶ ìĨĮ
nd ef
Ġre ly
ix els
p are
ĠO k
ìķĺ ê³ł
Ġf inger
Ġp ra
Ġmanufacture rs
":" Ë·
ĠíĹĪ ë¦¬
Ġse ats
act iv
Reg ister
Ġë§Ĳ ìĹĲ
Ġë¨¸ ë¬¼
ëħ¸ ëıĻ
Ġë³¶ìĿĮ ë°¥
less ly
ëĸ¡ ë³¶ìĿ´
íķ´ ìĻ¸
serv ices
ìĤ° íĻĶ
ìļ° ëŁ¬
ë°Ķ ëĿ¼
ĠF L
Ġobvious ly
ĠQue en
Ġê°¤ ëŁŃìĭľ
Ġëį ©
ì¹´ ëį°
ĠìŀĪìĸ´ ëıĦ
Ġaf raid
ìķĶ íĬ¼
ĠInst all
Ġfind s
ìĬ¤ëŁ½ ê³ł
ĠëĲľ ëĭ¤ë©´
sh ared
ëĭ¤ ëŀĢ
Ġco eff
Ġill ness
s ed
M ET
ĠJ oe
ĠìŀĲ ë¦¬ê°Ģ
Ġconc erning
Ġwas h
ëŀĦ ê¹Į
if iers
íĥĢ ê³ł
ĠíĬ¸ ëłĮ
Ġm ile
ë³´ ìĭ¤
Ġmus cle
Ġìļ° ìĬ¹
ĠR os
Ġf estival
M R
Ġcook ies
ĠStand ard
av or
ĠK r
W H
êµ¬ ìĦ±
ĠíĨ ¤
typed ef
íı¬ ìĭľ
Ġsuff ering
P ub
Ġcan cell
ĠëĤ´ ëĬĶ
Fig ure
ĠìłĲ ìĹĲìĦľ
ë§Ľ ìĿĦ
ro ph
Ġclass Name
: #
\ '
ĠìĿ´ íĭĢ
ĠëŃĲ ê°Ģ
ul pt
ĠìĦ¸ ì¢ħ
call ed
ìķĦë¬´ íĬ¼
Ġë§Ĳ íķł
it led
viron ments
ìĿ´ íĮħ
Ġì±Ħ ê¶Į
err ing
ë©´ ëıĦ
ì¦Ī ë¥¼
Ġì¢ĭ ì§Ģë§Į
ì¹ µ
Ġê°Ĳ ìķĪ
Ġut ility
íĺ Ķ
Ġì¤ĳ êµ¬
Ġeng aged
ste in
Ã¤ t
Ġaward ed
ĠìĦ¸ ëł¨
ĠV ideo
Ġì¢ħë¥ĺ ê°Ģ
ĠE gypt
Ġp i
ìĬ¤ íı¬
Ġcons erv
ĠH P
ë¯¼ ì£¼ëĭ¹
Ġunder lying
Ġ{ '
Ġë¶ īìĿĢ
ĠìĦ¸ ì²Ļ
Ġc razy
ĠìĤ¬ëŀĮ ëĵ¤ìĿĦ
Ġìľ Ī
Ġalong side
y o
ë¦¬ ì½ĺ
ff f
Ġíķĺ ëįĺ
Class es
fe ature
ëļ ±
%% %%
Wh o
ë¶Ħ ìĦĿ
sh op
ĠìĥĿê°ģ íķĺë©´
ĠìĿ¸ ê¸°ë¥¼
ìĭľê°Ħ ìĿĢ
ĠëģĿ ëĤľ
h d
Select ed
Ġload ing
ë¶Ħ ìłķëıĦ
Ġë¬´ìĹĩ ìĿĦ
ĠìĹ° ì£¼
exec ute
ì½ľ ëĿ¼
Ġëĵ¤ ìĹĪìĸ´ìļĶ
ĠWAR RAN
Ġê·¸ ëĵ¤ìĿĺ
em on
ëĤ¨ ëıĻ
ĠëĨĢ ëĿ¼
ĠíĨł ì§Ģ
Ġrecip es
ĠHT TP
È Ľ
íĶĮëĿ¼ ìĽĮ
ìĭ¶ ëĭ¤
text width
ìĽĲ ë£¸
ĠìŀĲê²© ì¦Ŀ
ant i
Ġt one
C ategory
Ġë¯¸ ì¹ľ
friend ly
Ġtem porary
ĠëĲľ ìŀ¥
r ick
ĠìĪĺëıĦ ê¶Į
ĠìĤ¬ìļ© íķĺë©´
ed u
ĠRe act
Po inter
ì¡° ë¦¬
Ġë¶Ģíĥģ ëĵľë¦½ëĭĪëĭ¤
Ġê²½ ë§¤
ĠW at
ì»¤ ë¦¬
Ġê·¹ ë³µ
s z
ë° ı
Ġíİ Į
Ġì²Ń êµ¬
ĠìĦľìļ¸ ìĭľ
Ġìµľ ìłģ
Ġë°ľ íĸī
ëĬĶëį° ëıĦ
S W
ìĦ¸ ì¢ħ
Ġvict ory
ĠëĴ¤ ì§ĳ
ĠìĿ´ ìłł
Ġê¸°ë¡Ŀ íĸĪëĭ¤
Ġì»¤ ë®¤
Ġconst it
Ġintellig ence
ĠD ar
Ġì£¼ ìĸ´
Ġob lig
ĠPac ific
Ġp oker
Ġconsum ption
Ġê°Ī ë¹Ħ
ed ing
Ġíİ¸ìķĪ íķľ
ì ·
E vents
Ġê±° ìķ¼
Ġanim ation
Ġì»¨ ìħī
Ġp atch
ink ing
Ġpolit ics
Ad min
ĠìĨĮ ë¦¬ë¥¼
ĠP ut
Ġsubject s
Ġult imate
ar ters
Ġê³µ ìŀ¥
Ġìĺ¤ íĨł
Americ an
ay lor
k es
Ġgreat ly
Ġíķľë²Ī ìĹĲ
ëł¥ ìĹĲ
ĠìĿ´ë¯¸ ì§Ģë¥¼
êµ° ìĿ´
ĠÐ ¤
Ġsurpr ising
Ġweek ly
ìĤ´ ìĿĦ
ìļĶ ê±°
ier arch
riev ed
ë¹Ħ ë¹Ķ
Ġluck y
Ġinj uries
he im
ìłĦ ìĿĺ
Ġcharacter istics
ĠìŀĪìľ¼ ëĤĺ
Ġfin ance
aa aa
ĠA f
S pace
Ġsc ores
Fe ature
ĠëķĮ ìĹĲëĬĶ
b p
ê¹Ģ ë°¥
os ed
Ġíķĺ ì£ł
Ġs oph
Ġë§Ĳ ìĿĢ
Ġsem i
ëıĻ ìĺģìĥģ
Ġ riv
ê³ ½
Ġì§Ħíĸī íķĺëĬĶ
.. ^^
ëª¨ ê°Ģ
Ġìĭ¤ íĹĺ
Ġcou nc
ov en
ë¯¸ íĦ°
Att ributes
Ġìĥģíĥľ ë¥¼
arg o
the me
ar se
Ġprov ed
h m
Ġì¹´ íĨ¡
B Y
Ġê¸° ëıĦ
onym ous
Ñĥ ÑĢ
ĠR ights
Ġco al
Fl ags
Ġf its
íĻĶ ëĬĶ
Ë· {
ĠT ele
ìĬ¤ ëŁ°
ë²ł ìĿ´íĦ°
ĠIr an
ĠEngine ering
r ition
Ġìĸ ¹
Ġë¦¬ ëįĶ
'] ;
Ġs orry
Ġappro val
ÑĢÐ° Ð½
Ġcalcul ate
ĠìŀĲ ê¸Ī
âĢ ķ
Ġinvol ving
Ġê¹ľ ì§Ŀ
Ġlow est
ĠRequ est
Ġpoint ed
E mail
ĠíĴįë¶Ģ íķľ
Ð» Ð¾
Ġê°ķëĤ¨ êµ¬
ik ing
ê¸° ìŀĲ
Ġsol o
ìĹĲê²Į ëıĦ
Ġrec ruit
Ġì¡°ê¸Ī ë§Į
Ġì£¼ë³Ģ ìĹĲ
are t
ÑģÐº Ð°
ìĹŃ ìĹĲ
Ġtr ace
Ġsp ark
Ġport folio
Ġres c
ëĶ° ëľ»
fl ag
o j
ëŃ ĩ
Ġfl u
Ġag greg
iz za
ëłī ìĬ¤
Ġë¶Ģ ë¶Ģ
Ġun us
Ġdream s
Ġcompat ible
Ġíķĺ ìĺĢìĬµëĭĪëĭ¤
ë°Ķ ì§Ģ
Ġcarry ing
Ġíĺķíĥľ ë¡ľ
ë©´ ìĿĺ
Ġëª¨ëĳĲ ê°Ģ
ãħ ģ
Ġì¤ĳìļĶ íķ©ëĭĪëĭ¤
íĻķìĭ¤ íŀĪ
ĠD NA
al ty
h ard
ëıĮ ìĿ´
ĠG ro
ĠS I
ê° ±
d ing
ĠN C
Ġenter prise
ÑĤ Ðµ
ĠìķĦìĿ´ ëĶĶìĸ´
Ġshoot ing
ë§Įëĵ¤ ê¸°
Ġt um
Ġsatisf action
ĠS ir
ĠìĪĺ ìļ©
ĠìľĦ ìĥĿ
ĠD ist
; /
Ġìĥģ ìŀ¥
ĠL i
ê´Ģ ìĿĺ
Ñĥ Ð±
ĠSp ace
sc r
H ello
ì£¼ ë¯¼
Ġë³µ íķ©
ĠG a
ìŀĳ ê°Ģ
b ow
Ġíı¬íķ¨ íķľ
A ng
Ġìĺ¤ íĶ¼ìĬ¤íħĶ
Ġeleg ant
Ġequ ations
Ġex posed
ĠF our
âĢĶ âĢĶ
ĠKing dom
Ġlik es
Ġtreat ments
ê²Į ëıĦ
contain s
rie ve
Ġë°©íĸ¥ ìľ¼ë¡ľ
íķĺ ëł¤ë©´
En um
: **
an Ã§
íĺĦ ì§Ģ
ëħĦ ìĹĲëĬĶ
Ġë° ¸
ĠíĪ¬ ëªħ
Ġal ter
Ġë§Įëĵ¤ ìĸ´ìĦľ
ĠìķĦìĿ´ ìĬ¤
ì¹ĺ ê³¼
Ġíķĺ ëł¤ê³ł
ĠWh ich
ì¡° ìłĪ
Ġì¶©ë¶Ħ íķľ
Ã Ĺ
ĠS A
Ġíķĺ ìĦ¸ìļĶ
Ġëª¨ë¥´ ê²łëĭ¤
Ġen v
Ñħ Ð¾Ð´
ë¥ł ìĿĢ
ë§Ŀ ìĿĦ
ìļĶ ê±´
Ġê¸´ ìŀ¥
ĠìĹ ł
ĠëĨĵ ìĿĢ
Ġtem por
ĠFor ce
ĠìĺĪ ì¸¡
e ur
ê³ł ê¸ī
Ġf irms
lis her
Ġfore ach
Fin ally
ĠL E
ìĬ¤íħĮ ìĿ´íģ¬
ìĺ Ľ
Ġche st
Ġhe ating
Ġm att
ĠA LL
ĠAg ain
Ġë¬´ ìĦł
Ġë³Ģ íĻĶë¥¼
ep ing
\ {
Ġmod ules
U LE
AAAA AAAA
ìĦ± íķľ
t ail
Ġc tx
ëĭ¹ ìĿĺ
Q UE
ë§ģ íģ¬
Ġact ing
ì£¼ ìĭľëĬĶ
d one
od a
Ġbre aking
Ġprinc iple
ĠëĤ´ ìĹĲ
ê°ľ ìĦł
ĠComm on
m c
Ġë´¤ ëĬĶëį°
r f
P i
pr ice
Ġshould er
Ġf est
ëĳ¥ ìĿ´
og ether
Ġloc ally
act ic
ģ ìĭ±
UN T
Ġíķł ì§Ģ
Ġtrans lation
dimension al
getElement ById
Ġhad n
Ġbroad cast
Ġt ap
ëł Ĳ
Ġre verse
ê±° ì§Ģ
ÑģÐºÐ¸ Ð¹
Ġenc oding
ĠInt eger
ĠW atch
Ġorgan is
ëĲĺ ìĦľ
ĠìķĦìī¬ ìļ´
ìľł ìĤ°
k akao
ĠìĤ¬ìĭ¤ ìĥģ
ĠëĲĺìĸ´ ìŀĪ
ìĬ ĺ
Ġêµ¬ ë©į
ĠCol l
ëłĪ ê¸°
ìĹĪëĭ¤ ëĬĶ
Ġìĺģ íĻĶë¥¼
end e
ëĵ¤ìĿ´ ëŀĳ
Ġclos ing
Ġp airs
Ġn ach
Ġì°© íķľ
ãĤ ĵ
UT F
b est
Ġì²´ ê³Ħ
Ġder iv
Ġíıī ë²Ķ
m oz
Ġìŀħ ìŀ¥ìĿĦ
ë» Ķ
UN D
Ġëı¼ ìļĶ
Ġëªħ íĴĪ
ĠíĮĮ íĬ¸
Ġìĭ¬ íķľ
Ġê±´ê°ķ ìĿĦ
M IN
Ġautom atic
> :
Ġpan els
Ġz ip
Ġdire ctions
ëª¨ ë¥¼
P Y
ĠYou Tube
Ġì´Ī ë¡Ŀ
st ers
C ard
Ġì¦Ŀ ê¶Į
ìĨĮ ê¸Ī
ĠB u
J ava
ìĿ´ ìĹĪìĸ´ìļĶ
Ġmanag ers
ĠìļĶ ê±°
ĠBl ock
Ġìŀ¬ ìłķ
Ġê³µ ìłķ
ĠR ose
omet ric
ON G
íĿ ĺ
ë¥ ľ
íķľ ìŀĶ
Ġle af
Ġrepresent ing
ĠìĿĢ ìĿĢ
Ë· ()
~ ?
sub mit
ĠS us
ik es
Ġë¹Ħ ë¹Ķ
ìĹĲ ìĬ¤
Ġì¸¡ ìłķ
êµŃ ìĿĦ
Ġë¹ ļ
ëĭ¹ ìĿĦ
Ġëĭ¨ ë°±ì§Ī
ëł ·
Ġinit ially
ĠR ay
Ġsu ite
trans ition
ul i
ra it
Pro file
V A
as m
Ġtrans mission
Ġt ile
lim it
ĠíĶĦë¡ľìłĿ íĬ¸
Ġint ellect
ĠJer sey
Ġì¼ĢìĿ´ ë¸Ķ
Ġb one
ne ys
Ġëļľ ê»ĳ
Ġquant ity
Ġc u
et ary
lo op
ìĻĦ ë£Į
Ġë©Ķ ìĿ´
Ġì£¼ íĸī
êµ° ìĿĢ
ì»´ íĵ¨íĦ°
ĠìĤ´íİ´ ë³´
wide hat
Ġp ocket
Ġindust ries
Ġinter val
Ġim per
Ġì°½ ìĽĲ
å Ĩ
ĠìĹ° ê³Ħ
Ġì¶ ¤
Ġn el
us ic
ĠìĹĨ ìľ¼ë©´
Ġë² ļê½ĥ
Ġg orgeous
ì§ ¬ë½ķ
Ġë§Īì§Ģë§ī ìľ¼ë¡ľ
ĠíķĺëĤĺ ëĭĺìĿĺ
Ġì§ĳ ìķĪ
ĠÐ¿ Ð¾Ð´
ĠëĮĢ ìĦł
ì¥¬ ìĸ¼
ìĭĿ ìĹĲ
íģ´ëŀĺ ìĬ¤
ë²ķ ìĹĲ
Ġv ibr
ĠíĹĪ ìļ©
Ġì¤ĳê°Ħ ìĹĲ
Ġlarg ely
ë¹Ħ íĥĢë¯¼
ĠìĹ¬ê¸° ìłĢê¸°
Ġë¬´ ëĤľ
ìĪĺ ê¸°
ìĪł ìĿĦ
ĠìĿ´ìģĺ ê²Į
Ġì¿ł íĤ¤
ol t
Ġë©Ģ íĭ°
ìĽ °
ë¡ľ ë¦¬
Ġc atalog
Ġre produ
Ġt mp
Ġguid elines
ĠìĻ¸ ìĹĲ
Ð¾Ð² Ð¸
Ġê´Ģëł¨ íķ´
St ud
Ġë¶Ģ íĴĪ
íķ´ì£¼ ìĭł
st ats
ĠìĤ¬ìļ© ìĿ´
Ġrecommend ations
Ġv ess
ìĬ¤ íı¬ì¸ł
ĠìĨĮ ëħĢ
ĠíĻį ì½©
Ġf is
Î ¿
ãģ ĵ
de cl
Ġì§Ģìłģ íĸĪëĭ¤
in os
s is
ĠëĳĲ ê°ľ
ĠëıĻ ìĿĺ
Ġëħ¸ ëŀĢ
Ġhe aling
st orage
ĠX ML
we ek
Ġrep ly
Ġstrong er
Ġaccess ories
ĠH im
Ð¿ Ð¸
íı¬ íĬ¸
Ġpros pect
ìĿ´ ëıĻ
Ġex tern
) ).
ĠìĤ´ ìĿ´
Ġgraph ics
pl oad
D ownload
Ġjud ge
ĠTh ree
Ð ŀ
Ġíĺĳ ìĿĺ
ì°¨ íĶ¼
Ġë§İ ì§Ģ
B ecause
ëĲĺ ëĬĶëį°
Ġìĺ¤ëŀ« ëıĻìķĪ
ific ial
Ġair craft
ĠìĬ¤ ìľĦ
_ (
ìłĢ ëł´
Ġpot ato
ìĭł ìĿĢ
ìĭŃ ìĭľìĺ¤
; ->
ĠS NS
ìĸ´ ìļ¸
ap ore
Ġê¸°ëĬ¥ ìĿ´
; }
ri ers
Re port
ĠC lient
Ġãħİãħİ ãħİãħİ
ĠPro du
ìķŀ ìĦľ
Ġìĭł ìĨį
Ġem br
Ġê¸° ìĹ¬
T ake
ĠëĤĺ ê³ł
ĠF A
ĠëĦ¤ ìĿ¼
anc hes
ĠAnd rew
ìĿ¸ê°Ģ ìļĶ
íıī ìĿ¼
q quad
ll a
cond ition
íķĦ ë¦Ħ
Ġcl ip
ë¶Ħ ìķ¼
Ġd ial
ĠJack son
Ġar my
Ġì°¸ ì¡°
Ġê°Ģë²¼ ìļ´
ĠS em
Ġ ãħľ
ìķĦìĿ´ ê°Ģ
Ġdrink ing
ĠB ad
Ġê¸¸ ê²Į
ĠPar am
ĠPr ice
ĠìĿ´ìĥģ ìĿ´
ìĿ´ ê²ĥ
Ġëıħ ìĦľ
Ġë¶Ģ ì°©
Ġê´Ģê´ĳ ê°Ŀ
Ġë°Ŀíĺ Ķ
Ġspecial ist
ers hip
ĠOb ama
O k
Ġê³łë¯¼ ìĿĦ
Ġë» Ķ
ëĿ¼ ë¦¬
Ġì§Ħ ë£Į
íĸĪ ëĬĶëį°ìļĶ
Ġì¢ħ ë£Į
or ient
ĠìĿ´ ëŀĺ
ĠIN TO
Ġm apping
Ġê³łê°Ŀ ëĭĺ
ìľł ìķĦ
Ġex haust
} =
Ġst ake
ë§Ī íģ¬
Ġëĭ¨ ëĭ¨
ä¸ ª
ĠA zure
x l
ĠM ic
Ġrev olution
Ġãħĭãħĭãħĭãħĭ ãħĭãħĭ
h our
Ġë°Ŀ ìĿĢ
Ġê·¸ ìĹĲ
Pro xy
ĠG arden
build er
Ġëħ¸íĬ¸ ë¶ģ
Ġì» ¸
s it
ĠëıĦ ë³´
Ġì§ģ ìŀ¥
ģ ëĭĪëĭ¤
ãĤ ¹
ì°¨ ìĹĲ
create Element
Tr ace
ĠìĨĲ ìĥģ
ĠìļĶ ëłĩê²Į
ail ure
ëĳ ł
Ġh ospit
Ġì£¼ë¬¸ íĸĪìĸ´ìļĶ
w ill
G F
íķ´ ì¤Ģ
Ġop ens
ë¯¸ ëŀĺ
ĠF oot
ĠìĹŃìĭľ ëĤĺ
ì¶ķ ìłľ
met adata
Ġë¹Ħ ë²¼
Ġmir ror
Ġbl end
Ġunc ertain
ëģĦ ëŁ¬
Ġo cean
ëĤ ©ëĭĪëĭ¤
ĠR en
= !Ë·
ãĤ Ĥ
ĠìĦ¸ ìĥģìĿĦ
Mem ory
ëĤĺ ë´ĲìļĶ
Ġh ack
! =
Ġsens or
ĠëĲĺ ìļĶ
b ury
ĠAp ache
ë²Ħ ëł¸
Ġinv oke
Ġìĺ¬ ë¦°
Ġi OS
ĠëĤĺìĺ¤ ëĬĶëį°
ìĭľ íĬ¸
Ġst ages
íĺ¸ ë¥¼
ĠìĿ´ ë¦¬
ĠìĦłíĥĿ íķľ
Ġëĸ¨ìĸ´ ì§ĢëĬĶ
Ġê¸°ìĪł ìĿĦ
ĠìłĦ ì£¼
Ġbeh alf
ĠìłĦ ëħĦ
ìķĦ ë¦Ħ
Ġê·¸ ê²ĥìĿĢ
ëĥ ħ
Ġê²¨ ìļ°
ĠCh ampionship
Ġpr icing
ĠêµŃ ë¦½
Ġdescrib es
ìĭł ê³ł
Ã ¹
ĠU r
ĉĉĉĉ ĉĉĉĉĉ
Ġë©Ķëī´ ê°Ģ
face book
iter al
Ġìĺ¤ íĶĦ
Ġle ts
prot ected
Ġarbit r
Ġindic ated
ëĿ¼ ë¯¸
Ã© d
Ġ" ",
ìľł ë¡ľ
Ġb inding
Ġor ange
Ġíıī íĻĶ
Ġëĭ¬ ìķĦ
Ġë³´ìĹ¬ ì£¼ëĬĶ
ê¸° ë¡Ŀ
Ġser vers
ĠW H
ì´Ī ì½Ķ
uck et
Ġs ew
l ibrary
test s
ĠN orthern
ì£¼ ìĭľê³ł
ĠF red
ado op
ĠE lement
at ial
ans as
Ġsent ence
gorith ms
Ð¾Ð¼ Ñĥ
Ġhot els
Ġpartic les
ĠUn it
ĠC E
ë³´ ë¦¬
ĠêµŃë¯¼ ìĿĺ
Ġbre ast
Ġìłľ ë²ķ
P ublic
ver ter
Ġentr ance
V ideo
im p
Ġprov ision
h ref
P F
ist ence
Ġco at
Ġëĵ¤ ìĿĦ
Ġíĥ ±
ĠëĲĺ ëĭĪ
Ġpropos al
Ã¡ t
ĠìĿ´ ê±¸
Ġvel ocity
ĠT ODO
Ġíķľ ìļ°
Ġst ability
en able
Ġìłģëĭ¹ íķľ
ath an
Ġany more
Ġê²° íķ©
ĠSt an
ĠìĤ¬ì§Ħ ëıĦ
ors es
Ġë°° íĦ°ë¦¬
ĠìĦ¼ ìĬ¤
le v
Ġsch olar
Ġexplan ation
Ġ' ',
ĠCor poration
ĠB ern
Ġexper iments
Ġëį ¥
ĠB and
ĠìĹĨ ìĹĪëįĺ
ĠG reek
Ġsup plement
R et
Ġfl uid
def ined
are st
Ġmet ric
O UT
Ġoverw hel
íĮĮ ìĦľ
ë¹Ħ ë¡ľ
Nav Bar
ëŁ¬ ë¦¬
ĠD ouble
Ġla id
M F
ìľ¼ ëł¤
Ġìŀ¬ ìĤ°
ĠS W
Ġì¹ľêµ¬ ëĵ¤
Ġens uring
ĠL y
ãĤ Ĭ
Ġlic ensed
Ġë¶Ģëĭ´ ìĿ´
az a
Ġíĭ° ì¼ĵ
ëª¬ ëĵľ
Ġë¨¹ìĸ´ ë³´
Ġfall ing
j unit
Ã© m
Ġg ram
íİ¸ ìĹĲ
ĠìłĦ ë¶ĢíĦ°
pre v
spec ial
ëĬĶ ê°Ģ
rupt ion
Ġëĭ¤ ë£¨
U nder
pre c
ac er
Ġdem ocr
Ģ ëĵĿ
ìķĦ ìĭľìķĦ
m ag
Ġìŀĳ ëıĻ
ĠJe an
Ġf illing
Ġìª½ ìľ¼ë¡ľ
ì§ĢëĤľ íķ´
Ġíİ¸ ì§ĳ
Ġh o
ĠFil m
ë¹Ľ ìĿ´
ĠìłĦ ë©´
ud a
ĠìĥģíĴĪ ìĿĦ
ĠìĿĺë¯¸ ë¥¼
ĠCh ange
ëĨ Ķ
ĠSm art
cle an
be an
Ġê·¸ ëĤł
IP T
Ġjoin ing
down load
ĠB es
Ġê·ľ ìłľ
ĠRes ource
INS ERT
Ġëĭ´ ê¸´
ëĲľ ëĭ¤ëĬĶ
ĠD ou
Ġxml ns
ê±´ ê°Ģ
Ġdemonstr ate
ĠBe aut
Ġel igible
Ġìĭ¶ìĿĢ ëį°
Ġê°ĳ ëĭĪëĭ¤
ĠIn put
Ġtalk ed
Ġcan vas
Ġveget ables
Ġto mat
Ġp itch
AD D
Ġìĸ´ëł¤ ìĽĮ
ĠìĨĮ íĶĦíĬ¸
Ġì£¼ ê°Ģ
param eters
Ġâĸ ¶
ĠBrit ain
ab eth
Ġëĭ¤ ìĦ¯
h yd
ĠìĦ¸ ëĮĢ
è¡ Į
ìĥ ´íĳ¸
ëª¨ ìŀĦ
Ġì¡° ë¦½
ĠìĦ¸ íĮħ
Ġíĺģ ìĭł
ìĻ¸ êµŃ
ëł¥ ëıĦ
Ġach ie
ìľ Ļ
ìĸ ĺ
ĠE ss
ĠG i
Ġmaintain ing
Iter ator
ĠìĿ´ìķ¼ ê¸°ê°Ģ
Ġm ood
Ġë°ķ ìĬ¤
et e
D est
íĬ¸ ëĿ¼
Ġre act
ĠìķĦ ìłĢ
() ));
iss ues
l ot
@ Ë·
Ġë°° ê³ł
Ġbr illiant
Ġg all
Ġto oth
Ġclass ical
ĠëĤĺ ëī
et ies
êµĲ ìłķ
block List
OR Y
h ire
sh all
ĠíĬ¹ ìĦ±
ĠN eed
ëĿ½ ìĿĦ
Ġë¹Ħ ì¦Ī
Ġëĭ¹ ê·¼
ĠìĦľ ë¥ĺ
ĠëĤł ì§ľ
s uch
ì²´ ìĿĺ
ĠìĤ¬ë¬´ ìĭ¤
ĠT her
ê°Ħ ìŀ¥
Ġfl ags
ate ful
Ġse ar
Ġì¹ ¸
ëĿ¼ìĬ¤ íĭ±
ìĺ¬ ë¦¬
ê¸ ĢìĿ´
Ġb g
ë¶Ģ ë¡ľ
ol o
b rief
if def
Ġê°Ķëĭ¤ ê°Ģ
Ġab und
ìļ´ ìĿ´
Com mon
Ġë§Ĳ ëıĦ
Pro gram
ìĺĪ ìłķ
C G
ìĹĦë§Ī ê°Ģ
Ġëĭ ¥
ĠReg ister
ĠF I
ì¢ħ ìĿĦ
ult ane
sh ips
Ġë¹¼ ê³ł
ĠWill iams
! ==
ĠE N
Ġj s
Ġì²ł ê±°
Ë· âĢĶ
ĠëĤł ìķĦ
ĠìĬ¤ íĬľëĶĶìĺ¤
ëĭ¬ ëĿ¼
Ġê² ¹
ìķ¼ ì±Ħ
Ġcontinu ing
Ġëĭ¤ìĿĮ ê³¼
Ġs v
ĠM D
Ġsc ored
Ġwire less
ìĹ°êµ¬ ìĨĮ
Ġl ens
ë²ķ ìĿ´
c ircle
Ġf ails
ëĮ Ħ
Ġwh ilst
ĠíķĺëĬĶ ì§Ģ
Ã© g
Ġm g
Ġab andon
s ym
b us
com plete
Ġíİ¸ìķĪ íķĺê²Į
Ġëĭ¤ìļ´ ë¡ľëĵľ
Ġmeasure ment
Ġìļ´ íĸī
Ġdist ingu
Ġcar pet
ĠF ord
ĠìĪĺ ë¡Ŀ
Ġê³¨ ëĵľ
Ġout comes
Ġadopt ed
ë©Ķ ìĿ´
ìĻ ¼ìª½
Ġìĸ¼êµ´ ìĿĦ
Ġì»¤íĶ¼ ë¥¼
Ġmet adata
ëĵ¤ ë§Į
Ġíİ¸ íķľ
d ependency
ST ATE
Ġë¹ł ì§Ħ
u um
Ġë°ľìĥĿ íķľ
Ġë¶Ī ë¦¬ëĬĶ
ìĹ° ìĿĦ
uck y
ëĭ¹ ìĭľ
Pro ps
ĠìłķíĻķ íķĺê²Į
Ġëĵ¤ìĸ´ ìŀĪ
Ġë§¤ íĬ¸
æ Ķ
ìĿ¸ íĬ¸ë¥¼
ëĤ´ ê¸°
ì§ĢìķĬ ê³ł
Ġcomm ands
pl atform
Ġì¶Ķ êµ¬
Ġres ume
ĠRem ove
ĠìļĶì¦ĺ ìĿĢ
Ġìĸ´ì°Į ëĤĺ
ĠëĤĺ ê°ĢëĬĶ
Ġh am
ĠìĺĪ ìłķìĿ´
Ġse eds
ĠìĤ¬ ìĥģ
Ġìĭ¤ ìĭľê°Ħ
Ġpre v
ĠìķĦë²Ħ ì§Ģ
Ð¼ Ðµ
ĠìľĦ ìĹĲìĦľ
Ġwork er
Be an
ê²© ìĿĦ
Ġë³´ ê±´
Ġs ke
Ġmort gage
ĠëĤł ìĿĢ
pro gress
ĠPro te
Ġë°ĺ ì§Ŀ
Ġj Query
ëĤ´ ìĿ¼
he el
ĠìĹħ ëį°ìĿ´íĬ¸
Ġju ice
ĠB a
Ġre n
Ġpro xy
ë©Ķ ìĿ´ìħĺ
Ġë¹ĦêµĲ ìłģ
ĠO l
ch arge
X FF
Ġmere ly
Ġc ub
Ġê³łë¯¼ ìĿ´
Ġë¬´ ë¦¬
ant ed
ç ī
Ġìļ´ìĺģ íķĺëĬĶ
ĠBer lin
p ot
ì²´ ìľ¡
Ġë¬¼ ë¦¬
OW N
Ġestim ates
ab e
ĠC ase
Ġcr ash
ĠìĦľ ì´Ī
Ġswim ming
ĠA sh
Ġmeasure ments
Ġtarget s
ĠìĤ¬ëŀĮ ìĹĲê²Į
ìĿ´ íķĺ
Ġíķľ ìŀħ
ĠP ak
ĠíĿ ł
Ġpublic ation
ĠB ang
ex ternal
° íĶĮ
Ġíľ ł
Ġëĵ¤ìĸ´ ìŀĪëĬĶ
Ġan xiety
ëĵľ ëĿ¼ìĿ´
Ġì§ Ŀ
Ġlif etime
Ke ys
ĠìĦŀ ìĸ´
ĠL oad
Ġrob ust
ĠMich igan
ĠLin ux
Ġr gba
Ġh int
ê·¼ íĺľ
Ġíķľ ê¸Ģ
ë¡ľ ìĹĲ
ĠÐ¾ Ð´
ĠF arm
t body
er k
ĠëĮĢ ë³Ģ
Ġad s
index Of
íķ´ ì¡Į
Pl ugin
Ġyour s
Ġë³´ ëĤ¸
check ed
ê° ĵ
ĠìłĦ ê³µ
ex ists
ì¼ĢìĿ´ ìĬ¤
êµ° ëį°
ê¶Į ìĿĢ
C opyright
ĠSim ple
P UT
ë¶Ģ ë¶Ģ
Ġpl ug
Ġë³´ ìķĺ
ĠL ay
íķĺê¸° ê°Ģ
ìķĦìĿ´ ëĵ¤ìĿ´
l ab
L D
al g
V ID
Ġobserv ations
Ġb aking
ĠF riend
ĠP HP
Ġê°Ģê²© ìľ¼ë¡ľ
ë§Ľ ëıĦ
St op
ĠK im
ìļĶ ëłĩê²Į
Ġìĭł ê²½ìĿĦ
M apping
Ġstudy ing
ì¡° ê°ģ
Ġessential ly
Ġê°Ħ ëĭ¤
Ġenjoy ing
ĠíĶĮ ëĿ¼
Ġìŀ¥ ìĭĿ
ìĨį ìĹĲìĦľ
Ġper mit
ag a
Ġìı ł
err ors
Sim ple
ĠìĥĿê°ģ ìĹĲ
Ġ ÑĨ
Ġfun ny
ĠO x
Ġê¸°ëĭ¤ ëł¤
ĠìŀĲ ëĬĶ
¯ ë¶Ī
ë¯¸ìļ© ìĭ¤
ìĽĶ ìĿĺ
rodu ction
ë°© ì§Ģ
Ġcomp ute
ĠPro t
Ġm i
ĠD im
the less
Ġmaintain ed
ĠëĮĢíĨµëł¹ ìĿĺ
ìķĪ ê²½
ĥ ½
ëĥ īìŀ¥ê³ł
ed itor
Ġrad ius
Ġì¼ĢìĿ´ ìĬ¤
Ġê°Ģ ìĪĺ
ĠWe bsite
Ġëħ¸ëŀĺ ë¥¼
Ġp Ã¥
Ġê·¸ ëłĪìĿ´
ĠìĥĿ ìĦ±
ĠìŀĪ ê¸°ìĹĲ
are r
ìķĦìĿ´ íı°
ĠíĬ¹ íĹĪ
ĠSp ain
Ġper missions
Ġa wards
ĠìĹĨ ëĦ¤ìļĶ
Not Null
Ġê°ľ ìĿĺ
Ġë§İ ìĿĦ
Ġk om
Ġs el
Ġë¯¸ ìĦ¸ë¨¼
Ġê·¸ ë¥¼
ì¤ĳ ìĹĲìĦľ
ê·¸ ëĭĪ
ëį ®
Ġdis hes
Ġm il
S ync
Ġë§Ī ìĭ¤
S eg
ĠM achine
ĠíķľêµŃ ìĿĺ
Ġì£¼ ê´Ģ
Ġclaim ed
ê²° ìĿĦ
ĠíĶĦ ëĿ¼ìĿ´
ëķĮ ëıĦ
Ġì²« ë²Īì§¸
O pt
ĠìĨĮ ìĨ¡
ĠYO U
Ġexception al
[' Ë·
ĠB ath
Ġë¶Ħëĵ¤ ê»ĺ
ëĤ¨ ìĿĢ
ĠExec utive
ĠìłĢ ëŁ°
Ġëĭ´ ê³ł
Ġíķĺë£¨ ìĹĲ
ser ial
Ġb att
Ġcont est
ĠV ery
Ġìĺ¤ ë¦¬
s ample
Ġíļ Ł
ìłĢ ê°Ģ
clud es
ìĭł ì¶ķ
Ġput s
ìĹĲ ê²Ĳ
ĠìŀĶ ëľ©
Ġrec ycl
ê³³ ìĿĦ
ĠOh io
ph ones
op ed
og ram
ĠSt ock
ìłĦ ìĿĢ
ì¹¨ ëĮĢ
Ġap plies
c ial
Ġë³´ ìĥģ
Ð³ Ð¸
ÐµÑĢ Ð¸
ex cept
L in
ĠL iving
Ġë°ľìĥĿ íķł
ìĦĿ ìĿĢ
ìĺĪ ë¥¼
ĠI V
Ġpow ers
ë¡ľ ë§Ī
ĠM att
ĠH ash
pro d
ĠìĻĦë²½ íķľ
AS H
Ġë¨¹ ìĹĪëįĺ
LO CK
Ġë¶ĢëĵľëŁ½ ê²Į
ĠíĻķìĿ¸ íķĺê³ł
ĠV eg
; Ë·
ĠBuild ing
ëŁ¼ íĶĦ
Ġdo ctors
ĠìĨĶì§ģ íŀĪ
ðŁ į
ĠSil ver
ĠM ah
Ġê±° ìļ¸
Ġìļķ ìĭ¤
ĠìĿ´ ìĬĪ
ĠV ector
ĠëĶ ľ
Ġs oci
ĠìłķíĻķ íŀĪ
ê°Ģ ìķ¼
ĠÃ ®
Ġìµľ ìĭł
ê´Ģ ìłĪ
ivers ary
ĠíĻĺ ìĺģ
Ġìłķë¶Ģ ëĬĶ
íĪ¬ ìĬ¤
ãģ ı
Ġêµ¬ ê°Ħ
ams ung
Ġrapid ly
ìĦ¤ íĮħ
Ġd ess
ìĿ¼ ìĤ°
Ġp ad
Å ¯
ĠìķĪìłĦ íķľ
Ġë§Į ëĤ¬
Ġìĥģ ìľĦ
h space
ìĿ¼ ë³´
Ë· **
t here
Ġinteg ral
k n
TE XT
Ġëħ¸ ëł¥ìĿĦ
Ġë° Ł
Ġprocess ed
Ġë§¤ ê°ģ
on na
p d
~~~~ ~~~~
": {"
ĠT ree
Ġê·¸ ëĤĺë§Ī
Ġce iling
Ġëĸ¡ ë³¶ìĿ´
ĠíĶ¼íķ´ ë¥¼
it is
ĠB O
Col lections
ìłĢ ìŀĲ
íķ´ìĦľ ëĬĶ
Ġb acter
ob e
Ġê ¾
Ġt u
ì¢ĭ ê²Į
Ġle ague
ĠëĮĢíķ´ìĦľ ëıĦ
Ġst ations
th rough
Ġ rib
Ġa ria
" Ë·
Ġë°Ľ ìķĦìĦľ
ĠëĤĺ ìķĦ
Ġê·¸ ê²ĥìĿ´
} =\
am il
ari os
ĠëĮĢ ì±ħ
ol ute
v d
ĠìŀĪ ê²ł
ĠëĦĪ íĿ¬
ĠìĿĮìĭĿ ìĿ´
Ġë°ĸ ìľ¼ë¡ľ
Ġr ising
ĠS ummer
Ġrepresent ative
æ ŀ
ë¦¬ ìĸ¼
ë°ľ ë§¤
íķĺ êµ¬
)) );
Ġ áĦ
ĠIns urance
ìŀĲ ëıĻ
ĠìĤ¬ìļ© íķĺì§Ģ
ĠìķĦ íĶĪ
ì§ĳ ìľ¼ë¡ľ
Ġm ic
Ġìĸ¼ ë¥¸
Ġêµ¬ ëıħ
ang ers
in ar
ins on
Ġê¸°ëĭ¤ ë¦¬ëĬĶ
Ð ľ
el n
ë§ µ
m ov
Wrap per
Ġbro ke
col lection
U G
æĹ ¥
Ġê·¸ëŁ¬ ë©´
Ð· Ð°
Ġê³± ì°½
Ġdispl ays
hent ication
re ation
def inition
S ocket
ĠëĤĺìĺ¤ ë©´
="../../ ../
ĠS ci
Ġíİ¸ ìĿ´
Ġê² ł
D b
Ġincred ibly
ĠĠĠĠĠĠĠĠĠĠĠĠĠĠĠĠĠĠĠĠĠĠĠĠĠĠĠĠĠĠĠĠ ĠĠĠĠĠĠĠĠĠĠĠĠĠĠĠ
ĠS ports
ĠìķĦ ë¥´
Ġs yn
ìĭ¤ ìłľ
Ġìłĳ ìĨį
Ġê²ĥìĿ´ ê³ł
ĠíĮ ģ
be ing
Ġl ake
ìħĶ ìļĶ
ĠìŀĪìľ¼ ìĭł
n umer
íķĺ ì§ĢëĬĶ
Ġacc um
Ġê¸°ìĹħ ìĿĺ
Ġëĵ¤ìĸ´ ìĺ¤ëĬĶ
Ġ' :
iz on
ĠBro ok
ì¡° ìłķ
end ers
Ġê¸Ī ë¦¬
ĠCath olic
Ġê°Ģ ì¹ĺë¥¼
ir al
Ġê·¸ ê±´
ĠìķĦìĿ´ ìĿĺ
ìĦ¸ ëĬĶ
us al
ìĥī ìĿĺ
ì¤¬ ëĭ¤
ĠìĿ´ ëĵ¤
ĠH as
ĠPer haps
Ġì´Ī ë°¥
Ġinter actions
ê´Ģ ìĹĲìĦľ
ĠBG COLOR
Ġgent le
Ġdepos it
íĺķ ìĿĢ
d on
Ġsubstant ial
Ġhas n
Ñ Ļ
az ione
Ġìļ© ìĿ¸
Ñĸ Ð¹
ĠLe vel
Ġconstr aints
Ġf rames
Ġë¿Į ëĵ¯
ìłķ ìĭł
Ġëª ¬
Ġìĥģíĥľ ê°Ģ
ê¹Į ì§Ģë§Į
i ot
íĢ ĺ
Ġk ernel
ĠPol ice
Ġ ï¿½
êµŃ ìĹĲ
Ġë³´ ìĪĺ
Ġê°ĢëĬ¥ íķ´ìļĶ
if ndef
ê¸Ī ë¦¬
Ġë¹Ħ ì¤ĳ
ĠìłĦë¬¸ ìłĲ
ĠProf essor
Ġë¶Ģ ìŀĳìļ©
Ġwond ering
ĭ áħ
ĠS ie
ĠSte ve
Ġì¤ĳ ìĹĲìĦľëıĦ
ìķĦì¹¨ ìĹĲ
Ġwhere as
H C
ë¬¸ ìĿĢ
Ġdis pos
ash board
ĠStud ents
Ġêµ¬ ìĨį
ĠìĥĿ ìĦł
ìĿ¸ëį° ëıĦ
Ġauthent ic
Ġb ot
Sc ale
Ġíķ´ ê°Ģ
Ġguarant eed
ê¸° íĥĢ
âĶģ âĶģ
ĠìĦł ìĸ¸
Do es
Ġì¢ĭ ê²łìĬµëĭĪëĭ¤
ak i
ĠÐº Ð¾Ð¼
ë²¤ íĬ¸ë¥¼
g ence
ê³ł ë£¨
ä¸ Ĭ
ĠS EO
ĠìĥĿê°ģ ëıĦ
Ġê·¸ ê±¸
Ġab use
Ġ" '
m ony
Ġìĭ¤ ë§Ŀ
ë¸Į ëĿ¼
Ġexpl ains
Ġfore cast
ĠH istor
ĠìķĦ ë©Ķë¦¬ì¹´ëħ¸
Ġì¶ķ êµ¬
M s
E Y
Ġexhib ition
Ġì¶ľ ìĤ°
ìļ° ë©´
Ð³ Ð°
ìĭľ ë¯¼
n il
Ë· ||
ĠíķĦìļĶ íķ©ëĭĪëĭ¤
ĠëĳĲ ê°Ģì§Ģ
if ting
Ġfac ulty
ìĿĺ ë£Į
ĠKit chen
f ony
Ġequ ally
Ġìĸ¸ ìĸ´
Ġen vironments
ĠPr act
Ġcr u
ìª½ ìĿĢ
Ġê¼¼ê¼¼ íŀĪ
Ġexpand ed
Ġìĭľ íĤ¨
b as
ë¬¸ íķĻ
Ġìłķ ë¹Ħ
Ġdesk top
rypt o
Ġy ards
ìĤ° ë¶Ģ
ìŀ¥ ê¸°
Ġëĺĳ ê°ĻìĿĢ
ĠTr aining
Ġìī½ ê³ł
Ë· ^{
ĠìķĮëł¤ ì§Ħ
Ġend ing
Ġcent ers
t ri
Ġdiv ided
tr igger
Ġconven ience
Ġpurch asing
Ġcompos ition
Ġob serve
Ġ$ (\
Ġent ering
Ġun w
Ġë¥ ĺ
ĠëģĿ ìĿ´
ub ble
Ġp ace
ìĽĲ íķĺëĬĶ
ĠíĻľ ë°ľ
ë ĺ¥
ë¶Ģ ì²ľ
ĠíĬ ľ
Ĳ ģ
ad el
ĠStud ies
ĠMus lim
l ia
ìĺ µìħĺ
Ġsubsequ ent
Ġê·ľ ìłķ
Ġë¶Ħ ëĭ¹
Ġíıī ìĿ¼
eng ers
ord an
Ġìµľì´Ī ë¡ľ
Ġn am
ust ers
ater n
ìĪľ ìľĦ
Ġhost ed
ĠMod ern
ond e
ë¥´ ìĭł
ĠíĺľíĥĿ ìĿĦ
Ġt we
ê±°ê°Ļ ìķĦìļĶ
Prot ocol
Ġeng ines
Ġsup plied
ĠĠĠĠĠĠĠĠĠĠĠĠĠĠĠĠ Ċ
om y
Ġb ind
Ġì¡° ìĸ¸
Ġsc reens
ĠHol y
ĠìķĦ ëıĻ
ĠSt ation
ĠH ence
Ġìĺ¤ëŀĺ ëĲľ
here nt
att ributes
Ġê½¤ ëĤĺ
Ġman ifest
un ct
ĠV en
Ġr ural
Ġê±¸ ëł¤
ĠìĿĺë¯¸ ê°Ģ
Ġê¹¨ëģĹ íķľ
comm it
ê¶Į ìĹĲ
Ġdeb ate
ìĻĢ ìĿ´
ëĮĢ ì±ħ
ĠìĭľìĽĲ íķĺê²Į
ĠL as
ìĹ° ìĿ´
Ġdem ands
ë§Ī ê°Ģ
ĠB razil
ig s
Ġsac r
d ialog
ĠAir port
Ġlawy er
ĠH ttp
W orld
} _\
en z
Ġëĭ¤ ìĿ´ìĸ´
equ ence
r oute
Ġcab inet
ī ģ
ĠPol icy
sl ice
Ġg iant
l ined
. ;
ĠCh apter
ĠFurther more
ĠìĦ¸ ìĥģìĹĲ
ìĿ´ë²Ī ìĹĲëĬĶ
(" /
Ġimprove ments
he ast
Ġì¦ī ìĭľ
Ġì£¼ìŀ¥ íĸĪëĭ¤
ĠíıŃ ë°ľ
ä» ¥
bu ilt
ĠìŀĪìľ¼ ë¯Ģë¡ľ
Ġì°¾ ìĿĢ
ĠC ro
ĠT ax
ĠMount ain
Ġê²½ ëĤ¨
ìĹħ ê³Ħ
Ġhead ing
m k
ĠìļĶ ê¸Ī
Ġë¨¹ ì§Ģ
St and
ìĹĪ ì£ł
ìłĦ ëŀµ
Vari able
Ġdecl ared
h ave
ien e
ĠìĿ¸ ìĬ¤íĥĢê·¸ëŀ¨
Ġë³¸ê²© ìłģìľ¼ë¡ľ
=" ">
Ġsus pect
Ġpart ition
íĻĪ íİĺìĿ´ì§Ģ
W ord
ĠÐ Ĺ
ĠíĸĪëĭ¤ ê³ł
íĶĮ ëŀĢ
Ġenem y
an ner
Ġê²°ê³¼ ê°Ģ
Ġê·¸ë¦¼ ìĿĦ
Ġflow er
Ġf ram
Ā Ā
ë²Ħ ë¦¬
ìŀħ ì£¼
é Ŀ
ìļ° ìľł
Ġemploy ed
ious ly
Ġpr ide
Ġtemper atures
Ġto ile
íķĺ ëĿ¼ê³ł
Ġrest ore
x space
Ġë¬´ ìĸ¸
Ġëĭ¹ìĭł ìĿĺ
ann y
Ġl ip
ĠC SS
Ġcal m
ÑĦ Ð¸
Ġre nov
ĠìĦ¸ íı¬
math sf
ĠíĿĶ íŀĪ
Ġb orrow
ĠCount ry
ë¦¼ ìĿ´
Ġì¤ĳìļĶ íķĺëĭ¤
Ġíķĺ ìĺĢ
ĠH aving
á º
Ġperson ality
A X
ë°Ķ íĢ´
ĠíĸĪ ìĿĦ
ĠìĹ´ ë¦¬ëĬĶ
ĠF ather
íĸĪ ê¸°
O F
Ġhop es
unt u
ê·¸ ë§Įíģ¼
Ġìĸ´ëĸł íķľ
Ġarriv al
å ī
Ġleg end
Ġê° ĵ
Ġp el
Ġstay ing
L ear
ë¬¼ ê³¼
Ġê²ĥ ìĿ¸ê°Ģ
Ġtype of
Re al
ìĺĪ ìłĦìĹĲ
Ġless on
Ġg ained
ç §
Ġì¢ĭìĿĢ ëį°
Ġcol ours
Ġíķ´ ì£¼ê³ł
Ġacqu is
ĠìĺĪ ìłĦìĹĲ
Ġt issue
Ġassum ed
at hered
ĠP rivate
Ġappoint ed
Ġê°Ģ ìĿ´ëĵľ
ir k
S ym
und efined
ĠR h
Ġc urrency
ĠìĺĪ ë¯¼
Ġë³´ ìĭľ
ëĭ¨ ëĭ¤
B T
ĠìĨĮ ì£¼
Stat ement
ĠìĿ¼ ìĤ°
Ġt ired
Ġprint f
ë§Ī ìłĢ
Ġinter active
Ġhol es
ìŀ¥ ë¹Ħ
ĠìĬ¤ íĤ¬
ĠìĹĺ ë¦¬
Ġìľ¡ ìķĦ
Ġ" $
Ġf lying
for Each
ĠìľĦ ìĿĺ
OM E
H is
un n
Ġad equ
Ġë°ĳ ìĹĲ
ëĮ ģ
ĠD og
Ġëĵ Ģ
ĠColor ado
Ġë¹ł ì§Ī
ĠL at
ê·¸ëŁ¬ ë©´
Ġê²ĥ ìĿ¸ì§Ģ
rib uted
ĠìłĦë§Ŀ ìĿ´ëĭ¤
it ivity
ĠM it
ìĬ¤ ëłĪ
b es
Ġthe ore
ìĨĶì§ģ íŀĪ
^ -
Ġpref ix
R end
ĠìĽĲ ëĤ´
Ġfind ings
comm un
Ġro ots
ëĵ± ìĿĺ
un ter
Ġbut tons
Ġprodu ces
ĠëĨĴ ìĹ¬
ĠCar l
D im
Ġde eper
Ġch ances
ì¡° ìĿĺ
ĠìĹ¬ ê¸°ëĬĶ
Ġëĭ¤ ë¥¼
ê³¡ ëıĻ
ĠS elf
Ġst rip
íĭ Ī
ĠëĪĪ ìľ¼ë¡ľ
Sh ould
ĠIr ish
Ð½ Ð¾Ð²
ì§ ł
Ġê°Ģê²© ëıĦ
Ġëĭ¨ìĪľ íŀĪ
ìĥĿ ìĤ°
ĠëĮĢ ê·ľëª¨
w riter
ì¹ĺ ìķĦ
ĠL LC
Ġch a
Ġtyp ename
Ġdise ases
Ġì±ħ ìĿĢ
Ġsign als
Ġtal ks
Ġvis itor
ĠìľĦ ì£¼ë¡ľ
Ġc ock
check box
ëªħ ìĹĲ
ë³¶ìĿĮ ë°¥
ĠìŁ ģ
ìĿ¼ ê°Ħ
[ -Ë·
ĠìĿ´ ëª¨
ëĤĺ ë¦Ħ
Ġë§Ĳ ë¡ľ
ìłģ ìĿĢ
{ %
Ġ& \
ĠIde as
ìĦł ìĪĺ
ë²ķ ìĿĢ
Ġpack ed
assert Equals
clip se
Ġrelig ion
Ġì¸¡ ìĿĢ
ĠìĹ° íľ´
Cl oud
Ġremov ing
ëŁ¬ ìĦľ
ĠêµĲ ìĪĺëĬĶ
Ġs oc
ĠëĤĺìĻĶ ìĬµëĭĪëĭ¤
Ġtem plates
ĠëĦ¤ íĬ¸ìĽĮíģ¬
CH AR
ĠAs ian
ĠìĿ´ ëĭ¬
P al
Ġ: -)
spec ific
ĠìĤŃ ìłľ
Ġattempt s
p icker
Ident ifier
ãģ ķ
Ġperiod s
Ġë³¸ ìĿ¸ìĿ´
Ġpre ced
f g
ìĭł íķľ
p in
Ġf ut
Ġpro min
Pe ople
Ġwere n
Ġì§ĢìĽĲ ìĿĦ
Ġcon clusion
ĠFin ancial
Ġa uch
Ġt rem
ë§Į ê°Ħ
Ġì§ĳ ìĸ´
Ġspe aker
ð Ŀ
ĠGeorg ia
ĠC PU
Ġ& =
ê°ķ íĻĶ
c ases
Ġì§ģ ìŀ¥ìĿ¸
ë¦¬ íķĦ
Ġfra ction
Ë·] [Ë·
ĠìĹħ ê·¸ëłĪìĿ´
Ġìŀ¥ ë©´
Ġrespect ive
Ġc ref
ĠC T
product s
Ġum a
Ġm ad
V B
it ative
ac ent
Ġliter ally
Ġsatisf y
Ġì·¨ ê¸ī
Ġì¤Ħ ìĹ¬
ĠS her
Ġìĸ´ëłµ ëĭ¤
{ (
ì¨Į ëĵł
ĠíķĦ ë¦Ħ
ê³µ ê¸°
assert Equal
ĠTh ough
n ia
Ġìĭ¶ ëĭ¤ë©´
ĠìĻ¸ êµĲ
ĠìķĦ ëĭĺ
Ġred irect
ë¶ĢìĤ° ê´ĳìĹŃìĭľ
Ġf Ã¶r
ì¡° ë¥¼
íĿ °
ãħ ı
ur able
æ İ
om atic
Ġacqu ired
Ġì²ĺ ë²Į
Ġappreci ated
Ġë§ ¹
ëĭ¤ ëħĢ
ì¹´ëį° ë¯¸
t p
i ate
ë¬´ ì§Ģ
íıī ê·ł
ìį ¸
{ -Ë·
Ġìŀ ī
ĠRad io
\ /
Ġg ene
ĠComm and
ìŀĳ ëħĦ
ĠDis ney
Ġìĸ´ ìļ°ëŁ¬
Ġsh ots
ĠíĪ¬ íĳľ
ĠëĮĢ ì²ĺ
Ġíķĺ ëĭĪê¹Į
ĠìķĬìķĺ ìĸ´ìļĶ
Ġbook ing
Ġê±° ëĵŃ
ĠLem ma
ĠëĬ¥ ëł¥ìĿĦ
Ġìĸ¸ìłľ ëĵłì§Ģ
Ġsp ots
êµŃ ë°¥
ĠìĦ± ëĤ¨
ĠìĹĨ ìľ¼ëĭĪ
Ġdec ent
ĠëĤ´ ë¦°
Ġë³µ ìļ©
Ag ent
ë§Ī ì¹ĺ
Ġê°ĢëĬ¥ íķĺê³ł
Ġë§¤ ëĭ¬
Ġë¸Į ëĿ¼
Ġíģ´ ëŁ½
ìĿ¸ ëĵ¤ìĿĺ
ĠMark eting
c ers
ĠíĮ¨ ìĬ¤
ĠìŀĲ ê°Ģ
S ervices
test ing
O C
Ġorgan isation
ist ical
b ec
ìħ¨ ëįĺ
ĠMc C
Ġë§ĽìŀĪëĭ¤ ê³ł
ê³ł ê¸°ë¥¼
Ġparticip ation
Ġì¶Ķì²ľ íķ©ëĭĪëĭ¤
K S
cre ated
Ġexperiment al
Ġencour aged
ë§Ľ ìŀĪ
ìĿ¼ ìļĶìĿ¼
ĠìĦľ êµ¬
Ġman ip
{ {\
od o
Ġì¦Ŀ ëªħ
ch anged
Ġbuy ers
Ġcomp lement
ÑĤ Ð¾ÑĢ
Ġfac ed
Ġc ursor
Ġsp ray
ìłķ ì¹ĺ
Ġre aching
Ġì§Ģê¸Ī ëıĦ
ëĪĦ ê°Ģ
ê³ł ìĸĳìĿ´
Ġìĥģ ëĮĢë¡ľ
b age
Ġhard er
ĠìĪĺ ëĬ¥
; "
ĠìĿ´ ëĿ¼ëĬĶ
ĠCustom er
ë°ķ ë¬¼ê´Ģ
ĠíĽĦ ë°ĺ
íİ ł
íĸī ìłķ
Ġtravel ing
Ġlog ger
ì²Ń ìĿĢ
Ġë§Ī ì¹¨
ĠD ocument
ëģĪ íķľ
ĠìĪĺ ë©´
ĠS av
ĠUn fortunately
Ġìłķ ìĭĿ
Ġëĵ¤ ìĿ´
Ġre form
tr l
Ġem ails
ìłĢ ìĿĺ
ìĵ° ê³ł
ĠSt ill
ÐµÐ» Ð¸
Ġdecre ase
Ġê¸°ì¡´ ìĿĺ
ad as
ut t
. -
o is
Ġì»¤ ìĦľ
ĠArray List
ì¤ĳê°ľ ìĤ¬
{ $
Ġh its
Ġwarrant y
ìĹ¬ ê¸°ìĹĲ
Ġh ate
CO MP
ear ing
Ù Ī
ê°ķ ìĽĲëıĦ
Ġ ×
d river
y our
Ġscient ists
st en
ne q
íļĮ ëĭ´
ident ifier
ìĻĶ ëĬĶëį°
Ġdeep ly
íİĺ ìħľ
Ġpost ing
pat tern
Ġë§ŀì¶° ìĦľ
Ġìľ Ĺ
ìłľ ê³µ
ë³¼ ê¹ĮìļĶ
ĠìĤ ½
Ã ¦
Ġë°Ķ ê¹¥
ëĬ¥ ëł¥
Ġìĭľìŀĳ íķĺëĬĶ
em pl
è §
Ġìŀħ ìĿĢ
ĠW rite
az ure
Im port
Ġroad s
Ġelectric ity
ìĨĮ ìŀ¬
Ġë¹Ħ ìĥģ
ëįķ ë¶ĦìĹĲ
ĠI mm
Ġh az
At tr
Ġìĭ¬ ì§Ģìĸ´
ìĿ´ ëĦ¤
ìķĦ ìļ¸
Ġse es
ar ry
ĠìĿ´ë²Ī ìĹĲëĬĶ
ì¤ĺ ìļĶ
orig inal
ook ie
ëĭĲ ëĿ¼
Sh ort
ĠAdd itionally
ìķĪ ìĿĢ
ë¥´ ëª¬
Ġì¢ħ êµĲ
Ð» ÐµÐ½
eg o
Ġquot es
ĠìĿ´ ë¥´
ĠP ri
Ġê°Ħëĭ¨ íŀĪ
Ã µ
Ġs outhern
uss ian
Go ogle
ãĥ Ī
Ġë¬´ ê¸°
Ġê²½íĹĺ ìĿ´
out ing
Are a
Ġp ounds
ĠìķĮ ìķĦìĦľ
Ġëħ¼ ëŀĢ
an th
pro gram
Ġì±Ħ ìĨĮ
** Ë·
ĠSw ed
Ġë¬´ ëĦĪ
Ġbelie ves
ëľ °
ìĤ¬ë¬´ ìĨĮ
D ATA
ìĸĳ íĮĮ
l u
ë©Ķ ê°Ģ
Pro v
ĠD rive
iz ers
ĠA wards
Ġph ones
Ġë°° ëł¤
Ã¤ n
Ġë³´ ìĿ¸
MO DE
ĠìłľìĻ¸ íķľ
ĠÃ© t
Ġë¶Ħ ëĵ¤ìĿĦ
is dom
ĠÑĢÐ° Ð·
M ove
ì§Ī ìĿĺ
íĹ ¬
íĨµ ìĿĦ
ł Ģ
Ġhead ed
Ġìĥģ íĺ¸
ĠF REE
ê¸° ë¶Ħ
ë§Į ìĿĢ
en abled
Ġ ãħĩ
ëĵľëł¸ ìĬµëĭĪëĭ¤
íĨ ¨
ìĭĿ ë¬¼
Ġgold en
look ing
Ġpriv ile
Ġm unicip
R ender
se q
ĠF all
Ġì¢ĭ ê²ł
ĠìĿ´ ê²ĥìĿĢ
ë§Ī ë¥¼
ĠëĨĴ ëĭ¤
ĠìĥģëĮĢ ìłģìľ¼ë¡ľ
Ġíģ¬ ëĭ¤
M anag
." );
íĸĪ ëįĶëĭĪ
ĠíĻĶ íķĻ
ĠêµĲìľ¡ ìĿĦ
Ġp ython
Ġele m
ĠL ic
/ _
Ġdepend ent
ĠLear ning
ìĪĺ ìŀĪëĬĶ
Ġansw ered
th rows
Ġback up
Ġbul k
ĠV iet
íĤ ´
ì£¼ì°¨ ìŀ¥
Ġtele phone
ëŀĢ íŀĪ
Ġs ink
Ġnight s
ê°Ģê²© ìĿ´
íı¬ íķŃ
ê¸° ëĮĢ
Ġto x
S N
h ops
cont act
íķĦ ëĿ¼íħĮìĬ¤
Ġf er
Ġsome how
bs erv
Ġe igen
Ġim g
è ¨
_ *
Ġprepar ing
ĠêµŃ íļĮìĿĺ
ev in
Ġa qu
ìłĦ ìĦ¸
Ġpar ser
ĠìĽ ħ
ëĭ¤íĸī íŀĪ
ê°Ģ ë°©
ro g
Ġg est
Ġsh apes
Ar ch
Ġhol idays
Ġvalid ation
Ġconsult ation
Ġto ler
config uration
Ġìłģê·¹ ìłģìľ¼ë¡ľ
ìĹ° ê¸Ī
Z W
AN CE
Ġkn ock
S ur
ĠP ers
p air
ĠëĤ´ ëĨĵ
Ġbenef icial
ìĬ¤ íĦ´
h om
V I
ĠO pt
ê²Ģ ìĥī
av ailable
ëĴ Ģ
co ord
Ġì¶ ¥
ĠëıĻ ê¸°
Ġëĵ£ ëĬĶ
íĭ° ìĬĪ
Ġillust r
Ġdiam ond
íķĺ ê²łëĭ¤ëĬĶ
ìĺ¬ ëĿ¼
Ġcomput ers
ig a
Ġì§ ¬ë½ķ
" +
Back ground
Char acter
ĠëĬĲê¼ Ī
Ġë§Ī ìĭľëĬĶ
Ġìĵ° ê¸°
ĠìĤ¬ì§Ħ ìľ¼ë¡ľ
HT TP
Ġconsequ ences
Sing le
Ġê´Ģ ê°Ŀ
Ġch ap
ìĽĲ ê³¼
ĠM C
p ur
Ġëĵľ ëłĪìĬ¤
íķĺ ìħĶëıĦ
Ġìĸ¼êµ´ ìĿ´
ìŀĲ ë¦¬ìĹĲ
ĠWith out
am ic
ìķĪ ìĹĲìĦľ
ĠìĪł ìĿĦ
Ġch airs
Ġdr inks
Ġëª¨ ëĭĪíĦ°
Ġs ought
head ers
ðŁ Ļ
Ġz e
Ġìŀħ íķĻ
» ìŀİ
Ń ëĭĪëĭ¤
ì ĳ¥
Ġbl ind
el ry
Ġdynam ics
m aking
Ġëĭ´ ë°±
Ġcol lections
íĽĪ ëł¨
ëĮĢíķľ ë¯¼êµŃ
ê¹Į ë´Ĳ
ëĤĺ ë©´
L i
or ous
ë¹Ħ êµĲ
ĠìĥĿíĻľ ìĿĦ
íķ´ë³´ ë©´
íĻĶìŀ¥ íĴĪ
ĠÃ ¶
ĠSh ort
FL AG
ĠëģĮ ê³ł
ĠÃ¼ ber
-> _
ëĭµ ëĭĪëĭ¹
Ġag gress
l arge
Ġì½Ķ ëĦĪ
u rop
Ġì°½ ì¶ľ
olog ist
ìŀĲ ë¦¬ë¥¼
as ync
B est
ĠëĤĺ ëĭĪ
Ġref und
ìķĦìĿ´ ëĵ¤
ĠS ize
ìķ ±
ĠK ent
ìĬ¤ íĬľëĶĶìĺ¤
Ġgr ace
Ġpol ar
RE D
a ug
Ġmist ake
ĠF ac
ìĭł ê²½
ìĦľ íĬ¸
Ġc ul
Ġflex ibility
Ë· @
Ġid x
M ac
par a
ê³¼ ëıĦ
R ole
ĠAs sembly
ĠíĶ¼ ë¡ľ
ìķĦ ë³´
ĠëĤĺ ìĦł
ĠSt one
Ġsim ultane
Ġsc rew
ut o
Ġt ape
Ġst roke
ê± Ģ
N odes
S election
Ġë§¤ ì½¤
Ġë§Ī ìĦ¸ìļĶ
ë¶Ģ ìŀ¥
ĠìĻĦë²½ íķĺê²Į
abet es
ĠìľĦ íĺĳ
Ġìŀł ìĿĦ
Ġ" -
Z X
Ġë¶Ģ ìľĦ
Ġì£¼ì°¨ ìŀ¥
') );
Ġë§Į ëĤĺëĬĶ
ĠS ales
ê²° ìłľ
ê°ĢëĬ¥ íķľ
Ġfor um
ung s
Ġf ake
Ġven ue
ìĬ¤ ìĹĲìĦľ
Ġexec uted
v als
íģ° ìĪł
ĠìŀĳìĹħ ìĿ´
Ġal gebra
ê³µ ìľł
Ġêµ¬ ê¸Ģ
ĠìĿ´ìļ© íķĺëĬĶ
Ñĥ ÑĤ
sign ature
ê±° ë¦¬ê°Ģ
Ġë¨¹ ìĸ´ìĦľ
m ouse
ĠO il
ĠìĬµ ê´Ģ
ìĤ° êµ¬
IL ITY
ìĿ´ëĿ¼ ëĭĪ
Ġj ur
ĠìĿ½ ëĬĶ
ĠÂ ©
Ġì§ĢëĤĺ ë©´
ĠíĽĦ ê¸°ë¥¼
ê·¸ëłĩ ëĭ¤ë©´
_ ->
ip eline
Ġb unch
ĠI F
f old
Ġmount ains
ĠíĪ¬ ìŀĲë¥¼
ĠìķĪ ìª½
Ġsl ip
ìĺģ ìĽħ
ï¼ ī
Ġtri ps
; )
Date Time
ìĿ¸ ìĹĲ
, _
ìĪľ ê°Ħ
G G
Ġëª¨ë¥´ ê²Į
ad ium
ĠíĹ ¬ìĬ¤
get Name
Ġs ocket
Ġbe i
room s
íĨµ ìĿ´
ĠëıĻìĿ¼ íķľ
ĠR od
Ġsuff er
ìĸ´ ì§ĢëĬĶ
ê³Ħ ìłĪ
Ġíķĺ ìĭľê³ł
Ġìĸĺ ê¸°ë¥¼
am er
ìķĮ ê³ł
Ġm old
ĠP ur
_ <
Ġwat ers
Ġìłģ ìłĪíķľ
ĠëĬĲëģ¼ ê³ł
Ġd ol
ĠS ave
Ġclick ing
h h
E A
ìĪĺ íķĻ
ë¬´ ê²Į
S pr
Ġfall s
ìĻĶ ëįĺ
at z
ĠìĻ ¼
Ġcont roll
ê³µ ê°ľ
H istory
Ġm eta
Ġdam aged
part y
Ġens ures
ĠB ud
ĠìķĦ ìļ°
Ġ ÑĺÐµ
ìĶ¨ ë¥¼
yl van
ag ent
ê°Ģ ë©°
ìłģìľ¼ë¡ľ ëĬĶ
OL D
ĠG O
ë¹ ¡
ëĶ° ë¡ľ
Dom ain
Ġperson nel
Ġn ic
ĠCl in
K T
re lease
w y
íĸĪ ìĹĪëĬĶëį°
ìłķ íĻķ
Ð¾Ð½ Ð°
ìĥģ ëıĦ
Ġo g
pt on
Ġíķĺ ìħĶìĦľ
Ġal arm
ĠHam ilton
Ð¼ ÐµÐ½
ì§Ģ ìĪĺ
Ġê²ĥ ëĵ¤ìĿĦ
ëĮĢ ë¦¬
ĠíĿ¥ ë¯¸
Ġfing ers
Ġaim s
Ġëªħ íĻķ
Ġêµ¬ ìĦĿ
ëłĢ ëĭ¤
Ġvert ex
ìĿ¸ ìĽĲ
! '
ĠP rom
Ġfin est
Ġowners hip
ĠìĺģìĹħ ìĿ´ìĿµ
Ġtag ged
Ġsup pose
ĠíĨµ íķĺìĹ¬
ë¨¹ ìĿĢ
Ġsh irt
Ġs ql
un ique
ç ½
ell ar
Ġun iverse
Ġterm inal
ìķĦ ë¬´ë¦¬
Ġacknow led
ell ite
Ġth reshold
operator name
Ġconvent ional
d n
ĠSing apore
ëĳĲ ë²Īì§¸
Ġì£¼ ì§Ģ
ĠìĹĲ ìĬ¤
Ġë³´ìľł íķĺê³ł
íĶĦ ë¥¼
ĠTr avel
ĠíĻĶëł¤ íķľ
ĠBro ad
Ġn u
Ġë°©ë¬¸ íķ´
Ġê³ł ë§Ļ
Ġì¡°ê¸Ī ìĿĢ
Ġê°Ļ ê¸°ëıĦ
ĠìķĦë¬´ ëıĦ
D iff
ĠìŀĪìĿĦ ê¹ĮìļĶ
Ġg ym
Ġë·° íĭ°
ìľ¼ ìĭľëĬĶ
íķĺëĬĶ ì§Ģ
Ġn ose
Ex ample
ĠìµľìĨĮ íĻĶ
Ġlegis lation
Ġì¤Ħìĸ´ ëĵ¤
ĠÐ¾ Ñģ
Ġmy st
Ġì§Ģ ìĥģ
cit et
ì£¼ ëıĦ
Ġdifficult y
Ë· ===
Ð¶ Ðµ
Ġë©Ķëī´ ë¥¼
ĠìĿ¼ ëıĦ
Ġë°° ëĭ¹
Ġp ipe
ì£¼ íĸī
riv ing
ëĶ¸ ê¸°
am az
ê°Ĳ ìĹĲ
Ġqu ad
Ġ ÑĪ
ì±Ħ ëĦĲ
ĠìĤ¬ìļ© ìĿĦ
Ġvolunte ers
ĠìĹĨ ê¸°
ino is
L ight
Ġì§Ħ íķľ
Fr agment
yd ney
Ġin cl
ĠíĮĮ ëŀĢ
ëĶĶ ì§ĢíĦ¸
st ud
ĠìłĦ íĻĶë¥¼
ĠìķĦ ìĽĥ
ê±° ëĿ¼ê³ł
Ġëĭ¬ ëĿ¼ê³ł
íĶ¼ ìķĦ
Ġli ability
Ġg rey
. ",
Ġì´Ī ì½ľë¦¿
Ġbr ush
ore n
r ons
Ġê³ĦìĨį íķ´ìĦľ
ĠìĹ° ê°Ħ
Ġstay ed
Ġë¬´ ìĦŃ
Ġíĥĳ ìĬ¹
ìļĶ ê°Ģ
Ġì£¼ ìħĶìĦľ
Ġme ets
ëĤ´ ëł¤
Ġëª¨ ë¥¼
ë§Į ìľ¼ë¡ľëıĦ
Gener ator
Ġcompens ation
Ġìĺ¬ ë¦´
s r
D M
Ġë³´ ìķĪ
ĠíĶ¼ ìķĦëħ¸
Ġd ont
u h
Ġsm oke
Ġapparent ly
Ġìĺģ ìĽĲ
ĠëĮĢ ìĹ¬
Ġë°Ķ ëŀĢëĭ¤
al ert
Ġì´Ī ê³¼
Ġì°į ëĬĶ
ĠT ra
ìĦ¸ ì²Ļ
Ġim plied
ìĬ¤ëŁ¬ ìĽĮ
Ġë§Ī ìĿ´íģ¬
Ġê±° ëĿ¼ê³ł
Ġì¶Ķ ìĦĿ
ï¼ Ī
Ġg ender
d z
ĠìĿ¸ ìĬ¤íĥĢ
Ġê²° ì½Ķ
Ġassign ment
ë¬´ ìĬ¨
Ð ĺ
Ġê°ĢëĬ¥ íķĺë©°
Ġpaint ed
ch t
D ATE
ëĮĢ íĻĶ
Ġì½Ķ ëĶĶ
V R
Ġlas er
Ġìĭ ¼
Ġìį¨ ìķ¼
Ġprof essor
Ġenc ounter
Ġd uplic
Ġíķ´ ë¬¼
Ġc ir
ĠíĨł ë¡ł
ĠK ong
íĮ¨ ìħĺ
ure r
ĠH arr
ĠSk y
D ist
ĠFore st
Event Listener
ĠR a
ĠìĨĮ ìĭĿìĿĦ
Ġphilosoph y
ìĨ ľ
Ġreve al
Ġvo or
Ġp ic
ĠëĦĵ ê³ł
ëį° ìĿ´íĦ°
T ABLE
ê²¬ ìĿĦ
ìĹŃ ìĿ´
ĠU l
Ġcomplex ity
Ġf ur
Com ment
Ġfil ters
Ġë¹Ħ ëĭĲ
ãĤ ¤
Ġple asant
Ġadvant ages
Ġcl im
Ġë°ľ íľĺ
âĻ¡ âĻ¡
Ġweap ons
ĠëĳĲ ê»ĺ
ĠìŀĲë¦¬ ìĹĲìĦľ
ĠD am
Ġë³´ ëĥĪ
Ġden ote
ĠíĿ Ļ
i y
Ġqu eries
ĠíĶĦ ë¦°
ĠëĮĢ ëŀµ
ter y
Ġdr ain
Ġh ub
êµ ½
=" {{
Ġìĭľìŀĳ íķ©ëĭĪëĭ¤
ĠD own
Ġphotograph s
Ġë°¤ ìĹĲ
Ġord inary
ĠM om
Ġë°© ìķĪìĿĦ
Ġaccord ance
Ġcolle agues
Ġë°Ķ ìģľ
Ġprop ag
ĠìŀĪ ìĿĮìĿĦ
Ġb ab
ĠãĢ İ
^ +
Ġê±¸ ë¦°
ì´Ī ëĵ±íķĻêµĲ
ĠìĨĮ ì¤ĳ
Ġg auge
Ġsubsc ription
ĠC AN
Ġh anging
ä ¾
ì¸µ ìĿĢ
ĠCont in
B el
Ġs ync
Ġdevelop er
load er
Ġper m
Ġë§ĽìŀĪ ìĸ´
I Z
Ġaccomp an
Ġmoment um
Ġë°ĺ ëıĦì²´
ìĬ¤íĨł ë¦¬
ra q
ĠD J
ĠìĿ´íĥĪ ë¦¬ìķĦ
ìłķ ê¸°
rupt ed
ëģĦ ëŁ½
ĠLear n
ĠAr m
Ġëľ» ìĿĦ
ìĸĳ ì£¼
íĤ¤ ì¦Ī
W ORD
Ġw er
ë§Ľ ìŀĪê²Į
et c
Ġëĵ± ìĹĲìĦľ
Ġthrow n
ê±° ìĭ¤
Ġë¶ ķ
ĠíĮĮ ê´´
Ġì§ĢìĹŃ ìĿĺ
ĠìĬ¤íĨł ë¦¬
ĠÑģ Ð¿
as se
oc al
ĠìłĢíĿ¬ ê°Ģ
ëĭ Ľ
Ġsur ve
C reat
Ġact or
Ġê³µ ë¬´ìĽĲ
Ġd il
íĻĶ íķĻ
ðŁ Ķ
ĠL atin
ìŀĲê²© ì¦Ŀ
ëĶĶ ìķĦ
: #Ë·
ë³´ ëĿ¼
Ġw ake
Ġal umin
ë³´ëĭ¤ ëıĦ
Ġì« ĵ
Ġê³µ íı¬
and y
ĠR og
tab s
ĠìĿ´ ëĿ¼ê³ł
ìĥĪ ë²½
íĨł ë§ĪíĨł
er os
Ġret irement
' $
Ġì¡° ê¸°
Ġsche ma
i ac
iz abeth
ĠìĻĶ ëĬĶëį°
ch art
Ġb id
S erv
ĠëĪĪ ë¬¼
s ince
F ailed
ì²ľ ëıĻ
Ñĸ Ð½
ĠëĤ¨ ëħĢ
ĠìĶ¨ ëĬĶ
it ches
et he
P refix
Ġas p
ĠíķĺëĤĺ ë¥¼
æĸ ĩ
Ġm Ã¡s
Ġì°į ìĿĦ
r ank
ë¥ µ
ĠS ever
prot ocol
Ġìŀħ ìĹĲ
Ġëĵ ŃëĭĪëĭ¤
Ġf u
Ġfocus es
ol is
Ġsc ulpt
' =>
ra ham
ëĲĺ ê²Į
Ġp ushed
Ë· ...
ĠL abor
ĠVAL UES
Ġsk illed
ëĮ ķ
ĠìķĦìĿ´ ëĵ¤ìĿĢ
L en
ëĦĪ ìĬ¤
ìłķ ìĭĿ
op es
Ġvis its
Ġë°© ìĸ´
and ra
Ġìļ° ì£¼
Ġc md
em a
S ch
êµ¬ ê²½
Child ren
Ġsuppl iers
ĠA venue
ĠìĤ¬ ê¸°
++ ++
w ich
Inst all
t l
Ġcont ro
ĠÐ´ Ð»Ñı
ĠI C
ĠMed icine
Ġev il
II I
zon a
Ġì³ Ĳëĭ¤
Ġìŀ¥ ê´Ģ
ĠíĻ© ê¸Ī
) |
Ġexpl o
! ?
ĠPr ime
Ġë³´ ëĿ¼
Ġprec ision
ì¡± ë°ľ
ap ple
D iv
ĠI R
çĶ Ł
com fort
Ġwor ship
] \
ë§ģ ìĿĦ
ê²Ģ ì°°
Ġë§¤ ë²Ī
ĠìĿ´ ì¤ĳ
res ources
UR I
ë¶Ħ ëĵ¤ëıĦ
ë°© ìĿĺ
ang el
ë³´ ê°Ģ
ĠìĺĪìłķ ìŀħëĭĪëĭ¤
ìķĦ ëĵ¤
ìĿ´ ìłł
Ë·' )
yn om
ëĵľ ëł¤
ìĥĿíĻľ ìĿĦ
ĠìĦ¤ ëłĪ
ĠëłĮ ì¦Ī
ìĿ¸ ê°Ħ
ig o
íĮ į
Ġì¹¨ ëĮĢ
ĠëįĶ ë¸Ķ
ì¤ĳê³ł ì°¨
ìŀħ ìĿĦ
ĠëĦ ·
ìĤ¬ëŀĮ ëĵ¤ìĿ´
l oss
Ġfocus ing
ĠìķĪëħķ íķĺìĦ¸ìļĶ
Pro gress
ac ular
ĉ ĠĠĠĠĠĠĠ
Ġì½Ķ ì½Ķ
ìĻĢ ìĿ¸
ry ption
ĠëĿ¼ìĿ´ ë¸Į
", {
ĠT y
ĠìĿ´ìľł ë¥¼
ìĬ¤ íĳ¼
cd n
ast ed
h adoop
ëĤĺ ìĺ¤
ĠíĨµ ìĿ¼
Ġê·¸ëħĢ ìĿĺ
Ġíķľ ê°ķ
ĠëĤ ¯
Ñģ Ðµ
Ġl ady
Ġì¤ĳê³ł ì°¨
Ġìŀĺëª» ëĲľ
ĠI E
Ġìĥģ íģ¼
ë³´ ê±´
Ġconvert ed
å ĳ
C ert
ic ode
Ġstri ke
ĠR ome
I LL
Ġê´Ģ ì°°
} </
Ġm oon
Ġíļ ¡
Ë·} $,
Ġê²Į ëĭ¤ê°Ģ
ëĭ¹ íŀĪ
Ġconnect ing
ìĽĶ ê¹Įì§Ģ
ĠìĭĿ íĥģ
s un
W elcome
Ë·} $.
Ġëª¨ ëŀĺ
ÅĤ a
Ġen um
bur gh
Ġnot ification
Ġk on
Ð½Ð¸ Ðº
ĠG allery
ê³¼ ìĿ¼
Ġë¸Ķë¡ľê·¸ ë¥¼
ĠJ oh
b old
S B
Ġelect ed
Ġì§Ģ ìĿ¸
Ġr ug
Ġn orthern
Ġpost er
Ġë§ĲìĶĢ ìĿĦ
Ġíģ¬ ë¦¬ìĬ¤
ìķ¡ ìĿĦ
lik ely
aly tics
gener ated
Ġë©Ķ ìĭľ
ĠìĿ¸ê°Ħ ìĿĺ
re du
Ġpray er
k top
ãģ į
ĠëĤ¨ ë¶ģ
Ġë³Ģ íĻĶê°Ģ
Ġsaf ely
Ġë¬¼ê±´ ìĿĦ
ĠëĤľ ëĭ¤
_ ^
Ġì ĳ¥
ĠëĲ ¨
Ġpass es
orig in
Ġê±° ëĿ¼
F ix
ì¤¬ ìĸ´ìļĶ
Ġchild hood
Ġil legal
j ack
Ġinvent ory
Ġrot ation
Ġent itled
ðŁ ĵ
êµ¬ ìĹĲ
Ġcor n
coll apse
ĠìĺĪ ë¥¼
ĠðŁ ĳ
ĠëĨĢ ê³ł
Ġãħłãħł ãħł
Ġcut s
íĻľ ëıĻìĿĦ
br and
ĠíĹ¤ ëĵľ
Ġ- \
ì ª¼
Ġatt itude
int on
Ġì§Ģ ë°°
Ġë¥ ´
Ġëĵľ ìħĶ
ĠìĥĿê°ģ íĸĪëĬĶëį°
ĠìķĬìķĺ ìĬµëĭĪëĭ¤
} :
ì²´ ìĹĲ
in valid
ĠìĿ´ ê²ĥìĿ´
En umer
Ġprec isely
Ġspeak ers
Ġíķĺ ìĺĢëĭ¤
ĠS quare
Ġê°ķ ë¦ī
Ġê°ķ íķĺê²Į
ë°Ķ ìĤŃ
w t
ìĤ° ìĿĢ
Ġì´Ī ëĵ±íķĻêµĲ
s heet
ìķĪ ìľ¼ë¡ľ
Ġë²ł ìĿ´ìĬ¤
as hes
íĴ ĢìĿ´
ë¯¼ ì£¼
ĠP L
ì¡° ê°Ģ
Ġì´Ī ëĮĢ
H er
å ¥
Ġlog ging
Ġunus ual
ĠM ember
íı¬ íĦ°
Ġ ??
Ġs lic
an im
ë¯¸ ëĤĺ
Ġcoord inates
ĠìłķëıĦ ê°Ģ
ĠA li
ĠEx press
z h
Ġë°Ķë¡ľ ê°Ģê¸°
ìĿ¸ ê²ĥ
ort ed
Ġb ands
ĠT al
Ġê°ķ ë§Īë£¨
ĠìŀĳíĴĪ ìĿĦ
T ry
ps on
ÑĨÐ¸ Ð¸
ĵ Ĵ
ìļķ ìĭ¤
Ġth ro
Ġ ];
ĠìķĦ íĬ¸
ĠB ell
d ers
Ġë¨¸ ë¦¬ê°Ģ
~~ !!
ĠVal id
E st
Ġìĸ´ ë¦´
ĠT aylor
Ġc her
ĠìĿ´ ìŀĲ
ĠìĭĿ ìľ¼ë¡ľ
min us
ab ling
ĠìĨį ëıĦ
Ġê¸ ģ
n odes
ĠëĤĺíĥĢ ëĤĺëĬĶ
Ġmod es
Ġm ais
ĠH ou
t ar
ìŀ ¼
Ġë°Ķ ëĭ·
ìłĢíĿ¬ ê°Ģ
d am
Ġìľ µ
F low
Ġìľł ëıĦ
ë§Ī ìĤ¬ì§Ģ
u ating
Ġëªĩ ë²Ī
Ġì§Ģ ë£¨
Ġin ject
Ë·\ ,
Ġìĭ¤ íĺĦ
Ġl oud
Ġëª© ìłģìľ¼ë¡ľ
ëĥĲ ëĬĶ
Ġìķķ ë°ķ
ĠD u
p n
Ġëª¨ ìľ¼
ëĿ¼ ëĭĪ
Ġh al
Ġíģ´ ë¦¬
ĠC C
ĠëĬ¦ ìĿĢ
ì²ľ ìĹ°
ĠD iff
ĠëĮĢ ê¸°ìĹħ
ìĿ´ ìłĦ
ĠHe art
ìŀĪëĭ¤ ê³ł
Ġl y
b id
Ġb undle
B IT
Ġê·¸ëłĩ ê³ł
Ë·"> Ë·
ĠW as
ìłĦë¬¸ ê°Ģ
Ġë§ĳ ìĿĢ
Ġìĺ¤ ì§ķìĸ´
ì§Ģ ìĿ¸
Ġc otton
T w
ĠìķĬìķĺ ëįĺ
Ġê·¸ëłĩ ëĭ¤ê³ł
ë©Ķ ìĿ¸
Ġr iding
Ġdivers ity
Ġper t
Ġê²ĮìŀĦ ìĿĦ
Ġìĸ» ìĸ´
g un
ĠFr ont
Ġê²° ë¡ł
Ġemploy er
ìĹĨ ëĭ¤
Ġdis covery
íĬ¸ ë¡¤
Ġëªħ ëł¹
ê¹¨ ëģĹ
ê³³ ìĿĢ
on al
Ġch op
Ġl oyal
Ġìĺ¬ë¦¬ ë¸Į
ìĹ° íķľ
Ġìĭľìŀĳ ìľ¼ë¡ľ
íķĺìŀĲ ë©´
Ġro y
Ġs id
â łĢ
Ġcapt ured
ìĤ° ìĿĺ
tr im
Ġdesign ers
Ġd ad
æ µ
ĠP os
Ġprocess or
at omic
ìĬ¤ íĶĮëłĪìĿ´
Ġë°ľ ë§¤
ìķĺ ì§Ģë§Į
ĠD escription
Ġuser name
and id
AM P
ê³µ ìĹħ
Ð´ Ñĥ
ìĿĮ ìĹĲëıĦ
âĢ į
Ġëĭ¤ ì§Ĳ
Ġwant ing
ê¸° ìĸµ
es ch
Ġinput s
Ġiniti ative
Ġcere mony
ëł¤ ëĤĺ
Ë·] (
Ġê³³ ìŀħëĭĪëĭ¤
Ġëĵ¤ ìĹĪ
Ġo h
m ay
ĠS ong
H L
ol ly
"" "
ê¸° ê¹Įì§Ģ
Ġì£¼ë¬¸ ìĿĦ
ìŀĲ ëĵ¤
Ġsim ulation
Ġlov ing
ĠE astern
lo v
ĠSecret ary
IM IT
^^ *
Ġê´ľ íŀĪ
Text ure
Ñī Ð¸
r h
Ġs ont
Ġoper ated
t an
Ġb reat
Ġres idence
ĠãĢ Ĭ
Ġdownt own
aps ed
Ġabs ence
ĠH E
rop y
ĠíĶĮ ëŀĺ
ëĲĺ ìĸ´ìĦľ
appro x
é Ľ
Ń Ĳ
sing le
ĠF C
ë§Į íŀĪ
Ġì¢ĭìķĺ ìĬµëĭĪëĭ¤
qu is
ĠJust ice
ĠE mp
ìĭł ë¬¸
ĠAnt on
Ġê²Įìĭľ ë¬¼
int eg
ond a
ìŀĳ ìĹħìĿĦ
Ġintellect ual
Y ear
^{ (Ë·
Ġinter f
Ġt rib
ìŀħ ê³ł
Ġë©Ī ì¶Ķ
} -
ore r
Ġprec ise
N ative
Ġcas ual
B ound
Ġíķľ ë§ĪëĶĶ
ĠíĺĲìĿĺ ë¡ľ
Ġs ynchron
ĠF un
ë³ ĢìĿ´
in ery
Ġê°ĸì¶Ķ ê³ł
Ġv end
Ġpartic le
Ġsur faces
ê°Ĳ ìľ¼ë¡ľ
Ġê°Ĳ ê¸°
p ad
Ġì£½ ìĿĮ
Ġoptim ization
Ġë§İìĿ´ ëĵ¤
ê±° ì£ł
Ġwith draw
H OD
Ġìķ½ê°Ħ ìĿĺ
Ġëĭ¤íĸī íŀĪ
x F
ĠìłĢëħģ ìĹĲ
ë Ľ°
ìĹĲìĦľ ë¶ĢíĦ°
Ġê°Ħíİ¸ íķĺê²Į
ëĿ¼ìļ´ ëĵľ
Ġthem es
Ġw estern
an while
Ġrout es
ìĦľ ìķ¼
ĠP S
ëł¸ ëĬĶëį°
ĠCas ino
p it
Ġf iber
ĠN atural
D uration
Ġëª¨ ë¥¸ëĭ¤
ĠK T
ì¡° ì§ģ
ĠëĨĢ ëŀĲ
Ġdoll ar
Ġëĵ± ê³¼
Ġsure ly
ìĤ¬ ìĿ¸
Ñĸ ÑĤ
W ait
íķĺ êµ¬ìļĶ
ìļ© ëŁī
ĠêµĲ ê³¼
ë³´ ëĭĪê¹Į
Ġê°Ģ ë£¨
ìĨĮ ìĿĺ
Ë·' );
item ize
Ġexam ine
è ĩ
ia h
ĠíĤ¤ ìļ°
Ġtrust ed
> ::
Ġsuff ered
ê²ĥê°Ļ ìķĦìļĶ
ìĸ¼ë§Ī ëĤĺ
ê· ¤
Ù ħ
ĠC reek
ìĤ° ìĹĲ
sh al
ĠO s
Bl ack
lim ited
ĠëĪĦ ìĽĮ
Ġst om
ow ed
ëĵľ ëĿ¼
Ġcert ification
Ġre pository
cent ury
Ġ[ ],
ĠW ould
rec ated
is p
P ref
Ġtrans f
Ġíķĺ ê±°ëĤĺ
b oy
Ġinv ari
}} (
ĠëıĮ íĮĮ
Ġgr ateful
M ouse
Ġë©Ķëī´ ëĬĶ
ĠL I
Ġb ills
Ġê½ĥ ìĿ´
ĠíĮĲë§¤ íķĺëĬĶ
ĠN ick
Ġgener ator
ë§Ŀ ìĿ´
ëĭ´ ë°°
Ġsold iers
Ġê±° ê¸°ìĹĲ
ĠëıħíĬ¹ íķľ
ĠìĹħ ê³Ħ
I AL
ĠRes ponse
resent ation
ìĭł ê¸°
Ġì§Ħ ìłķíķľ
ĠëĦ£ ìĿĢ
umn i
nap shot
ĠëķĮ ë¶ĢíĦ°
sh ire
Ġ ought
ê¼¬ ì¹ĺ
Ġê·¸ ê±°
Ġì°¨ëŁī ìĿĦ
Hel p
ĠìĿ´ ë²¤íĬ¸ë¥¼
ĠC op
m icrosoft
ë©Ķëī´ íĮĲ
ot ive
ĠìĽĲ ìĿ¸ìĿ´
Ġg lob
ĠëĨ Ī
Const ants
Ġë¦¬ ìĸ¼
d ark
Ġpro pri
ë°ĺ ëıĦ
ylvan ia
ë©Ķ ìĿ´íģ¬ìĹħ
Ġb ass
ĠAct ive
Ġexpl oring
n ative
ĠPol it
ìĹŃìĭľ ëĤĺ
ì§Ħ ìĿĢ
E ffect
ex pect
ĠìĤ¬ìĭ¤ ìĿ´
LA Y
ĠìłĲ ì°¨
íķľ ìĿĺìĽĲ
Ġsl ide
Ġëª©íĳľ ë¡ľ
ĠìĥĿê°ģ ìĿĢ
DE F
Ġemot ions
le e
ord ered
ĠìĺĪìģĺ ê³ł
ìĦł ìĿĢ
ë§Ī ìĿĺ
íģ¬ ë¦¬
ìłĢ íŀĪ
b rowser
VAL UE
áħ ¡
ĠÑĤÐ° Ðº
ĠC y
in z
ë¹Ħ ìĿĺ
Ġë²Ħ íĦ°
ëķ ¡
Ø ¯
ìŀĲ ëĵ¤ìĹĲê²Į
) }\
ĠJ ob
ìķ¡ ìĿĢ
ç İ
ë¡Ń ê³ł
Ġìĸ¼êµ´ ìĹĲ
ìĤ ¶
mult i
ĠAd am
Ġë¶Ģ ë¬¸
Ġ= Ë·
Ġad mit
ĠìĿ´ ìłĦìĹĲ
Ġbreak s
count ry
r ays
ì§Ģ ëĿ¼
ian ces
Ġdeliver ing
ëĥī ë©´
íĪ °
Ġm ild
Ġcons ent
Ã¡ l
Ġman ually
ĠëĤĺ ìĿ´ê°Ģ
ĠProf essional
ìĨį ìľ¼ë¡ľ
Ġíķ´ ì£¼ìĦ¸ìļĶ
ĠëĮĢ íļĮ
ĠN othing
Ġposs ibilities
ĠQ uality
Ġed iting
Ġê¹Ĭ ìĿ´
Com pat
ë¯¸ ëĶĶìĸ´
Ġreg ime
Ġf etch
Ġcomp ress
F ore
________ ________
ĠìĤ´ ëł¤
ìĭľ ìłĪ
Ġok ay
op l
ìĿ¸ ìĤ¬
Ġìĭ¶ ìĹĪëįĺ
ĠD ream
Ġë¶Ģ ëĮĢ
ĠC ivil
Ġêµ µ
enumer ate
Ġì¢ħë¥ĺ ìĿĺ
Ġmin ister
Ġv ice
ĠEn joy
Ġtourn ament
ìĹħ ë¬´
run time
ë¡ľ ìŀī
ask a
Ġë³Ģ íĺ¸
Ġì¶ľ ìŀ¥
oc key
ì¿ł íı°
íı¬ ë¥´
ĠìĹĦì²Ń ëĤĺê²Į
log o
Ġì£Ħ ìĨ¡
ìĦ± ìĿ¸
Ġíķĺë£¨ ë¥¼
ĠJ r
Ġê¸° ë¶Ģ
ĠDE FAULT
ĠL anguage
ĠíĪ¬ ìĸ´
ëł¸ ìĿĦ
ĠHel p
íĺĳ ìĿĺ
ĠìĺĪìķ½ ìĿĦ
Ġw ound
ĠH ong
Ġunivers al
Ġtit les
' \
Ġdiscuss ions
Ġgr ay
íķĺìĺĢ ê³ł
p ull
ĠìĨĮ ëıħ
ĠëĲĺ ëıĦë¡Ŀ
Ġìĭ¤ ì§Ī
oc a
vious ly
Ġref ers
ìĸ´ ì§Ģ
ĠìĿ¼ë°ĺ ìłģìĿ¸
ì»¤ íĶĮ
Ġp df
Ġdis p
ock ets
ĠëĤĺìĺ¤ ì§Ģ
ĠB log
Ġcook ie
ì§Ħ êµ¬
ìĬ¤íĬ¸ ë¥¼
ĠìĭľìĬ¤íħľ ìĿĦ
ig ue
Ġlo ose
êµ¬ ìĦĿ
ì½Ķ ìĿ¸
Ġintegr ity
Ġaccount ing
ĠëĲĺ ìĹĪê³ł
ì¶© ì²Ń
ĠP a
Ġìĭł íĺ¼
ìĦł ìľ¼ë¡ľ
ĠArch itect
z n
Ġdetect ed
Ġíķľë²Ī ìĶ©
ah l
act ivity
Ġim pression
Ġìĸ´ë§Ī ìĸ´ë§Ī
ĠëĬĲëĤĮ ìľ¼ë¡ľ
Ġl iv
ëıĻ ë§Ľì§ĳ
Ġâ Ķ
ĠAdmin istration
ĠS ound
ê³¨ ëĵľ
ĠíĮ¨ íĤ¤ì§Ģ
Ġì§ĢëĤĺ ê°Ģ
ìķĦ ëĭĮ
A nt
Vis ible
met ric
H ub
ĠI L
S ql
Ġ( -Ë·
ìĭľ íķľ
Ġt ent
ìĿ´ ìĸ´ìĦľ
ìŀĲ ìĦ¸íķľ
ìłĦíĻĶ ë²Īíĺ¸
Ġíļį ëĵĿ
Ġrep airs
Ġíĳľ ì¤Ģ
Â» .
íķ¨ ìĿĢ
Ġìłģ ìłĪ
Ġconcent ration
Ġê°Ļ ìķĺëĭ¤
Ġê¹Ģ ë°¥
Ex pr
Ġpromot ion
Ġscen es
ìĹĲ ëĦĪì§Ģ
Ġê¸´ ê¸ī
ĠëĤĺìĻĢ ìļĶ
ĠTor onto
ĠíĽĦ ìĹĲëĬĶ
Ð°ÑĤ ÑĮ
Ë·, '
Ġê¸°ë³¸ ìłģìĿ¸
Ġy oga
Ġëª¨ìĬµ ìľ¼ë¡ľ
ĠM other
T L
Ġë°± ìĭł
Ġaccommod ation
Ġfr agment
íĻĶ ìĻĢ
Ġf t
Ł ê°ĢëĿ½
ìķĦ ëĤ´
Ġfra ud
Ġheav ily
Ġal gorithms
Ġloss es
ìŀĪ ìĹĪëĭ¤
ĠB C
Ġëį° ë·Ķ
ty pen
ĠC le
ĠìĤ¬ ë¡ľ
Ð ĳ
Ġì§Ī ë¬¸ìĹĲ
f ish
ĠC ome
Ġë³µ ì§Ģ
ĠP ow
Ġë³´ ìĭľëĬĶ
ĠìķĦë¦Ħ ëĭµ
ĠëĤĺ ëĵ¤ìĿ´
ĠM icro
ë¶Ģ ì§Ģ
c u
íķ´ ìł¸ìĦľ
re peat
Ġë¶Ģ ì§Ģ
W hether
ĠL ew
ê´Ģ ë¦¬ë¥¼
Ġre plic
íĬ¸ ìĻĢ
ĠëĮĢ íķĻìĥĿ
p ages
ìłĢ ê·Ģ
ìĿ´ ìĹĪëĬĶëį°
ê¸Ģ ìĿĦ
ĠìĿ´ ëĵ¤ìĿĢ
A h
Ġìĭ¬ ìĤ¬
Ġfarm ers
Ġë§¤ ëıĦ
Ġë°° ìĽĮ
Ġmer ge
ĠìŀĪ ëĤĺ
ft en
pie ce
Ġmat hemat
Ġaddress ed
Ġì¡° ìŀĳ
ìķ¼ ë§Ĳë¡ľ
ìķĦëĭĪ ëĿ¼
ê°ģ ì¢ħ
ë²Ħ íĬ¼
ì£¼ ëĭĪ
ord inary
Ġë°ĽìķĦ ìķ¼
Ġdef ect
Ġê³Ħ ì¢Į
Ġë°ĺ ì£½
Ġê³³ ëıĦ
ĠíĻĶ ë©´
B egin
íķĺ ê²ł
Ġh ill
ìĿ´ ìĹĪëįĺ
íĴĪ ìľ¼ë¡ľ
ĠSte el
Str uct
Ġr um
ric ulum
Ġë¶Ģ ê³¼
time out
ìłľ ìĻĢ
ìľ¼ ìĭľë©´
ìĦ± íĺķ
ĠìĦ± ìłģ
on ce
Ġê¹¨ ëĭ¬
ĠìĹ° ìķł
Ġê°Ģ ëĿ¼
ëıĻ íĥĦ
ĠìĿ¼ ìĹĲ
Ġsur f
Ġìĭľ ìŀ¥ìĹĲìĦľ
ĠM ade
Ġë¿Į ë¦¬
} |
Ġê³ł ë¥´
M AP
the y
ĠAg ency
g roups
ac cept
Ġìĭ± ìĭ±
ĠL ady
Ġprodu cer
Ġvalid ate
= $
ìľ¼ ë¯Ģë¡ľ
ĠMem bers
Ġsm ell
Ġeng aging
Ġrare ly
Ġv intage
Ġpil ot
Ġì¦Ŀ ìłķ
ìĦł ìĹĲ
ãĥ «
ĠC ub
Ġde pression
p ref
TI ES
Ġident ical
Ġë§¤ ì£¼
Ġì£¼ ë©´
ìĺ¤ ìłĦ
ĠìĦłë¬¼ ë¡ľ
con n
Ġì²´ ì¤ĳ
Ġíķł ëķĮ
or ce
Ġcounc il
Ġì°¾ ìķĦìĦľ
ëª© ìĹĲ
" /
ê¸° ê³Ħ
f mt
Ġê°Ģ ë¦¬
Ġop posed
an imation
ĠSt atus
! âĢĿ
ë§Ī ëĿ¼
dat abase
íĨµ íķ©
por ter
Ġë°ĺ ê°Ģ
Fl ag
ë²Ķ ì£Ħ
Ġìŀ¬ ë°°
ìĪĺ ì§Ģ
Ġmatt ress
ë² ³
Ġent ert
Ġê²½ìļ° ìĹĲ
Ġneut ral
Ġacqu ire
ì§ ¤
e lect
ĠM aterial
ro d
ìĭ¤ íķľ
ê±° ìĺĪìļĶ
ÑģÑĮ Ðº
ì£¼ ê°Ħ
ìĪĺ ë¶Ħ
Ġíķ´ ì¤Ģ
ĠìķĪ ìľ¼ë¡ľ
ak t
Ġìĭł ëĤĺê²Į
å® ļ
fe ed
ĠëıĻ ë£Į
) +
åı ¯
exp and
Ġign ored
ĠìĦ± ê³¼
Ġperform ances
Ġest e
ìľ¼ ë¡ł
id al
Ġìĸ´ëłµ ì§Ģ
Ð¾Ð³ ÑĢÐ°
Ġ% Ë·
Ġìĭľ ê³¨
ê¸° íļį
Ġso fa
ê·¸ ëħĢ
p al
ìĿ¼ ìĿĺ
Ġcontract s
Ġfif th
sim ple
Ġë³Ģ ëıĻ
Ġëĵ¤ ìĸ´ìļĶ
An imation
ĠíĮĲë§¤ íķĺê³ł
se par
ë¶Ģ ì¡±
Ġins ights
ĠëĳĲ êº¼
Inter val
Ġìĭľ ìŀ¥ìĹĲ
ĠìĿ´ íĺ¼
Ġìĺ¬ ë¦¼íĶ½
ĠìĿ´ ë¡ł
ìľ¼ ëĿ¼ê³ł
Ġë°©ë¬¸ íķľ
Ġenthus i
Ġì²« ì§¸
Ġview ing
Ġìłķ ìĦ±
Ġfew er
Ð¾ Ñĩ
re v
ĠìĭłìĦł íķľ
Ġìĭ¬ ìĭ¬
Ġflo ors
ìĥģ ê³¼
Ab out
ĠRem ember
uet ooth
ĠêµŃ íĨł
ëĳĲ ê¸°
B i
ĠìĿ´íķ´ ê°Ģ
sc ore
s peed
ì¿ł íĤ¤
her ited
Ġíĥĳ ìŀ¬
ĠÐ¿ Ð¾Ñģ
Ġë§Ī ë£¨
Ġt ie
L ower
Ġr ust
Ġìĥī ìĿ´
êµĲ íļĮ
Ġdesc ript
on ut
ĠI raq
Ġh orses
Ġkey board
Pl an
Ġíķ¨ê»ĺ íķĺëĬĶ
ìĿ´ë²Ī ìĹĶ
Ð¾Ð² Ð°
ĠëĲĺ ë©°
íħĶ ëłĪ
Ġvolunte er
ĠAg reement
Res ources
ìłĲ ìĿĺ
ĠìĹ° ëł¹
ëĤ´ ìĹĲ
ĠC over
i ert
ex it
Ġê³³ ìĿ´ëĭ¤
Ġìłķ ê·ľ
Ġëĭ¤ ëĭĲ
Ġì§Ħíĸī íķ´
ĠR ol
Ġsepar ated
ìłĢ ëŁ°
ĠìĽĲ íĻľ
Ġë¸Ķë¡ľê·¸ ìĹĲ
ìļĶ ê¸Ī
ĠCON DU
Ġo vers
ìĺ¤ íĨł
Ġê¸°ë³¸ ìłģìľ¼ë¡ľ
íķĺ ëĦ¤
ĠB MW
ĠëıĦìĭľ ëĿ½
ĠLim ited
Ġë¶Ģ ëŁ¬
Ġvers us
Ġíģ´ ëłĮì§ķ
res olve
Ġn erv
ê³µ ëıĻ
ij n
ìŀĪ ëĦ¤ìļĶ
S creen
Ġê°Ģ ìĬ¤
ë¯¸ ìķĪ
Ġm arg
Ë· __
V ICE
ë¡ľ ê±°
Ġs es
Ġê·¸ ê²ĥëıĦ
Ġlist ener
ac les
Ġinstr uments
ĠBr idge
Ġcam eras
ou ds
ĠíİĺìĿ´ìĬ¤ ë¶ģ
Ġg aming
ĠíĦ° ì¹ĺ
ĠM arg
ĠSen ate
ĠìŀĪëĭ¤ ê°Ģ
ë§ī ìĿ´
Ġch ip
az y
Ġê¶Į ìŀ¥
Ġìļ´ìĺģ íķĺê³ł
im o
íķ´ ìĪĺìļķ
Ãµ es
Ġëĥ ł
Ġex clus
Ġì§ĳ ìĿ´
Ġnewsp aper
ê±¸ ë¦¬
Ġ$ _
Ġë°© ì¹ĺ
Ġassist ant
ĠìĦ¸ ê¸Ī
hel per
Ġutil ize
Ġlett ing
Ġelse where
Ġg i
}) \
LO C
ac o
íĮ Ŀ
ìĸĳ ìĿĦ
íķĺ ì§Ħ
Ġìłĳ ì´ī
Ġhe aven
âĢķ âĢķ
q q
Ġë°Ķëĭ¥ ìĹĲ
ĠK BS
Ġf mt
Ġpri ze
ĠPerson al
Ġëı¼ ì§Ģê³ł
ĠM B
tr ain
íĮ ½
Ġê´Ģ ë¦¬ê°Ģ
ë°Ķ êµ¬ëĭĪ
Ġê³ł ëĵ±íķĻêµĲ
Ġëĵ± ìĤ°
US ER
ĠìķĮ ë°Ķ
ĠE th
ë§¤ ë¥¼
é Ĺ
ë¶Ħ ëĭ¹
ic ator
ìĨĮ ë¡ľ
t ures
O FF
Ġobject ives
Ġë§ Īëĭ¤
ĠĠĠĠĠĠĠĠ ĠĊ
ì¼ĢìĿ´ ìħĺ
Ġpro ps
Ġë¡ľ ë´ĩ
Ġg otten
ĠBo olean
Ġíı¬ íķŃ
Ġíķĺ ëŁ¬
ìķ¡ ìĿ´
ëŁ¬ ìī¬
D em
ĠWARRAN TIES
typen ame
Ġtime out
ĠCons ider
r ift
Mult i
Ġê±´ ì§Ģ
ĠìķĦ ìĭľì£ł
ĠScot land
Ġ, ,
ë§Į ëĵ¤ìĸ´
ìĿ´ ë¹Ħ
Ġbu f
Ġìĸ´ëł¤ ìļ¸
Ġz ur
Ġcon vey
Ġêµ¬ íĺĦ
AC H
Ġë§Ī ë¬´
ĠGold en
íĻĶ íıĲ
Ġsex ual
ÑĢ Ñı
Ġchar set
in als
N Y
m obile
Ë·) (
Ġatt ending
Ġhost s
() </
Ġfrequ ent
b atch
Ġì²ĺìĿĮ ìĹĲ
Ġë¶Ī ìĸ´
Ġra ising
AS K
ìĻ¸ ê³¼
Ġton ight
Ġshe ets
ê²½ ì£¼
ÑĤÐ¸ Ð²
Ġint ense
ĠìĺĪ ê³ł
Gener al
N UM
Ġpe er
Ġë§Į íĻĶ
ĠM u
Ġë°Ľ ê¸°
-------------------------------- ----------------
Ġobserv ation
Ġmechan ical
met ic
Ġë§Ī ë¦¬
g if
Ġbo ards
vis ible
x C
Ġs hed
form ed
Ġëĭ¤ë¥´ ëĭ¤
n l
ĠCONDU IT
cy cle
Ġë²ķ ìĿ¸
I H
Ġëĭ¹ ìĦł
Ġn icht
is cher
íķĦìļĶ íķľ
Ë· ^{-Ë·
ĠìĨĲ ëĭĺìĿ´
ĠGu ard
Ġê°ľ ë°©
connect ed
Ġê²Ģ ìĤ¬ë¥¼
ìŀĲ ê·¹
sh are
Ġm igr
ë ®
f ixed
Ġover flow
ĠíĻķìĭ¤ íķľ
k an
ĠM E
ìķĦë²Ħ ì§Ģ
ê°ľ ëĬĶ
Ġch ronic
el ve
Ġb oss
Ġë³´ ëĤ¼
íĨ °
end ant
ĠW HERE
Ġrefr iger
Ġmur der
ĠT ABLE
ëıĪ ëĤ´
Ġse am
êµĲ íĻĺ
ìĭ¬ ì§Ģìĸ´
Ġse asons
Ð°Ð½Ð¸ Ñı
on i
opt ional
ĠêµĲ ìłķ
ĳ ¤
Ġê³µ ìĽĲ
ĠìĹ° ìĸ´
Ġdestroy ed
Return s
ì»¤ ìĬ¤
ìŀĲ ëĵ¤ìĿĦ
ĠIO Exception
vert ical
at en
Ġre ception
ĠíĤ¤ ì¦Ī
Ġ( $Ë·
Ġd ough
Ġë¶Ģ ì²ľ
å Ģ
ĠíĥĢìĿ´ ìĸ´
hav ior
Ġprof iles
Reg istry
ĠíĨµ ì¦ĿìĿ´
ĠìĥĿ íĥľ
ous es
Ġcomb at
ĠìłĦ ë³µ
ĠëĤĺ ì§Ģ
ëĵľ ëłĪ
Requ ired
id os
ĠìŀĲ ë£Įë¥¼
Ġê±´ê°ķ íķĺê²Į
Ġë¶Ģ ë¥´ëĬĶ
enc ia
() ))
ĉ ĠĠĠĠĠ
Ġìľł ìĿĺ
ìĸ¸ìłľ ëĤĺ
Ġë³´ìĹ¬ ì£¼ê³ł
ver b
"> (
(' Ë·
ì¹ĺ ë§Į
Ġe q
iam i
ìķĪ ìĤ°
ĠE ric
Ġcompos ed
Ġê³µ ìĿ¸
ĠD ark
ĠìŀĪ ëĤĺìļĶ
ĠSt ream
Ġin struct
ìł¸ ìļĶ
Ġt ons
Ġê³¼ ìłķìĿ´
ĠìĽ ¬
â ķ
STR ING
ant o
Ġgraph ic
Ġìĩ ł
ĠR ail
Ġë¯¿ ìĿĦ
ĠëĤĺ ìĿĢ
íķ´ ë³´ê³ł
Ġw idget
ë²ķ ìľ¼ë¡ľ
Ġíĥģ ìĽĶ
the orem
Ë· ->
ĠëĳĲ ë²Ī
Ã ī
Ġelim inate
INT ER
ĠĠĠĠĠĠĠĠĠĠĠĠĠĠĠĠ ĠĠĠĠĠĠĠĠĠĠĠĠĠĠ
íİ «
ëĸ ¨ìĸ´
ä¸ ĭ
) }}
íķĺì§Ģ ìķĬ
Ġd ot
Ġscr atch
S ep
Ġë³¸ ìĿ¸ìĿĺ
ì¤ĳ ìļĶ
Ġhand led
Ġconsist ently
ë¸Į ë¡ľ
ĠìĦłíĥĿ íķł
ĠëĤ¨ ëĬĶ
ì§Ħ íĿ¥
ĠìĿ´ë¦Ħ ìĿĢ
Ġres id
ly n
Ġ Ä
Ġë³´ ìĭľê³ł
Ġres erve
(" %
Ġpro hib
ëĵ± ìĹĲ
ÂłĠÂłĠ ÂłĠÂłĠ
Ġë¸Į ëĿ¼ìļ´
ê³ł êµ¬ë§Ī
Ġs our
Ġpack et
Ġg re
ĠF ox
U ri
Ġstop s
Ġmist akes
ut ies
íķĺ ëįĶëĿ¼ê³łìļĶ
Ġì¶Ķ ìĽĮ
ĠColumb ia
ri ent
Ġë¶Ģëª¨ ëĭĺ
Ġsurround ed
ĠC art
Ġê±° ì£ł
Ġinvest ments
ĠìĤ¬ ìŀ¥
ìļ° ëĵľ
ĠS ydney
êµ ³
ĠìĨį ìĿ´
ĠCap ital
Ġíķľ ìª½
rad io
ĠVis ual
Ġë¨¸ ë¦¿
ĠëĶĶìŀĲìĿ¸ ìĿ´
ë²ł íģĲ
Ġm erc
ë¶ģ êµ¬
ìĺ¤ íĶĦ
ĠìĿ¼ ìĭľ
ãĦ ¹
Ġê·¸ ëĵ¤ìĿĢ
Ġëĭ¨ ê¸°
Ġnull ptr
ĠWord Press
Ġíıī íĥĿ
Ġ$ $
ìĨĮ ìĨ¡
Ġsu cc
ĠD a
ors hip
Ġë²Ī ìĹĲ
ĠA k
Ġì£¼ ìłľë¡ľ
'] ['
Ã¤ nd
ãģ Ĥ
Ġroll ing
TR UE
ìŀł ìĭľ
ĠHar ry
ë¶Ħ íķľ
ëĮĢ ëıĦ
ëł ĺ
ĠëĦĺ ì¹ĺëĬĶ
Ġhard ly
Ġv ine
ĠìĺĪìĥģ ëĲľëĭ¤
Ġìĺ¬ ë¦¬ëĬĶ
Ġst amp
ĠH an
Ġbr anches
íĮħ ìĿ´
In formation
Â ´
em ed
Ġc ow
ðŁ İ
ëĬ¦ ê²Į
ê³ł ê¸°ê°Ģ
wh o
Ñ ļ
ìłľ ìĿ´
í īģ
t ok
Ġinvestig ate
åŃ Ĳ
Ġíķ´ëĭ¹ íķĺëĬĶ
ĠVeg as
Ġì¹ĺ ê³ł
Ġê°ķ ìĤ¬
Ġì°į ìĸ´ìĦľ
áĦ ĭáħ
Ġìĥĺ íĶĮ
DE FAULT
Ġê²ĥ ìĿ´ëĿ¼
Ġë¹Ħìļ© ìĿ´
ìŀĲ ìĿ´
ìĸµìĽĲ ìľ¼ë¡ľ
íķ´ ë¬¼
íĸ Ħ
iss ance
Ġleg it
ëĿ¼ ìĿĺ
ëŀĢ ëĵľ
ìŀħ ëĭĪëĭ¹
ìĹ¬íĸī ìĿĦ
Ġê³µ íĨµ
St ar
Ġìĸ¼ ìĿĮ
C r
ê²° ìĿ´
Ġpar agraph
T HE
Ġh ip
ëĭ¤ìĿĮ ìĿĢ
N amespace
ell i
Ġìĭľ ìŀ¥ìĿĺ
D ie
Ġì° ¢
æ Ļ
S a
Ġìŀ¬ ë¬´
min ute
Ġa ver
Ġìŀ¬ íĮĲ
ns ylvania
Ġworks hops
Ġenh anced
ĠBe ing
Ġë°ľ íļ¨
Ġed ited
Ġamong st
Ġein er
Ġëĭ¬ ê³ł
Ġinj ured
m ys
Id s
j en
Ġdemonstr ated
on ia
ëĤĺ íĥĢ
ist e
ĠR ow
Ġhe sit
Ġr acing
ĠK at
Ġmor al
vari able
Ġwrit es
m ount
ĠðŁ Ĵ
ìľł íĨµ
Det ail
Ġíķ´ ë³´ê³ł
Ġsurv ive
ĠCh annel
ëłĮ íĬ¸
ì¡Į ê³ł
Ġt ensor
Ġë§ŀ ì§Ģ
Ġdelet ed
ê°Ħ ìĭĿ
ĠS ale
Ġsymbol s
ìĭľ ì¯¤
ĠìŀĲìľł ë¡Ńê²Į
f actory
ìĹ° ìĿĺ
Ġë¬´ ìĹŃ
tw itter
ctr ine
Ġê´Ģê³Ħ ë¥¼
ĠDes pite
Ð¾ÑĤ Ð¾ÑĢ
bour ne
Ġz um
. :
Ġen orm
ĠB ol
ĠG ive
Ġcomput ing
Ġover view
M iss
Ġdur able
Y S
Ġg el
Ġover come
ĠE nc
Ġpack aging
ĠìŀĪ ê²łì§Ģë§Į
(' .
ph y
us et
ìĺ¤ ìĺ¤
Ġcreat ivity
ĠìķĦë§Ī ëıĦ
âĳ ł
ĠìĿ´ìĥģ íķľ
Ġt ube
ê·ĢìĹ¬ ìļ´
ìĸĳ ìĿĺ
ĠE ND
ìŀĲ ìĽĲ
P air
s ync
ë Įĵê¸Ģ
Ġë¯¸ ëĶĶìĸ´
Ë·} }\
T M
Ġstain less
Ġíĺ¸ ì£¼
ĠH o
ĠStud ent
ë³´ ê´Ģ
Ġëĵľë¦¬ ê²łìĬµëĭĪëĭ¤
Ġopt ical
ëĵ¤ìĸ´ ê°Ģ
ĠChe m
ĠìĿ´íĽĦ ìĹĲ
e j
ĠÑģ Ðµ
c ounter
D OM
ĠìĿ´ ìłķëıĦ
ĠìłľíĴĪ ìĿĺ
ìľ¡ ìķĦ
ĠIll inois
ä¸ º
Ġgenu ine
ĠìŀĪ ê³łìļĶ
Ġëĵ± ëıĦ
Ġë§Ĳ ìķĦ
Ġë°Ķ ë¥´
Ġcelebr ation
x id
Ġth irty
Ġu i
bo ost
L ove
ĠN iger
ë°Ģ ë¦¬
Ġclub s
ĠOx ford
ìĶ ½
ĠìĨ¡ íĮĮ
ĠAdd ress
Ġì§ ł
ĠS L
Ġì¶Ķ ìĦ¸
Ġdriv es
ĠMin istry
eli hood
Ġê°Ģ ì§Ī
Ġsl ots
al so
B inding
riv ial
Ġs ys
Ġì²ĺìĿĮ ë¶ĢíĦ°
r uby
ĠëĬĺ ìĸ´ëĤľ
object s
c ity
con structor
ìĸ´ ëĤ´
ë¦¬ ë©´ìĦľ
Ġëªħ ìĿ´
Ġìĺ¬ ëŀĲ
Ġë³´ ìĻĦ
Ġcook ed
ĠC M
ĠSaf ety
ĠìŀĪ ëįĶëĿ¼ê³łìļĶ
d ependent
Ġ ell
Ġinv ite
ëħĦ ìłĦ
ë°° ê¸°
Ġìĺ¤ ìĭł
Ġex ports
ë§¤ ë¬¼
Ġê°Ĳ íĥĦ
ĠF ALSE
Ë· âĢĿ
rop ical
ert y
Ġr anging
ion i
Ġefficient ly
ìĪĺ ìŀĪ
Ġêµ¬ìĦ± ëĲľ
Ġì§ģ íĽĦ
B re
ĠL ie
Ġins pection
pe g
ìłķ ë¹Ħ
f p
Ġw ins
ĠìĥĿ ì¡´
ou ver
ĠB at
ìĦ¤ ë¹Ħ
ĠìĹħ ì¢ħ
ìĤ¬ ìłĦ
Ġ" ";
ê³ł ëıĦ
íĴį ìĿ´
Ġincor rect
Ġsk i
ĠëģĬ ìŀĦ
Ġì§Ħíĸī íķł
ĠìĨĮ íĺķ
an ia
Ġì½ ¤
ĠíļĮ ìŀ¥
ê º
Ġìļ° ìĪĺíķľ
Ġë¹Ħ ëĤľ
ĠìŀĲ ìľ¨
ĠA ud
Ġin fection
Ġwer den
Ð½Ð° Ñı
W D
ì²ľ ë§ĮìĽĲ
ĠíĻĺ ê²½ìĿĦ
Â» ,
Ġë°©ì¹¨ ìĿ´ëĭ¤
Sh ape
Ġgar lic
Ġw ider
é ¡
íķĺì§Ģ ëıĦ
Ġë²Ħ ìłĦ
over ty
íĮ ľ
ĠìķĦ ëģ¼
< !
ëĭĪ ëĬĶ
Ġstr uck
ë§ī íŀĺ
Ġì¢Į ìļ°
ê°ĢìĬ´ ìĤ´
} ^{Ë·
Ø ª
M er
ëĭ¤ ëĭ¥
ĠëĽ° ìĸ´ëĤĺ
ìĭĿ ê³¼
Ġê¸ ĢìĿ´
ĠìĤ¼ìĦ± ìłĦìŀĲ
Ġë¶Ģëĭ´ ìĿĦ
ë¡ľ ìĿĺ
Ġwr apped
Ġmove ments
Ñĥ Ñİ
des ign
? (
qu ote
up t
íĸĪ ìĸ´
Ġevery body
Ġp uzz
ĠO ak
ĠëĦĪë¬´ ëĤĺëıĦ
P ACK
ĠK ind
Ġres olved
Ġmus cles
ëĮĢ êµĲ
íĺĦ ëıĻ
ĠìķĦë¬´ ëŁ°
ĠSh are
ìĻľ ëĥĲ
Ġê³ł ìĨĮíķľ
Ġì¢ĭìķĦ íķĺëĬĶëį°
st able
Ġcoord inate
Ġë¯¸ ìĤ¬
Ġrel ating
ë³µ íķ©
ĠÐº Ð¾Ð½
ĠÐ ¥
Ġë³´ìĿ´ ëĦ¤ìļĶ
ĠÐ³Ð¾Ð´ Ñĥ
ĠC orn
u ations
ë°± ìĿĦ
os es
Ġëª¨ ë°ľ
ë§¤ ìļ°
ĠëĶĶ ìŀĲìĿ´ëĦĪ
Ġì§ģ ìłĦ
ik ip
Ġì§ĳ íĸī
Ġse vent
ext end
ì²´ ìĿ¸
Ġpre t
ë¦¬ íķĢ
Ġì§Ģ íĺľ
c ost
ë§Ī ì¹¨
Head ers
TR IB
l ap
F ocus
æĪ Ĳ
ĠìĦł ë¬¼ìĿĦ
ìĵ° ëĬĶ
íķ´ ìķĪ
Ġë°± íĻĶìłĲ
Reg ion
x E
ĠIS O
Ġíķ´ íĶ¼
ĠL ind
Ġê°Ģê²© ìĿĦ
Ġemer ging
âĺ ŀ
ìĨį ëĪĪìį¹
ĠìĺĪë»Ĳ ìĦľ
C ur
Ġíĳ¸ ë¥¸
Ġì¹ľêµ¬ ëĵ¤ê³¼
Ġle mon
Ġìĸµ ìłľ
ĠìķĪ ê³ł
Ġremark able
Ġë¯¼ ì¡±
ì¡° ìĽĲ
Ġmount ed
u ates
> )
Ð ¢
ì¶Ķ ì¶ľ
ëĮĢ íĨµëł¹
æ Į
Ġíİ¸ íķĺê³ł
ed e
g lyph
ĠW ars
ĠBook s
ë²ł ë¥´
f loor
Ġê¸°ëĮĢ ê°Ģ
Ġc ush
ìĭł ìļ©
Ġì²ŃìĻĢ ëĮĢ
Ġg athered
ìĸ´ ì°Į
ìĬ¤ ì¿¨
ĠĠĠĠĠĠĠĠĠĠĠĠĠĠĠĠĠĠĠĠĠĠĠĠĠĠĠĠĠĠĠĠ Ġ
Ġredu ces
Ġì¢ĭ ëĭ¤ëĬĶ
h ook
ĠRec ords
TH ER
d uration
Ġas sem
Ġimportant ly
Ġk Ã¶
ĠíĥĢ ëĬĶ
Ð² Ð°Ð½
è ¾
Ĺ ê²Į
ĠSt op
Ġë³¶ ìķĦ
Ġì¤ĳêµŃ ìĿĺ
ĠH ig
ĠëĶĶìŀĲìĿ¸ ìĿĦ
Ġor th
ass ign
ĠëĶ± íŀĪ
Ġexc it
Ġmeaning ful
Vert ex
ĠT reat
w arning
Ġê°Ģ ìĭľ
ìĥģ ìĬ¹
om ething
Ġìĭ¤ ìļ©
pro vider
ĠìĦ¸ ë¶Ģ
Ġo w
ìĦ¸ ìĿĺ
Ġíķľ ê°Ģ
ìĬĪ íį¼
Ġper mitted
ĠëıĦ ì¿Ħ
Ð» Ñĥ
Ġëª© ìļķ
Ġì¹ľìłĪ íķĺê²Į
Ġìĭľê°Ħ ëıĦ
Ġanal og
Ġb omb
Ġburn ing
ì¹ĺ ë©´
Ġl ibraries
ĠCh rome
Log in
ĠF lo
od el
con struct
Ġrough ly
ĠìĿ¼ ìŀĲë¦¬
ĠÃ º
Ġlegis l
ìĿ¼ ë¶Ģ
Ġemot ion
ch at
ì¡° ëªħ
... ^^
In tern
ĠëłĪ ë²¨
Ġdi pl
íĺĦ ìŀ¥
Ġì°¸ ì¹ĺ
Ġt ort
ID E
ìħĢ íĶĦ
Ġë ĺ¥
ĠH ost
¯ Ķ
it en
v space
ìĭľ ì²Ń
e u
Ġtyp ed
K it
ĠSt ory
lim its
Ġc ord
istic ated
he alth
Ġìľ ¨
Ġmix ing
Ï Ħ
ĠëĶ± ëĶ±
ump y
ĠEx change
ĠPro p
no indent
ìľĦ ìĻĢ
íķĺ ê²łëĭ¤ê³ł
ĠPl ant
ĠìĿĳ ëĭµ
Ġsleep ing
Ġsh ips
Ġheart s
ìĪĺ ëıĻ
ĠíķĻìĥĿ ëĵ¤ìĿ´
!!!! !!
mar ks
cl one
ë²Ī ì¶ľ
re ements
ìĺ¤ íŀĪëł¤
Ġë§Ī ë²ķ
ĠìĨį ëĪĪìį¹
Ġbel t
Ġsett led
! (
Ġì¢ĭìķĦ íķĺìĭľëĬĶ
Ġìĭľìŀĳ íķ´
ĠìķĦìĿ´ ëĵ¤ìĿĺ
Ġì°¸ê³ł íķĺìĦ¸ìļĶ
od s
ë£ ½
Ġì§Ħíĸī ëĲĺëĬĶ
ĠëıĦ ë§Ŀ
ĠëĦĺ ìĸ´ìĦľ
ìħ¨ ìľ¼ë©´
Ġë§Ī ì¹ľ
ì£ µ
w ick
Ġê°Ļ ëĭ¤ëĬĶ
ĠêµŃ ë°©
Ġread only
ĠìĦ ¹
hor izontal
Ġë³µ ê·Ģ
ĠEl izabeth
Ġex terior
UT H
ĠìºĲ ëĤĺëĭ¤
Ġresult ed
ìĿ¸ ìļ©
ì¼Ģ ìĿµ
ĠTrans port
} ^\
Ġcur tain
Ġwor ried
D elegate
ĠìĹĨ ìĹĪìĸ´ìļĶ
å İ
Ġmet rics
ĠìĬ¤ íĥł
ĠíĬ¸ ìľĦ
ëĲľ ìŀ¥
N amed
ĠìķĪ ì£¼
Ġíķ©ë¦¬ ìłģìĿ¸
Ġê²½ ë¶ģ
Ġë°ľíĳľ íķľ
Ġê¿Ī ê¾¸
Ġëĵ¤ ìĿĢ
Ġì¶ľ íĮĲ
st o
Ġì ī´
Ġfl ights
Ġìĭľìŀĳ ëĲľ
Ġhapp iness
Ġstrugg ling
ĠO nt
Ġì¶© ì¡±
Ġë²ĦíĬ¼ ìĿĦ
ë³¼ë§Įíķľ ê³³
ile y
ĠH ay
ĠíĿ¬ ìĥĿ
Ġìĺģ ìĹŃ
Ġì²¨ ë¶Ģ
ĠT oy
Ġëĭ¹ìĭł ìĿ´
ĠìľłìĿ¼ íķľ
ëĳĲ ê·¼
Ġìĥģê´Ģ ìĹĨìĿ´
ĠComput er
ĠíĬ¸ ë¦¬
Ġconfig ured
Ġíķĺ ëĵľ
r uct
es is
Ġvict im
Ġdepend encies
Ġê¸° ìģ¨
lin ks
ê´ľ ì°®
un i
ë§Ī ì¼ĢíĮħ
Ġ} \
ĠVill age
side bar
ìŀħ ìŀ¥
Ġê¶ģê¸Ī íķĺìĭł
mult icol
Ġê±° ìĹĲìļĶ
Ġ$(' #
Ġe c
Ġë§Ĳ íķĺê³ł
ëıĦ ì°©
Ġbe ans
Ġab ilities
N ormal
ĠìĹħê·¸ëłĪìĿ´ ëĵľ
Cl uster
Ë· ..
Ġëĺĳ ê°Ļ
Ġìĭ¬ê°ģ íķľ
Ġpip eline
ĠìĤ Ĳ
claim ed
ĠíĻĶ ìĦ±
Ġëª©íĳľ ë¥¼
s al
íķĺìĹ¬ ìķ¼
class Name
Ġtarget ed
ĠìĹ¼ ìĥī
ĠìŀĪìĹĪ ëĬĶëį°ìļĶ
Y X
Ġdis able
te ch
Ġparticip ating
all enge
ĠO wn
íİ¸ íķĺê²Į
is o
ĠíĿĲ ë¦Ħ
mer cial
ĠìĽĲ ë£¸
ĠG ard
ĠWil son
Ġob st
Ġê°Ļ ìķĺìĸ´ìļĶ
Ġíķĺ ëįĶëĿ¼ê³łìļĶ
ĠAn th
ê³µ ë°©
Ġìłľê³µ íķĺê³ł
ìĦ¸ ì°¨
Ġassum ption
ol ving
ĠìĨĮê°ľíķ´ ëĵľë¦´
F ramework
íį¼ ìĬ¤
Ġìłķë³´ ê°Ģ
set up
ìŀĲ ìĦ¸
Ġsw ing
ĠëĪĦ ë¥´ë©´
Ġ _Ë·
Ġloc ks
Ġë³´ëĤ´ ëĬĶ
Ġf ue
Ġë§Ī íĬ¸
ëįĺ ê°Ģ
ĠIn f
ê¹ ľ
ë©Ķ ìĿ´ëĵľ
ĠMot or
Ġover se
ìĵ° ê¸°
Ġìĺģ ëĵ±
Ġë¦¬ íķĦ
Ġìļ´ ìļ©
ĠìĿ´ ë¶Ī
íĬ¹ë³Ħ ìŀĲì¹ĺ
ĠG ets
V P
plic ity
ìĿ¼ ëŀľëĵľ
íĻĶ ë¬¼
Ġê³Ħ ê³¡
Ġgener ating
enn es
HO UT
íĸĪ ëĬĶì§Ģ
B rowser
ĠÐ² ÑĸÐ´
Ġab road
ê±± ìłķ
ë©Ķ ìĿ¼
add le
Ġìĸ´ëł¤ ìĽĢìĿĦ
äº Ĩ
ĠìĥĮ ëĵľìľĦì¹ĺ
p icture
ĠíĶĦ ëĿ¼
pro xy
Ġíı ¼
Ġë¨¹ ìĹĪìĬµëĭĪëĭ¤
Ġíľ´ ê°Ģ
ĠN orm
ĠD or
- (
ĠìĹĨ ì£ł
g mail
por ters
Ġë²Ī ìĹŃ
Un known
ëĬ ĳ
íıī íĥĿ
om eter
Ġìĥ ·
ãģ ł
Ġíģ´ëŀĺ ìĭĿ
or se
ĠG iven
xy gen
Ġp iano
íĻį ëĮĢ
ĠOff icer
ICAgICAg ICAgICAg
Ġ< ?
Ġoper ational
Ġê¸° ìŀ¬
Ġìĺ¬ëĿ¼ ê°ĢëĬĶ
íļĮ ë³µ
Ġorganis ations
ĠìĿ¼ë³¸ ìĿĺ
Ġë¶Ģë¶Ħ ëıĦ
ĠC L
Ġê°ķ ìłľ
ĠProduct s
Ġíķ¨ìľł ëĲĺìĸ´
Ġë¶Ħ ëħ¸
ĠíĿĲ ë¥´ëĬĶ
Ġì»¤ë®¤ ëĭĪíĭ°
iam ond
â Ĥ¬
qu et
ìĦ¸ ê¶Į
ìļ© ìĿ¸
Ġìłķ ì²´
Ġë°ĶìĿ´ ëŁ¬ìĬ¤
Ġdec ay
Ġë°Ķ ë¥´ê³ł
nt il
Ġvolt age
Ġë°Ķ ìģĺ
Ġres on
Ġd ell
Ġëª¨ ê³µ
Ġin finite
ĠO P
Ġfr anch
ĠëģĿ ëĤ¬
Ġíĥľ ìĸ´ëĤĺ
Ġwhe els
AT ED
ĠH appy
Ġant ib
ĠM BC
anch or
Vol ume
Ã© l
b urn
íĮĮ ìļ°
Ġì°½ ì¡°
ìĭł ëŀĳ
Ġver b
Ġsub sid
Ġì§ĢìĹŃ ìĹĲ
Ġselect ing
local host
Ġinterpret ation
Ġt act
Ë·âĢĶ Ë·
ĠìĹ¬ ë¶Ģë¥¼
Ġë®¤ ì§Ģì»¬
H tml
Ġt amb
ĠÑĢ Ð¾Ðº
Ġrub ber
Ġrestrict ions
d irection
ëıĪ ê¹ĮìĬ¤
equ ality
ê²½ ëĤ¨
ë³Ģ ê¸°
ê² ī
ĠëĬĲëģ¼ ê²Į
ah a
Look ing
ĠF a
Ġpur su
ì¶© ìłĦ
con cat
Ġel if
valid ate
ge red
Ġc ant
ĠIt em
ì´Ī ìĹĲ
Ġbed s
Ġìĺģ íĺ¼
Ġê³¼ ëıĦ
ug ar
ĠíĺĦ íĻ©
Ġz a
Ġìĭľ ê³Ħ
Ġnetwork ing
Ġíĺ¼ìŀĲ ìĦľ
ê¸Ģ ëĿ¼ìĬ¤
Ġalle ged
Ġvac c
ë° ĭ
ìĪ į
Ġ-- -
Ġground s
ĠC S
erv ing
Ġê³Ħ ëĭ¨
ĠM ove
ë³´ ë©´ìĦľ
Ġful fill
Ġsou p
ëĤ¸ ëĭ¤
f etch
on ed
ast y
T ip
Ġa est
ìĭľ ìŀ¥ìĹĲìĦľ
p rom
ĠT ool
Ġident ification
ìĦ¤ íĥķ
Ġì¶ķ ìłľ
Ch rist
Ġíķľ ëĳĲ
æ Ľ
ìĺ¨ ìĿ´
D river
ĠìĿ´ ê²ĥëıĦ
N U
íĮ ł
ë§Ī ìĿ¼
ë³ĳ ìĿĦ
ëıĦ ìĹĲìĦľ
ĠíĻį ëĮĢ
íķĺìĭł ëĭ¤ë©´
ĠëĮĢ íĻĶë¥¼
enc ode
Ġë¯¿ ìĿĮ
Form s
atter ing
Ġpr inter
ĠO cean
Ġíķ ¸
Ġì¤Ģë¹Ħ íķľ
dest roy
Ġaccommod ate
: [
Ġìŀ¬ë¯¸ ê°Ģ
Ġvent ure
Ġexam ination
íĨł ìļĶìĿ¼
ê·¸ ê²Į
ìĦ± êµ¬
cl ock
Ġë¹Ħ ìľ¨
Â «
ĠìĪĺ ìĽĶ
Ġgover ning
Ġm s
ĠPh oto
li x
Ġ" +
Ġìĭł ìĦ¤
ëĵ¤ìĹĲê²Į ëĬĶ
Ġìĺ ³
Ġê± į
ag ra
ur ities
S ummary
Ġdram a
Sub sc
ë³´ ëĤ´
ìĤ¬ ê³¼
F UN
ĠëĤ´ ìŀ¥
sc al
Ġt ang
ĠSt orage
ç Ĳ
ĠM oon
ĠPr ince
g al
og ical
' }
Ġê²¬ ìłģ
Ġì¶Ķ ìļ´
ãĢ Ĭ
Ġport able
Ġfl ux
sk y
() ),
íĶĦ ê°Ģ
Ġarrang ed
Ġar range
Ġmult ip
at to
ĠíĸĪ ìĹĪëĬĶëį°
C apt
Ġë¶Ħëªħ íŀĪ
Ġë§Įëĵ¤ ìĹĪëĭ¤
] $
M ask
Ġpat io
ĠíķĺëĤĺ ë§Į
ì²ľ ë§Į
reg on
Ġì¶ľ ìŀħ
Ġê·¼ ë³¸
Ġì¹ĺ ìĹ´
S cal
ìĹĪ ëįĶëĭĪ
Ġproduct ivity
re tt
E q
ê²ĥ ìľ¼ë¡ľ
ìŀĲ ëĤĺ
Ġvari ation
Ġìĥģ ë°ĺê¸°
op acity
Ġëį ¤
Ġìŀ¬ë¯¸ ìŀĪëĬĶ
ov es
Ñĥ Ð½
Ġë¬¸ìłľ ë¡ľ
Ġgr at
Ġar c
Ġopin ions
Ġexplicit ly
ic ide
S equence
ĠìłĢ ê¸°
it zer
ĠëĤĺëī ĺ
Ġìłĳ ìĸ´
Ġpar ad
Ġh oney
Ġëªħ ìłĪ
Ġê³¨ ê³łë£¨
d m
Ġarbitr ary
Ġint ensity
ĠìĪĻ ë°ķ
Ġê³ł ê¸°ê°Ģ
V S
ìĻĦ ìĦ±
ìĨĮ ëıħ
Ġì»¤ ëĭ¤ëŀĢ
ĠEx ample
Ġíģ¬ ê¸°ê°Ģ
ìķ½ íĴĪ
est one
Ġiniti atives
B ased
Ġë§ĮëĤĺ ìĦľ
ìłľ ëĮĢë¡ľ
Ġpromot ing
j ax
ikip edia
Ġsing ing
sh a
multicol umn
Y W
Ġent ities
Ġíİľ ìħĺ
bo ards
Ġë°ĺìĿĳ ìĿĦ
P ower
Ġind oor
ĠF ab
av id
Ġìĭł ë¶Ģ
Ġìĸ¸ ìłł
Ġìķħ íĻĶ
Ġëĵ¤ìĸ´ ìĺ¨
) ">
ĠPen nsylvania
ë²Ī ì§Ģ
ĠInt eg
Ġcampaign s
Ġìľł ìŀħ
Ġt y
st age
Ġë¬¼ ìĸ´ë³´
ne cess
re nce
ĠPort ug
op her
ìĤ Ĳ
Ġìĭ¶ ìĹĪëĭ¤
ìľ¼ë¡ľ ë§Į
Å Ł
ìĬ¤íĭ° ì»¤
Ġêµ° ìĤ¬
tr ace
ëĦĵ ìĿĢ
ìĭľ ë¦¬ì¦Ī
ĠìĨĮ íĮĮ
Ġrepresent atives
Ġì²Ń ì£¼
ish op
Ġë§¤ëł¥ ìłģìĿ¸
Ġìĭł ìĦ¸ê³Ħ
ìŀĦ ìĹĲëıĦ
ê²½ ìŁģ
ì¹ľ ìłĪ
Ġw isdom
Ġë¸Į ëłĪìĿ´íģ¬
ĠìķĦìĿ´ ëĬĶ
ĠS ov
Ġë°° ë¶Ģ
I gn
ìĹ° ìĬµ
Ġthorough ly
spl ash
ĠìĦł ìĤ¬
âĳ ¡
Ġíķ ı
ĠV in
Ġp ixels
ë²Ħ ëł¸ëĭ¤
ĠìĪĺìĿµ ìĿĦ
Ġê°Ķ ìĸ´ìļĶ
Ġap ple
Ġëª¨ìĬµ ìĿĢ
Ġmy th
Ġíķĺ ë°ĺê¸°
Ġë°© ìĹŃ
Ġcorre lation
ĠMar ia
Ġhor izontal
ĠìĤ¬ìĿ´ ëĵľ
Ġê°Ģ ê³µ
ĠBr and
ĠGu ys
ëĺĲ ëĬĶ
ĠêµĲ íļĮ
Ġcool ing
: '
Ġpassion ate
ê±´ ìĿ´
Ġto k
Ġíĸī ëıĻìĿĦ
Col l
ê°ľ ìĶ©
Ġben e
p end
ĠVictor ia
ĠëıĮìķĦ ëĭ¤ëĭĪ
ĠìłĦ ê°ľ
ìĤ¬ ìĿ´ëĵľ
ĠS port
Ġpres erve
æľ ¬
Ġ ãħ¡
íķ´ ë³´ëĭĪ
" ===
Ġclass ification
ĠE asy
Pl ace
Ġë¦ °
íĮĮ ë¦¬
íķľ ë³µ
Ã ®
ĠInd eed
ë³´ ìĹ¬
mem ory
Ġd w
Ð¸ Ð²
Ġ\ {
ë§ŀ ìĿĢ
Ġìĺ¤ ëłĮì§Ģ
ìĸ´ ë¦¬
Ġë§Īëł¨ ëĲĺìĸ´
ĠSen ior
est ions
Ġê³³ ê³³ìĹĲ
Ġìĥģ ìĹħ
ìĥ¤ ìĽĮ
Ġí Ī
Ġìŀ¬ë¯¸ ìŀĪê²Į
ache lor
ĠìĪĺì¤Ģ ìĿĺ
Ġa ug
o en
Ġsy ntax
ë°ĺ ì§Ŀ
k et
support ed
( {\
top ic
anc ell
Ġadministr ative
ìĤ¬ë¬´ ìĭ¤
ĠS N
Ġê¹¨ ëĭ«
ox y
ĠT otal
ëĤ ļìĭľ
Ġtr ash
ĠAri zona
ĠP ier
ìŀĲ ìĭłìĿĺ
cont rib
. ]
Ġtherm al
Ġë³Ģ ìĭł
ib ration
ĠEvery thing
ìķĪ ìĿĺ
Th rough
ĠíĥĦ íĥĦ
Ġr ack
į ½
Ġm aj
Ġref uge
ì£¼ ëħĦ
Ġste am
ĠëĤ® ìķĦ
Ðµ Ð¶
ëª¨ ë¡ľ
me an
Ġìļ° ìĹ°íŀĪ
}\ \
~ $
Ġìĭł ì¤ĳ
íķĻ ê¸°
ĠEd ition
B ind
Ġins pect
ĠR on
Ġ Ø§
S te
ur ations
Ġter rible
St ats
Ġë¯¸ ë£¨
Ġíı¬ ìĿ¸íĬ¸ë¥¼
ĠK enn
ì°¨ ëĭ¨
Ġìĺ¤ ì§Ģ
íļ Ł
ĠìĿ´ìĸ´ ì§ĢëĬĶ
íĶĦë¦¬ ë¯¸ìĹĦ
ph ant
G T
Ġì¤Ħ ìĿ´
Ġì£¼ ìĭľëĬĶ
load ing
ĠM ust
ĠìĦľë¹ĦìĬ¤ ë¡ľ
Ġëĵľ ìĭ¤
Ġinstant ly
Ġth inks
ìĿ¸ ëĭ¹
ĠíĴ ĢìĿ´
Ġexp ense
Ġoffic ially
Ġmed ication
Ġor al
M aster
Ġë°°ìļ° ê³ł
ĠF O
ĠCons ult
íĺ¸ ìĪĺ
he at
íĦ° ë¡ľ
ĠM ajor
Ġëĥ Ħ
ĠíĽĮë¥Ń íķľ
ĠìĿ´ìĥģ ìĿĦ
Ġë°° íĦ°
ĠìłĢ ë¥¼
ext ension
Ġìĺ¤ ìħĶìĦľ
Ġë¬¼ë¡ł ìĿ´ê³ł
ĠëĳĲ ë¶Ģ
Ë·} (\
íķ´ ì¤Ħ
Ġsc rap
íĨł ë¡Ŀ
ìĤ¬ ëıĦ
ĠB ody
Ġì¦Ĳ ê¸°ê³ł
Ġíıī ê°Ģë¥¼
Ġmet ers
Ġê²½ ì£¼
Ġì¤Ģë¹Ħ íķĺê³ł
ĠJ ane
ìĪĺ ìļĶ
Ġexpl os
ìĿ´ ëĵ¤
Ġê½ĥ ìĿĦ
ĠS end
t ic
íķĺê²Į ëıĦ
ìĺĨ ìĹĲ
ĠìłĢ ìŀĳ
ĠìĬ¹ ë¦¬
ĠëķĮ ìĹĲ
Ġë§Įì¡± ìĬ¤ëŁ¬
pol y
Ġfound er
ĠUn less
Ġwor n
ê±° ë¦¬ë¥¼
ĠS n
Ġë³´ ì¶©
Ġëħ¸ ìĿ¸
Ġn ations
ĠiP ad
Ġhighlight s
ĠIS BN
íķľ ìļ°
--- |
Ġì¤ĳ ëıħ
ìĨĲ ìľ¼ë¡ľ
ĠS S
Ġì´ī ì§Ħ
Ġf ond
ìĺĪ ë°©
Ġì±ħ ìŀĦìĿĦ
êµ¬ ìĹĲìĦľ
íļĮ ìŀ¥
j d
Ġíħ į
Ġaim ed
Ġres ident
Ġë¬¼ ì§Ī
ìłģ ìĿ´ì§Ģ
íĺķ íĥľ
Ġh iring
Ġj ack
ëĭ¨ ìĪľ
ìĹ¬ ê¸´
Ġë°° ìļ¸
Pr ice
ĠêµŃ ë¬¼ìĿ´
Ġdes ert
íķ´ì£¼ ìħĶìĦľ
ëĳĲ ë©´
Ġsett lement
Ġë¨¹ ê²Į
enc il
(" \
Com plet
ë¶Ī ê³łê¸°
ëĪĦ ìĪĺ
ĠëĤ´ ìĹĲìĦľ
ìĤ¬ ì¹´
Ġflo oring
ì°¨ ìĿĺ
ur ches
att ed
Ġì¡° ê°ľ
Ġrad i
Ġìķŀ ìľ¼ë¡ľëıĦ
ĠS ER
Ã¡ r
ëĮĢ íĸī
k ar
ĠíĻķìĭ¤ íķĺê²Į
ĠìĤ¬ëŀĮ ê³¼
f illed
ant es
Not ification
ëĿ¼ìĿ¸ ëĵľ
Ñī Ðµ
ĠW inter
ĠÐ¾ Ð¿
Ġì»¨ ëĶĶìħĺ
V O
Ġanaly ze
Ġop acity
ìŀ¬ ë¯¸
Ġdecl ine
Ġì£¼ ë¦Ħ
ad i
gh an
ĠìĿ¼ íķĺëĬĶ
s ig
ëĲĺ ìĹĪê³ł
adel ph
ĠíķĺëĤĺ ìĿ¸
ë¶ĦìľĦ ê¸°
(" .
Ġì§Ģ ëĭĪ
Ġê°ķ ìĽĲëıĦ
íı¬ íĨł
ĠSc ript
Ġê±¸ ë¦¬
Ġf itting
Ġvict ims
Ġf itted
Ġbound s
Ð ĵ
ent o
ë¶Ħ ëªħ
ĠìĦł ê³ł
Ġf iction
ĠB uff
ĠíħĮ ëĿ¼ìĬ¤
Ġt el
VAL ID
ĠìķĪ íķĺê³ł
Ġread s
SC R
D rop
Ġê³Ħìķ½ ìĿĦ
Ġenforce ment
Ġìĭ¶ ëĭ¤ê³ł
ë¸Į ëĿ¼ìļ´
Ġsp atial
Ġsitu ated
ë°° íĦ°ë¦¬
ĠëĮĢ íķĻêµĲ
ç ¾
Ġë´¤ ëĭ¤
Ġ" .
ĠThe atre
Ġì¶Ķì²ľ ëĵľë¦½ëĭĪëĭ¤
Ġann iversary
ĠìłľíĴĪ ìŀħëĭĪëĭ¤
Ġë¶Ģ ì¶Ķ
ëĶĶ ìłĢíĬ¸
Ġcap ability
k k
ìļ° ëıĻ
ìŀĲ ìŀ¬
Ġëª° ëł¤
ĠTh read
Ġch unk
Ġë¹Ħ ëĮĢ
ĠëıĦì°© íķľ
resp ons
ele m
all as
Ñĥ Ð¿
ëĳĺ ëŁ¬
ĠíļĮ ìŀ¥ìĿĢ
Ġmind s
ĠT er
ê¹Ģ íķ´
Ġthe orem
Ġ\ |
ìŀĲ ìłĦê±°
ic ular
L icense
Ġë§Ľ ëĤĺ
Ġdesign ing
Ġ_ ,
ìĿ¸ ì¤Ħ
Ġëĭ¤ ëħĶ
OR K
íĶĮ ëŁ¬
ĠJ ordan
ì°¸ ìĹ¬
íķĺ ë¯Ģë¡ľ
Ġspecial ized
ĠìłĲ ëıĦ
ĠJ S
Ë· ><
ë³¼ ê²ĮìļĶ
ê²½ íĹĺ
ĠëĤ© ë¶Ģ
ĠìĨĲ ì§Ī
ëį© ìĿ´
ĠëĤ ļìĭľ
> "
Ġë¡ ±
Ġun like
ìĬ¤ íħĶ
Ġê³³ ìĿ´ëĿ¼
êµ¬ ìłķ
Ë·$ \
âĶĢâĶĢâĶĢâĶĢ âĶĢâĶĢâĶĢâĶĢ
Ġemb edded
po inter
ĠB udd
ëłĪìĿ´ ìħĺ
ëĲĺìĸ´ ìķ¼
ap is
ĠëĤĺìģĺ ì§Ģ
m ates
amaz on
Ġlock ed
Ġst em
ĠêµŃ ìłķ
ĠÃ ī
âĸ ¡
ĠíļĮ ìłĦ
m aps
åĩ º
L at
ĠB rian
} =Ë·
cs v
Ġê°Ĳ ìĭ¸
ĠR yan
con vert
ĠBr ad
att ice
ĠT arget
íı¬ ëĦĮ
ĠIN T
Ġdis miss
ĠìĪĺ ì¤ĢìĿ´
ì¶ľ ìĿĦ
Ġê¸ī ìĹ¬
æĸ ¹
ë°ĺ ë©´
b asic
U K
ç Ļ
ĠìłľìĻ¸ íķĺê³ł
ĠíĻĶ ê°Ģ
Ġìĺ¬ ëŀĲëĭ¤
Ġë§Ĳ ëĿ¼
ĠìĨ ľ
ĠìķĦìĿ´ ëĵ¤ìĿĦ
Ġde i
ĠT ok
ĠëĲĺ ê²łìĬµëĭĪëĭ¤
Ed ge
Ġë¯ ¹
Ġstom ach
Ġì²ĺìĿĮ ìĹĲëĬĶ
ĠíĸĪ ëĭµëĭĪëĭ¤
Ġas ym
ĠA G
Ġbal anced
Ġë°ĶìĿ´ ìĺ¤
ĠëĨĵ ìĹ¬
êµ īìŀ¥íŀĪ
ìłĢ ë¦¬
Ġpick ing
ĠìķĦëĭĪ ëĿ¼ê³ł
ĠìĹ¬ ëĵľë¦Ħ
ĠìŀĲ ê¸°ê°Ģ
Ġprec ious
Ġcolor ing
ĠÐ´ Ðµ
ĠìķĮìķĦ ë³´ê³ł
ĠìĦ¸ ìĿ¼
ì± Į
aw are
o T
L anguage
ìłĦ ìŁģ
F M
ĠBro ther
ĠìĿ¸ íĺķ
CO MM
Ġt ours
Ġê¸°ëĮĢ ë¥¼
onom y
Ġg it
Ġsl ice
c v
g iving
ìĸĳ ëıĦ
os ity
S ample
L ibrary
ìĥĪ ë¡ľ
Ġì°½ ìĿĺ
Ġpol ynom
Ġë²Ħ ê±°
Com plete
Ġin k
ìĹĪ ìĸ´
ys ical
ĠëĪĪ ì¹ĺ
Ġtutor ial
Ñı ÑĤ
rypt ed
ad t
íķĺê¸° ëĬĶ
ëĲĲ ìĬµëĭĪëĭ¤
ì§Ģ ë©°
ìŀ¥ ë©´
ê°Ģ ê¹Į
íĥĿ ë°°
v ia
op ts
ĠìŀĪìľ¼ ëĭĪê¹Į
Ġë¨¹ìĸ´ ë³´ê³ł
ìŁ Ī
ì· Ħ
Ë·âĢ ³
Ġident ifier
ê°ķ ìĤ¬
Ġâĸ ¼
Ġê°ľìĿ¸ ìłģìĿ¸
Ã© c
ì§Ģ ëĬ¥
Ġart ificial
Ġsign ing
ì¹´ íĨ¡
ìĦ¸ ìĿ´
Ġcon n
ê²¨ ì§Ħ
RA Y
ĠF ast
ĠìĽĮ íĦ°
ag ne
ĠìĽ °
ĠT RAN
ìłĦ ëĿ¼
ìĨĮ íĶĦíĬ¸
Wh ich
ëĭ¬ ëĭ¬
Ġcouns el
ĠìĿ´ë²Ī ìĹĶ
Ġrot ate
ì¾Į íķľ
Ð¸ÑĤ ÑĮ
Ġë°© íķ´
Ġcontro vers
is se
ĠA mb
íľ ł
ìĨį ìĿĦ
Ġdist urb
ĠTr ack
Ġê³łê¸ī ìĬ¤ëŁ¬ìļ´
Ġse ctors
ĠìĤ¬ëŀĮ ëĵ¤ëıĦ
Ġexerc ises
ing ham
ë°´ ëĵľ
Style ID
ĠKore an
em an
ë¦¬ì¹´ ëĿ½
Ġìļ° ë¦°
Ġemploy ers
ìĸ´ ë¨¸ëĭĪ
Ġì§Ģ ë¶Ī
Ġê²Ģ ì¦Ŀ
ĠìĿ¼ ìĿ´ëĭ¤
ou st
ĠEd ward
Ġas c
Ġë§¨ ëĤł
Ġ' .
ig ator
Ġgener ations
Ġì¶ľ ëł¥
ëıĪëĤ´ ìĤ°
ost ics
ìŀĲ ë³¸
Ġìĭ¬ ìŀ¥
é ĸ
ë²ķ ìĽĲ
ĠTr ail
Ġì±ħ ìĿ´
ar ound
ĠE mer
CT V
ëı Ķ
================================ ================================
íĿ ł
Ġsal ad
Ġacquis ition
ĠJ am
ìłľíĴĪ ìĿĦ
Ġbedroom s
Ġsty lish
Ġb er
ĠìŀĲëıĻ ìľ¼ë¡ľ
p id
ëŁ° ìĬ¤
ĠN AS
ĠS ET
Ġland sc
ìĭ¬ ìĿĺ
Ġìľł ëıĻ
ong o
Ġê°ľ ìĦ¤
Ġê¸°ë°ĺ ìľ¼ë¡ľ
Ġre b
Ġload s
ë¹Ħ ìĻĢ
Ġn ie
ĠìĹŃ ëĮĢ
ëĦĪë¬´ ëĦĪë¬´
st ock
ìŀĶ ì¹ĺ
Ġrob ot
Ġst ats
i u
Ġë§Ĳ íķ©ëĭĪëĭ¤
ë¹Ħ ëĪĦ
Ġener g
Ġphys ics
>& #Ë·
Ġì£¼ ìĿ¸
qu er
ĠìķĪ ìĸĳ
Ġconfig ure
ëªħ ê³¼
è¦ ģ
ì§Ħ ëĭ¨
íķ´ì£¼ ìĭľë©´
Ġbuy er
ĠìŀĪ ê¸´
Ġì£¼ë§Ĳ ìĹĲ
Ġw ise
U A
AT CH
ëĦĪ ë¥¼
Ġam en
Ġbasket ball
Ġstruct ural
ĠíĮĮ ë¦¬
ĠìŀĦ ìĭľ
f ail
Ġê·ľ ì¹Ļ
Ġt ied
ìĪŃ ìķĦ
ê¸° ìĹĲëĬĶ
re le
ĠK EY
Co ord
ìĤ¬ íŀĪ
Ð½Ð¸ Ð¹
Ġë°ĽìķĦ ëĵ¤ìĿ´
Ġas ks
ĠFe b
Ġact ively
Ġê³ł ë¬´
Ġarrang ements
P rivate
} (Ë·
ĠB ased
ä½ ľ
w ear
Ġêµ¬ ë¦Ħ
ĠëĤ¨íİ¸ ìĿ´
Ġcomp ass
') ->
ëª¨ ìħĺ
Ġdes per
Ġpurs ue
un ks
Ġë§ī ìĥģ
ê¸° ë¬¼
D IS
ãĤ Ī
ĠëĤ´ ë¦¬ëĬĶ
Ġemb od
ure au
Ġìŀ¥ ë¯¸
ĠìĹĨ ê²Į
ĠC it
ĠìĪĺ ëĭ¤
Ġag ed
( /
Ġë³´ ìŀĲ
ÐµÐ½ Ð½Ñı
ĠCam bridge
Ġc ogn
Ġvirt ually
Ġìĥ µ
ìĹ¬ ìķ¼
Ġp ixel
ĠPak istan
Ġequ ity
Ġdiagn osis
Ġâ Ŀ
Ġì¡° íļĮ
R ate
Ġspect acular
Ġì¡° ì¹ĺ
Ġëĭ¬ ì½¤
Ġchar ity
Ë·' ),
Ġë¯¸ ë§Į
Ġìľłê¸° ëĨį
ĠN ord
ì·¨ ìĹħ
Î ¹
Ġj ed
Ġëĳĺ ëĭ¤
Ġë°° ë¥¼
Ã ¯
pos ing
íķł ë¨¸ëĭĪ
ë¹Ħ ì¹ĺ
ag u
i w
Ð° Ð·
ë¡ľ ìį¨
Ġinvest ing
ê°Ģ ìĦ±ë¹Ħ
ĠëĶĶ íħĮìĿ¼
Ġê±° ë¦¬ê°Ģ
ĠìĦłíĥĿ ìĿĦ
ex per
ak o
Ġìĭ¤ ë¬´
Ġsuppl ier
Ġë¸Ķ ë¡Ŀ
Ġê·¸ëħĢ ëĬĶ
ë¦¼ ìĿĦ
ìĤ¬ì§Ħ ìĿĢ
Ġbur st
A bs
W r
T IM
Ġbuck et
l b
ĠìķĮìķĦ ìķ¼
ĠìĽĲ ëĳĲ
ĠìĿ´ íĥľ
ĠHol lywood
ri um
Ġpr on
b lob
Ġíıī ìĨĮìĹĲ
ex e
Ġìķł ë§¤
Ġsoph isticated
Ġemphas is
he art
ë©´ íĹĪ
Ġoccasion ally
ìĤ° ìĹŃ
ĠíħĲ ëį°
Ġë°ĸ ìĹĲìĦľ
Ġr ings
on o
íĭ° ìĬ¤íĬ¸
iz ard
un ate
ì İĦ
Ġco aching
Ġg reet
íĺ¸ ëĬĶ
ĠDav is
Ġìĵ° ì§Ģ
ĠH al
Ë·] :
íĨł ì§Ģ
Ġvac uum
WR ITE
Ġjew elry
Mon th
ë¡ľ ë§Į
Ġsmart phone
Ġleg acy
Ġd f
Ġtransfer red
over flow
ìĺ¤ ì§ķìĸ´
P ut
Ġl ying
adelph ia
ĠN ap
ĠL ev
Ġëª» íĸĪëįĺ
ç ľ
ê·¸ëĭĪ ì²ĺ
ĠH R
Ġbrother s
ĠS ep
ach ment
ĠW is
Ġorder ing
ĠëĲĺ ëĦ¤ìļĶ
Ġdifferent ly
ĠAnn ual
in ction
ĠìķĦìĿ´ ëĵ¤ê³¼
Ġ âĢĻ
Ġê·¸ ëĵ¤ìĿ´
Ë· `
Ġwe ird
Ġpromin ent
CT YPE
Ġwe ights
ì¸µ ìĿ´
ĠU kr
S pe
Ġu it
Ġj et
Ġíķľ ë°©
ĠStep hen
Ġr it
ĠL u
LO W
ìłĦ íĻĺ
ê½ĥ ì§ĳ
F n
Ġì¹´ì¹´ìĺ¤ íĨ¡
Ġang ular
G ER
Ġsur ge
-------- --
l on
\ ",
Ġê°Ļ ì§Ģë§Į
Ġì ©
ìĦľ ë©´
id ae
z b
Ġìķ½ íķľ
æ į
sub ject
ë¹Ħ ëıĦ
x D
ĠìĹħë¬´ ë¥¼
ch arg
Ð £
ìŀ¥ ëĤľ
Ġsort s
Ġíİ¸ ìĿ´ëĿ¼
ĠìĹĨ ëĭ¤ë©´
ìłĦ ê³¨
'] );
ëĤł ìĿĢ
ìĽł ìĬµëĭĪëĭ¤
Ġph rase
Ġin herit
Ġê°Ħ ìĿ´
ì¿ł ìķĦ
Ġob l
Ã «
ĠìĹ¬ ìĪĺ
Ġpro c
ĠìĹ¬ ë¡ł
Ġtal ented
Ġë¶Ħëĵ¤ ìĿ´ëĿ¼ë©´
Ġcap s
ĠAp pro
ì£¼ ì§Ģ
ĠPr in
Ġfr uits
L ib
$ )
select or
ãħ £
Ð´ Ðµ
ĠëĤĺ ë§ĮìĿĺ
Ġsh ade
Ġì£½ ìĿĦ
STAT US
Ġê° ±
Ġun lock
ë£Į ëĬĶ
mer ge
SS ION
ë¦¬ì§Ģ ëĦĲ
Ġëĵ¤ ìĹĪëįĺ
Ġì§ĳ ëĭ¨
Ġcompet e
Ġcontain ers
ç ¤
CO M
Ġgather ing
ìĽĲ êµ¬
MOD ULE
ĠU P
ish ment
ì¦Ŀ ëªħ
part s
Ġinterview s
t m
ĠCon tract
Ë·) ]
ìłĦ ìĹĲìĦľ
ÑĢ Ñĭ
Ġì¢ĭ ê²łìĸ´ìļĶ
align ed
ĠìłĢ ìĹĲê²Į
Ġimpress ed
ĠëŁ Ń
Ġìķ Īëĭ¤
ìŀĲ ìĭł
ĠK h
Ġê¹Ģ íķ´
Ġhold er
ĠO tt
Ġcons olid
g p
ĠPal est
Ġìĵ° ëŁ¬
ìĹ° ëĿ½
Ġarrang ement
Ġm esh
Ë·) </
ëª¨ ëĭĿ
ìĿ´ ë¦¬
ĠRepublic an
ĠìĿ´ ëŁ´
Ġfin ishing
Ġpublish ing
ìŀĪ ìľ¼ëĭĪ
oc o
ĠE ffect
Ġë» Ĺ
Ġíķľ ì°½
Ġë¹Ħìļ© ìĿĦ
ĠHou ston
Ġë³Ħ ëıĦë¡ľ
ìŀĺ íķĺëĬĶ
ierarch y
Ġwork place
ĠìĿ´íĽĦ ë¡ľ
col lect
ì§Ħ ìĿĺ
ëĥ Ħ
ê²ĥ ìĿ´ëĭ¤
ĠV irtual
ĠëĤĺìĺ¤ ê¸°
æ ĥ
ag ma
Ġcon sec
ĠëįĶ ìļ´
Ġdram atic
Ġë§Ī ìħĶ
Ġìĭľ ê¸°ìĹĲ
Ġë¬´ ëĮĢ
Ġíĺķ ìĤ¬
lin ux
íĶĦ ë¦¬ì¹´
Ġop position
ĠìĺĨ ìĹĲìĦľ
Ġrece iver
Ġgovern ments
ĠTe ch
l ad
Ġì¹ľêµ¬ ëĵ¤ìĿ´
ê¼¼ ê¼¼
ĠC ut
ìŀ¥ ì¹ĺ
å Ĵ
Ġspecial ists
ane ous
Ġhar vest
ĠTH IS
Ġê°Ģ ìĥģ
D ictionary
ĠF ix
Ġche aper
Ġregul atory
ĠìĽĲëĤ´ ëĮĢíĳľ
Ġë¹Ħ ëĪĦ
ĠM s
t ered
ĠT en
Ġê°Ģì¡± ìĿ´
íĬ¸ ëłĪìĿ´
Ġíı¬ ëıĦ
op ic
Ġnot ion
AR N
ëŁ ¿
Ġcour ts
Ġpass age
íĥĢ ëĬĶ
OR S
Ġê¸ī ê²©
Ġtable t
Ġìĸ´ ìĥī
Ġê°Ķ ëįĺ
m n
ĠSup reme
Ġê²ĥ ëĵ¤
Ġr anges
Ġdisc rim
And roid
Ġy e
iv idual
Ġë°ľ ìĨ¡
umb ing
/ "
Ġk iss
ĠSci ences
ìĵ ´
æ³ ķ
ĠëĮ Ħ
ĠìĿ´ ëĵ¤ìĿ´
EL D
P rior
Ġìĭľ íĬ¸
Ġíķľ ì¸µ
og ene
Ġdo se
Ġíĺķíĥľ ìĿĺ
Ġconsider able
ĠN ature
ìĹĨ ê³ł
R aw
Ġnurs ing
Ġd urch
ì¿ ¼
Ġadvert is
íİ¸ íķľ
fore ach
Ġjud gment
Ġcalc ulation
ìŀ¬ ëĬĶ
K B
Ġbene ath
vol ume
pl er
Ġd uties
ĠD M
Ġìł ĵ
Ġunivers ities
ì¤ĳ ìŀħëĭĪëĭ¤
ĠìĤ¬ìļ© íķ´ìĦľ
ĠOption al
M ill
Object s
ĠDie go
ì§ģ ìĿĦ
Ġë¿Ĳ ìĿ´ëĭ¤
Ġover night
ë¸Ķ ëŁ¬
Ġë¹Į ëł¤
Ġhand les
Ð¾Ð» Ð¸
h pp
quir y
Ġê²½ ê³ł
ë¸Ķ ë¦¬
as ion
íĬ¹íŀĪ ëĤĺ
ens ing
Ġê³ł ëĵ±
Ġë°ľ êµ´
Ġê°Ī ìĪĺë¡Ŀ
trans late
Ġdro ps
ct ic
ÐµÐ½ Ð°
ĠìķĬìķĺ ëĬĶëį°
ìĨĮ ê³łê¸°
Ġst er
Ġdam ages
B log
Ġse al
Ġíģ´ ë¦¬ìĸ´
ĠProte ction
íĶĮ ëŀĺ
}} }
Ġëĥł ëĥł
Ġê°ľ íĺģ
ìł¸ ìķ¼
ìĦ¸ ìĹĲ
G I
ìĿ¸ ëĵľ
Ġë¶Ģ íıī
ëĳĺ ì§¸
Ġk illing
End point
ç «
Ġd irt
ph ot
æĹ ¶
Des ign
ament o
Ġcon front
ìłľ ì¡°
ĠA ge
ag ination
Not es
/ )
Ġout line
ĠìĿ´ ëłĩ
Ġengine ers
Ġë°ĳ ë°ĺì°¬
Ġbank ing
ê°ľ ë´ī
ë©Ģ ë¦¬
ìŀĳ íĴĪ
Ġë²Ħ ë¦¬ê³ł
ĠâĢ »
ìŀĲ ê¾¸
s pe
est e
Ġbe am
ĠRef erence
ĠìĿ´ëģĮ ìĸ´
th ur
Ġexperi encing
Ġdi abetes
ìĺ¬ ë¦¼íĶ½
sp ot
ì£¼ ìĿ¸
ĠìĿ´ ìĬ¤
Ġê³° íĮ¡
íħĲ ëį°ìļĶ
Ġcorrespond s
Ġl on
Ġsh a
plement ation
Ġp sy
Ġref lection
Ġco operation
Ġim pl
Ġt ears
ĠíĶĮ ëŁ¬ìĬ¤
ĠTr ade
Ġdevelop ments
ĠëĲĺ ì§Ģë§Į
cont ents
IN K
ĠWIT H
Ġì¢ĭìķĦ íķł
ìļ° ë¦°
æ Ħ
ë§ī ìĿĦ
lic enses
B oth
Draw ing
ĠëĿ ½
ìĨį ìĿĺ
Ġêµ¬ë§¤ íķľ
Ġo live
ĠëĮĢ ìĤ¬
Ġìĺ¨ ëıĦ
ĠS amsung
ĠíĶĮ ëĿ¼ìĬ¤íĭ±
Ġch ampion
Ġê±° ì¹ĺ
æĪ ĳ
ĠSing le
Ġì ¯¤
tra ctions
ĠìĦľ ë²Ħ
ser ies
ĠOut put
Ð°Ð½ Ð°
Ġsome body
ĠR s
Ġdis order
C lear
Ġíķľ ë³µ
Ġìĭľ ìŀ¥ìĿ´
ĠìĿ´ ê²¨
Ġíĸī ìĤ¬ë¥¼
íĶ¼ ìķĦëħ¸
am ar
ach uset
Ġstead y
Ġsubst ance
Ġsimultane ously
Î µ
Ġdef ines
ĠWIT HOUT
Ġrun time
êµ¬ ìŀħ
cept or
ĠìĪĺ ë¦½
ĠìĪľ íĻĺ
Ġì·¨ ë¯¸
Ġnerv ous
Ġìµľê·¼ ìĹĲ
Ġtrad em
ĠH old
íĮĮ ìĽĮ
clus ions
as is
Ġë¶Ģ ì±Ħ
Ġê³µ ëŀµ
@ "
Ġì§Ħíĸī ìĿĦ
Ġcop per
Ġrece ives
Ġë²ķ ë¬´
ê²ł ìĸ´
comp ile
achuset ts
ĠìĤ´ìķĦ ê°ĢëĬĶ
W I
Ġcur ious
at able
ĠC irc
ÃĹ Ë·
ĠìĭĿ ê°ĲìĿ´
Ġrad iation
ĠëįĶ ëįĶìļ±
Ġext ensions
Ġtoile t
Ñİ ÑĤ
ìŀ¥ ìĸ´
Ġge ometry
ë¡ľ ì§Ģ
ER E
Ġfab ulous
ĠìłĦ ìĦ¸ê³Ħ
ê³µ ëĭ¨
ĠìķłëĭĪ ë©ĶìĿ´ìħĺ
ìĿ´ ê²ĥëıĦ
Ġgard ens
Ġê±´ê°ķ ìĹĲ
Ġìŀħ ìĪł
ëĶ°ëľ» íķľ
ĠG reg
Ġin cent
ard ing
Ġë²ł ëŀĢëĭ¤
ĠS ab
Ġnumer ical
ĠëıĪ ê¹ĮìĬ¤
ì¦Ĳ ê±°ìļ´
Ġem ission
ãĤ ¯
ìĭľ ìĻĢ
pol icy
Ġconf used
Ġì¿ł ìħĺ
ĠGr ad
B asic
Ġflo ating
Ġtri es
ĠìĽĥ ìĿĮ
C enter
Ġimplement ing
Ġë§Ī ìĤ¬
Ġêµ¬ ë¹Ħ
Ġì¶ľ ê³ł
id en
Ġë¹Ħ íĬ¸
the w
Ġsurv ival
ê°Ĵ ìĿ´
ĠìĿĮìķħ ìĿĦ
Ġì½© ëĤĺë¬¼
d ates
ĠìĤ¬ë¡ľ ìŀ¡
Ġc ater
Ġvis ibility
Ġëĵ¤ìĸ´ ìĻĢ
Ġë§İ ì§Ģë§Į
ëĮĢ ìĤ¬
ĠG lass
Ġìľł íķ´
W atch
æ ±
ĠëĤľ ë¦¬
Ġìº ĺ
l ar
ĠA z
Ġs q
s ocket
ë¦Ń ìĬ¤
Ġìĭł ë¬¸
ĠìĿ¼ë°ĺ ìłģìľ¼ë¡ľ
Ñĸ ÑĹ
Ġexpress ions
ê±¸ ìĿĮ
au f
ÐµÑĤ ÑģÑı
Ġë¶Ħ íķ´
ĠìĨĮ ë°©
und ry
Ġdiam eter
ĠS ix
N eed
ëİ Į
Ġcup s
à¯ į
ëŁī ìľ¼ë¡ľ
ìĽĢ ê³¼
ĠCon sole
Ġë°ĺ ëĮĢë¡ľ
not es
Ġëįľ ìĸ´
ê·¸ ëŁ´
D er
Ġrele ases
ê²½ ë¶ģ
ĠSar ah
u ction
ĠH A
ĠìĹ° íķ©
ic it
nes ota
ĠSt yle
à¤ ¾
ĠíĺĦ ìĥģ
Ġglo be
( --
Ġê°Ļ ëįĶëĿ¼êµ¬ìļĶ
on ical
Ġë¯¸ ìħĺ
{ -
ĠT YPE
X Y
Ġinstall ing
Ġel der
Ġcontact s
se a
ê¼ ½
ç Ħ
ë´Ĳ ìĦľ
ĠìĤ¬ëŀĮ ëĵ¤ê³¼
ê³Ħ ìĤ°
ìĭł ëĭ¤ë©´
ëķĮ ë¬¸
Ġd ip
ĠìŀĪëĬĶ ê²Į
Ġìĭ± ê¸Ģ
Ġì§Ģ ëĭĮ
ĠF uture
ĠìĿ¼ ìĸ´ëĤľ
Ġh ij
Ġanal ys
ìķĪ ìłķ
Ġê°Ĳ ìłķìĿĦ
Ġê³ł ê°ľë¥¼
Ġêµ¬ì²´ ìłģìĿ¸
Ġcomput ed
ĠSol utions
Ġë³¸ê²© ìłģìĿ¸
Ġcollect ive
Ġbare ly
Ġdeath s
and e
ì± Ļ
Ġ' ./
ëķĮ ê°Ģ
Ġê°ģ ìŀĲ
Ġíķľ ëĪĪìĹĲ
ĠíĺĦ ìĥģìĿ´
ìĺĽ ëĤł
i Ã¨re
il ty
ĠëĿ¼ ìĿ´íĬ¸
Ë· ^{Ë·
Ġâ Ĥ¬
Ġë´ī ìĤ¬
ë°ĺ ìĿĦ
Ġtim ing
Ġ ig
ëĭ¤ ë°ľ
Ù ĩ
int o
Ġê°ĢëĬ¥ íķĺëĭ¤ê³ł
Ġt ension
Ġg ently
pl acement
ì§Ħ íķľ
ìļ°ë¦¬ ìĿĺ
Ġê°Ļ ëĭ¤ê³ł
ĠK B
ìĿ´ ë¯Ģë¡ľ
ĠëĶ°ëľ» íķĺê²Į
Ġla wn
col n
Ġyield s
Ġun likely
Ġë°ĿíĺĶ ìĬµëĭĪëĭ¤
Ġvari ations
Ġbe ef
ê¸° ì´Ī
ê±° ê¸°ìĹĲ
Ġsc ar
f ox
C ALL
ê³ł ëĵ±íķĻêµĲ
Ġde com
Ġë¹Ľ ìĿĦ
Ġsi ÄĻ
íı¬ íķ¨
Ġëª¨ ìĸĳìĿ´
ĠìĪľ ìĦľ
Ġterr itory
ìĿ´ ìĦľ
ì¸µ ìĿĺ
ab c
own ers
Ġìĭ¤ ë¦¬ì½ĺ
Ġpl acing
P res
ì¶Ķ ëĬĶ
at rix
AB ILITY
Ġìļ°ëł¤ ê°Ģ
ĠìĤ¬ìĿ´ ìĹĲìĦľ
So ft
or o
ĠëĦ£ ìľ¼ë©´
ìķ½ ìĿ´
column s
pl ain
mark et
c od
ah n
ê²© ìĿ´
Ġg em
ĠC lear
comp are
Ġtro ops
agon al
Ġ ----------------------------------------------------------------
Ġìłģíķ© íķľ
Ġco inc
ĠS i
py x
N V
ĠDat abase
ĠìĮĵ ìĹ¬
ĠS ets
Ġë§ĪìĿĮ ìĿĺ
Ġê·ľëª¨ ê°Ģ
ê°ķ ë¦ī
Ġad mitted
ê²Į íĭ°
ĠK ids
Ġíı¬íķ¨ ëĲĺìĸ´
Ġë§¡ ê²¨
ĠìłĦ íĽĦ
ìłĦì²´ ìłģìľ¼ë¡ľ
ê·¼ íķľ
ĠêµŃ ë¬´
ëĭ¥ íĦ°
ĠìĤ¬ìĭ¤ ìĿĢ
ĠìĿ¸ íķĺ
ĠMA X
Ġc ig
ì°¨ ìĿ´ì¦Ī
ĠìĻ¸ ê´Ģ
Ġë¦ ´
rel ative
Ġë¦¬ ëª¨ëį¸ë§ģ
ur ious
Ġìŀ¡ ìĿĢ
ĠAl tern
\ _
ĠD raw
Ġê±¸ ìĸ´ìĦľ
DE X
Ġìĭľìŀĳ íķł
Ġì¹´ ëłĪ
leg es
ë¶Ħ ëıĦ
êµ¬ ë¯¸
ĠìŀĪ ì§ĢìļĶ
Ġin hib
v r
in fl
Ġrepl acing
Ġê°Ģ ì¹ĺê°Ģ
ĠM iami
ê³¼ ê±°
åĪ Ĩ
Ġbound aries
Ġíķĺ ê¸°ë¡ľ
Ġf ert
umb n
is y
Ġwe igh
Ðº ÑĢÐ°
U X
Ġcontract ors
Ġexpand ing
p kg
grad ient
ĠíķĺëĬĶ ê²Į
ìĹ £
L eg
ym e
En vironment
Ġë°° ìļ´
Ġsol ving
m ont
ë²Į ëłĪ
Ġgr ain
WA RE
ë¡ľ ë¡ľ
high light
clud ing
ì²ĺìĿĮ ìĹĲ
ë£¨ ì¦Ī
Ġë§ī ìķĦ
ĠÃ® n
Ġê°ľ íĨµ
Ġu k
Ð» ÐµÐ´
Ġstream ing
Ġselect or
Ġsil ence
ĠSim on
Ġíķł ê¹ĮìļĶ
ism o
ãħłãħłãħłãħł ãħłãħłãħłãħł
ĠG ree
Ġê°ķ ìĽĲ
Ġele ctions
ë¬´ ëĬĶ
ĠíĨł ëģ¼
ĠÐ ķ
Ġstraight forward
ĠìĤ¬ ìķ¼
ĠìĪĺì¤Ģ ìľ¼ë¡ľ
Ġwal ks
ĠD ur
Ġíĥľ êµŃ
ew idth
ìĪĺ ìĤ°
dis able
L T
Ë·) Ë·
" ].
Ġc er
Ġ" %
................ ................
Ġwh is
Ġíľ´ ìĭĿ
Ġland ing
ĠU V
Ġì¹¼ êµŃìĪĺ
or ia
ê°Ģ ëıĦ
ĠP aper
ĠìŀĦ ì°¨
hes is
Ġcur riculum
ĠB aby
ĠìĹ ½
ĠB asic
I ES
text tt
ĠìĪĺ ìļĶìĿ¼
ìĥģ ìĹĲìĦľ
ĠE state
ìĭľ ëıĦ
Gener ated
ĠO UT
Ġë§Ī ìĬ¤íĦ°
ìľł ì¹ĺ
ĠëıĦ ìĦľê´Ģ
Ġre vers
rit ical
se x
Ġëª» íķĺê²Į
Com par
m x
ĠìĦ¤ì¹ĺ ëĲĺìĸ´
all a
g z
Ġìĺ¬ ë°Ķë¥¸
Ġsepar ately
Ġcompl iment
Ġold est
Ë·) {Ë·
Ġfro zen
ëĿ¼ ìĹĺ
sp acing
ĠT ai
ri k
Ġrestrict ed
ĠD aily
as ets
ĠO THER
ì²ĺìĿĮ ìĹĲëĬĶ
Ġë¶Ī ë¦¬
math scr
ĠìĿ´ ê¸°
Ġcustom ized
w alk
comm ons
ëª¨ íĦ°
Ġê²½ ê³Ħ
ìľł íĬľë¸Į
Ġin fect
h ist
gener ate
ãĥ ĥ
Ġcons ervation
Ġëª» íķľëĭ¤
Ġíķľ ê°Ģì§Ģ
Ġpush ing
ĠAn alysis
Ġê³¼ ìŀĲ
ìĹĪ ëĤĺ
ant ly
ĠìħĪ ìĿ´ëĭ¤
å ¦
osp el
ĠD utch
oc he
ìĩ¼íķĳ ëª°
ĠM iller
Ġfacilit ate
ĠBel g
LE S
Ġuncertain ty
in th
DO CTYPE
n om
App end
P ers
Ġm u
Ġì¶Ķì²ľ ëĵľëł¤ìļĶ
ĠìłĦ ëĤ¨
ĠG ET
Ġde ar
ìĸ´ì© Į
ë§Ī ëĬĶ
Ġì§Ħíĸī íķ©ëĭĪëĭ¤
l ag
Lim it
Ġform ats
ĠJew s
is set
under line
Ġkn ife
Ġcomplet ing
Ġë¿ ľ
ou p
Ġë¹Ħ ë¹Ħ
ĠìķĬìķĺ ê³ł
Ġrom antic
ê¹ ĢìĿ´
m os
cuss ion
Mem bers
Â ²
Ġë§Ľ ëĤľ
row se
ìĭ¬ ë¦¬
Ġìĸĩ ìĿĢ
Ġher itage
A udio
Ġëĺĳ ê°ĻìĿ´
Ġíı¬íĨł ì¡´
iment al
ĠìĨĲ íķ´
ĠVis it
Ġappro x
) âĢĻ
ĠìķĪ ì¢ĭ
i ere
Ġneighb ors
Ðº ÑĤ
n ut
ĠìķĦëŀĺ ë¡ľ
, $
Ġal pha
ĠDon ald
[...]
