{"[PAD]":0,"[UNK]":1,"[GO]":2,"[EOS]":3,"[NUM]":4,"[CLS]":5,"[SEP]":6,"[WS]":7,"[MASK]":8,"<S>":9,"<T>":10,"˷":11,"<newline>":12,"<|endoftext|>":13,"!":14,"\"":15,"#":16,"$":17,"%":18,"&":19,"'":20,"(":21,")":22,"*":23,"+":24,",":25,"-":26,".":27,"/":28,"0":29,"1":30,"2":31,"3":32,"4":33,"5":34,"6":35,"7":36,"8":37,"9":38,":":39,";":40,"<":41,"=":42,">":43,"?":44,"@":45,"A":46,"B":47,"C":48,"D":49,"E":50,"F":51,"G":52,"H":53,"I":54,"J":55,"K":56,"L":57,"M":58,"N":59,"O":60,"P":61,"Q":62,"R":63,"S":64,"T":65,"U":66,"V":67,"W":68,"X":69,"Y":70,"Z":71,"[":72,"\\":73,"]":74,"^":75,"_":76,"`":77,"a":78,"b":79,"c":80,"d":81,"e":82,"f":83,"g":84,"h":85,"i":86,"j":87,"k":88,"l":89,"m":90,"n":91,"o":92,"p":93,"q":94,"r":95,"s":96,"t":97,"u":98,"v":99,"w":100,"x":101,"y":102,"z":103,"{":104,"|":105,"}":106,"~":107,"¡":108,"¢":109,"£":110,"¤":111,"¥":112,"¦":113,"§":114,"¨":115,"©":116,"ª":117,"«":118,"¬":119,"®":120,"¯":121,"°":122,"±":123,"²":124,"³":125,"´":126,"µ":127,"¶":128,"·":129,"¸":130,"¹":131,"º":132,"»":133,"¼":134,"½":135,"¾":136,"¿":137,"À":138,"Á":139,"Â":140,"Ã":141,"Ä":142,"Å":143,"Æ":144,"Ç":145,"È":146,"É":147,"Ê":148,"Ë":149,"Ì":150,"Í":151,"Î":152,"Ï":153,"Ð":154,"Ñ":155,"Ò":156,"Ó":157,"Ô":158,"Õ":159,"Ö":160,"×":161,"Ø":162,"Ù":163,"Ú":164,"Û":165,"Ü":166,"Ý":167,"Þ":168,"ß":169,"à":170,"á":171,"â":172,"ã":173,"ä":174,"å":175,"æ":176,"ç":177,"è":178,"é":179,"ê":180,"ë":181,"ì":182,"í":183,"î":184,"ï":185,"ð":186,"ñ":187,"ò":188,"ó":189,"ô":190,"õ":191,"ö":192,"÷":193,"ø":194,"ù":195,"ú":196,"û":197,"ü":198,"ý":199,"þ":200,"ÿ":201,"Ā":202,"ā":203,"Ă":204,"ă":205,"Ą":206,"ą":207,"Ć":208,"ć":209,"Ĉ":210,"ĉ":211,"Ċ":212,"ċ":213,"Č":214,"č":215,"Ď":216,"ď":217,"Đ":218,"đ":219,"Ē":220,"ē":221,"Ĕ":222,"ĕ":223,"Ė":224,"ė":225,"Ę":226,"ę":227,"Ě":228,"ě":229,"Ĝ":230,"ĝ":231,"Ğ":232,"ğ":233,"Ġ":234,"ġ":235,"Ģ":236,"ģ":237,"Ĥ":238,"ĥ":239,"Ħ":240,"ħ":241,"Ĩ":242,"ĩ":243,"Ī":244,"ī":245,"Ĭ":246,"ĭ":247,"Į":248,"į":249,"İ":250,"ı":251,"Ĳ":252,"ĳ":253,"Ĵ":254,"ĵ":255,"Ķ":256,"ķ":257,"ĸ":258,"Ĺ":259,"ĺ":260,"Ļ":261,"ļ":262,"Ľ":263,"ľ":264,"Ŀ":265,"ŀ":266,"Ł":267,"ł":268,"Ń":269,"Ë·":270,"ĠĠ":271,"Ġì":272,"Ġë":273,"Ġt":274,"ìĿ":275,"in":276,"Ġa":277,"he":278,"ĠĠĠĠ":279,"re":280,"on":281,"íķ":282,"er":283,"ëĭ":284,"Ġê":285,"at":286,"Ġs":287,"Ġthe":288,"or":289,"en":290,"Ġc":291,"ìĹ":292,"Ġw":293,"es":294,"it":295,"ìĿ´":296,"ou":297,"an":298,"is":299,"ëĬ":300,"Ġf":301,"al":302,"Ġp":303,"ê³":304,"ing":305,"ëĭ¤":306,"ar":307,"Ġb":308,"ëĬĶ":309,"Ġo":310,"ed":311,"nd":312,"ê°":313,"Ġí":314,"le":315,"Ġm":316,"Ġd":317,"ìĦ":318,"ion":319,"ì§":320,"Ġto":321,"Ġin":322,"ìļ":323,"ic":324,"as":325,"ìĹĲ":326,"íķĺ":327,"ìŀ":328,"Ġand":329,"Ġof":330,"ìł":331,"ro":332,"ê³ł":333,"ĠĠĠĠĠĠĠĠ":334,"ĠĠĠ":335,"ë¡":336,"ìĿĦ":337,"Ġìŀ":338,"ëı":339,"ìĭ":340,"Ġh":341,"ìķ":342,"et":343,"ê¸":344,"st":345,"ent":346,"ct":347,"ë¡ľ":348,"ìĸ":349,"Ġth":350,"ê°Ģ":351,"el":352,"ë¦":353,"om":354,"ê²":355,"il":356,"ì§Ģ":357,"Ġn":358,"Ġl":359,"ë§":360,"Ġre":361,"ìĦľ":362,"ĠìĿ":363,"Īëĭ¤":364,"íķľ":365,"ë¥":366,"ëıĦ":367,"ëĵ":368,"ìľ":369,"ëĤ":370,"ìĸ´":371,"ìĿĢ":372,"ìĿĺ":373,"Ġe":374,"ìĬ":375,"id":376,"am":377,"ê¸°":378,"Ġìķ":379,"ìļĶ":380,"Ġê°":381,"Ġy":382,"Ġìł":383,"Ġë§":384,"Ġg":385,"ë¦¬":386,"ĠI":387,"ve":388,"Ĥ¬":389,"ot":390,"im":391,"ac":392,"..":393,"ol":394,"ig":395,"âĢ":396,"ĠT":397,"ĠS":398,"ad":399,"íķ´":400,"Ġis":401,"Ġ1":402,"ë©":403,"us":404,"ut":405,"Ġyou":406,"ë¥¼":407,"ur":408,"ëį":409,"ëĿ":410,"ow":411,"Ġfor":412,"ãħ":413,"ation":414,"Ġë°":415,"Īĺ":416,"Ë·.":417,"êµ":418,"ay":419,"ëł":420,"ëĿ¼":421,"ĠC":422,"ver":423,"ly":424,"ĠA":425,"Ġon":426,"ëĭĪëĭ¤":427,"Ġbe":428,"ìĭľ":429,"³´":430,"ĮĢ":431,"ìľ¼":432,"Ġ(":433,"ë°":434,"ë¬":435,"ë¶":436,"£¼":437,"Ġst":438,"ìĽ":439,"ê²Į":440,"ul":441,"·¸":442,"ce":443,"un":444,"ëŀ":445,"Ġìĭ":446,"ĠìĿ´":447,"ĠìĹ":448,"if":449,"Ë·,":450,"se":451,"od":452,"ìķĦ":453,"ch":454,"ith":455,"ìĿ¸":456,"ìĺ":457,"Ġ2":458,"Ġê²":459,"ìĥ":460,"ĠëĤ":461,"ag":462,"ĠìŀĪ":463,"ìĬ¤":464,"ĠĠĠĠĠĠĠ":465,"ë©´":466,"Ġthat":467,"--":468,"ëĤĺ":469,"ir":470,"ëĵ¤":471,"Ġ=":472,"ab":473,"Ġwith":474,"ter":475,"em":476,"Ġëĭ":477,"ĠM":478,"Ġìĺ":479,"ëŁ":480,"Ġì§":481,"Ġê³":482,"Ġv":483,"Ġit":484,"qu":485,"ate":486,"Ġcon":487,"um":488,"ìŀĲ":489,"ĠP":490,"ìľ¼ë¡ľ":491,"ri":492,"Ġal":493,"pe":494,"ì²":495,"Ġpro":496,"ë§Į":497,"Ġas":498,"Ġan":499,"est":500,"Ġhe":501,"íĸ":502,"ht":503,"ì¹":504,"ìĤ¬":505,"ĠB":506,"ĠìĦ":507,"th":508,"ap":509,"ess":510,"ë²":511,"ì£¼":512,"Ġíķĺ":513,"ìŀ¥":514,"ĠìĤ¬":515,"Ġde":516,"ĉĉ":517,"ãħĭ":518,"ill":519,"ëį°":520,"Ġ\"":521,"ers":522,"ist":523,"Ë·.Ë·":524,"ĠìĪĺ":525,");":526,"ke":527,"out":528,"Ġwh":529,"ê±":530,"our":531,"oc":532,"Ġìĥ":533,"Ġë¶":534,"and":535,"Ġê°Ģ":536,"íĻ":537,"</":538,"íĬ":539,"Ġwe":540,"Ġare":541,"ew":542,"=\"":543,"Ġor":544,"ëĭĪ":545,"op":546,"ìĻ":547,"ëĮĢ":548,"Ġê¸":549,"ĠìķĦ":550,"res":551,"ĠD":552,"Ġcom":553,"âĢĻ":554,"ìĹĲìĦľ":555,"ë³´":556,"ìĨ":557,"ê³¼":558,"Ġëª":559,"ĠW":560,"ain":561,"her":562,"ìĿ¼":563,"Ġr":564,"Ġëĵ":565,"êµ¬":566,"os":567,"Ġê·¸":568,"ĠH":569,"ëª":570,"up":571,"ĠF":572,"ass":573,"ort":574,"ore":575,"ìĽĲ":576,"Ġex":577,"ë¶Ģ":578,"Ġ{":579,"ìłķ":580,"¹Ħ":581,"end":582,"íĥ":583,"ction":584,"iv":585,"ì°":586,"íĺ":587,"ĠR":588,"Ġ$":589,"nt":590,"Ġíķ":591,"ĠThe":592,"ĠL":593,"ìĥģ":594,"ìĪĺ":595,"Ġat":596,"ĠĠĠĠĠĠĠĠĠĠĠĠĠĠĠĠ":597,"ê¹":598,"ld":599,"rom":600,"ëĲ":601,"ìĬµ":602,"//":603,"ëħ":604,"íĬ¸":605,"ex":606,"-Ë·":607,"Ġìĸ":608,"ant":609,"pl":610,"Ġthis":611,"ave":612,"art":613,"Ġse":614,"ity":615,"Ġë³´":616,"ame":617,"ment":618,"Ġcl":619,"ìłľ":620,"ë³":621,"ĠÐ":622,"ĠE":623,"ãħĭãħĭ":624,"Ġìľ":625,"ĠN":626,"ëĵľ":627,"ĠG":628,"Ġ'":629,"ight":630,"Ġ<":631,"ìļ©":632,"pt":633,"Ġëı":634,"ub":635,"Ġê²ĥ":636,"Ġus":637,"all":638,"ure":639,"Ġêµ":640,"Ġwas":641,"ue":642,"Ġ\\":643,"Ġëĭ¤":644,"ëĦ":645,"Ġyour":646,"ĠëĮĢ":647,"age":648,"Ġ*":649,"ë¯":650,"Ġì¢":651,"ine":652,"Ġìĭľ":653,"ê·¸":654,"ive":655,"ust":656,"Ġë¬":657,"ìłĦ":658,"Ġ0":659,"íĶ":660,"ëıĻ":661,"¤ĳ":662,"Ġfrom":663,"Ġì°":664,"Ġíķľ":665,"og":666,"Ġby":667,"ìĤ":668,"Ġnot":669,"ect":670,"Ġtr":671,"Ġ3":672,"¡°":673,"ìĬµëĭĪëĭ¤":674,"Ġcan":675,"Ġê¸°":676,"Ġsh":677,"Ġch":678,"Ġhave":679,"ìłģ":680,"ies":681,"ĠëĤĺ":682,"íĮ":683,"ack":684,"Ë·)":685,"ĠëĲ":686,"tr":687,"Ġìļ":688,"ê°Ħ":689,"ë¬¸":690,"ìĻĢ":691,"ĠĠĠĠĠĠĠĠĠĠĠ":692,"ìĦ±":693,"ê±°":694,"ë¬´":695,"ĠĊ":696,"ud":697,"ĠO":698,"Ġì§Ģ":699,"ëŁ¬":700,"Ð¾":701,"ĠìĨ":702,"ê¹Į":703,"ìĹ¬":704,"ìĦ¸":705,"ial":706,"ì¹ĺ":707,"iz":708,"Ġê±":709,"ëĬĶëį°":710,"**":711,"Ġle":712,"ë£":713,"Ġ}":714,"ë§Ī":715,"ĠìłĦ":716,"ge":717,"able":718,"av":719,"----":720,"port":721,"ard":722,"ìķ¼":723,"ì§Ħ":724,"Ð°":725,"ìļ°":726,"ell":727,"ost":728,"ë¶Ħ":729,"ind":730,"per":731,"Ġì£¼":732,"íĻĶ":733,"are":734,"rou":735,"íķĺê³ł":736,"ok":737,"ë¹Ħ":738,"ìĺ¤":739,"ff":740,"cl":741,"íĦ":742,"ì¶":743,"´Ģ":744,"Ġìłķ":745,"ome":746,"ould":747,"act":748,"ìŀħ":749,"ëł¤":750,"ĠâĢ":751,"ìĹĪ":752,"ķĮ":753,"\">":754,"Ġj":755,"íķĺëĬĶ":756,"ĠíĻ":757,"ide":758,"Ġwill":759,"ìĨĮ":760,"íģ":761,"ĠìŀĲ":762,"Ġ-":763,"ìĭł":764,"urn":765,"Ġk":766,"ak":767,"Ë·,Ë·":768,"ere":769,"ult":770,"ìĿĮ":771,"Ġall":772,"ip":773,"sp":774,"ice":775,"íĦ°":776,"Ġìłľ":777,"orm":778,"!!":779,"íŀ":780,"Ġwor":781,"ast":782,"ĠëĦ":783,"Ġab":784,"...":785,"Âł":786,"¨¹":787,"êµŃ":788,"Ġì¢ĭ":789,"ëŀĺ":790,"Ġif":791,"Ġpl":792,"Ðµ":793,"ire":794,"Ġint":795,"Ġen":796,"Ġëį":797,"Ġ#":798,"()":799,"ans":800,"con":801,"Ġdo":802,"==":803,"ìĤ°":804,"int":805,"íķł":806,"ìĸ´ìļĶ":807,"Ġíķ´":808,"íĨ":809,"ĠJ":810,"com":811,"íı":812,"Ġìĺ¤":813,"Ð¸":814,"ite":815,"ime":816,"Ġne":817,"Ġëª¨":818,"ile":819,"ì¦":820,"ĠĠĠĠĠ":821,"ext":822,"hen":823,"ase":824,"ìĹħ":825,"Ġë¶Ģ":826,"Ġclass":827,"'s":828,"ace":829,"íŀĪ":830,"ich":831,"ìĭ¤":832,"ļĮ":833,"Ġë§Ī":834,"ê¸Ī":835,"Ġad":836,"The":837,"ĠU":838,"one":839,"Ġì²":840,"Ġcomp":841,"ìĭĿ":842,"Ġì¶":843,"Ë·-Ë·":844,"Ġ4":845,"Ġíĺ":846,"Ġìĸ´":847,"ãħİ":848,"ë¯¸":849,"ib":850,"ì§Ģë§Į":851,"ated":852,"Ġë³":853,"ëĲĺ":854,"ie":855,"ail":856,"ĠìĹĨ":857,"ign":858,"ĠìķĬ":859,"ìļ´":860,"ally":861,"Ġì¹":862,"Ġ:":863,"Ġun":864,"ë©°":865,"ìħ":866,"ìķĪ":867,"Ġme":868,"ong":869,"ĳĲ":870,"Ġim":871,"ĠìĻ":872,"ëĤ´":873,"ĠìķĪ":874,"ĽĦ":875,"ions":876,"ĠìĿ¼":877,"cc":878,"ath":879,"ook":880,"íİ":881,"ep":882,"get":883,"ë¬¼":884,"Ġ5":885,"Ġbut":886,"ĠëĤ´":887,"ber":888,"ther":889,"ëħĦ":890,"Ġë²":891,"ake":892,"ê³µ":893,"ê°ľ":894,"ëĦ¤":895,"ëįĶ":896,"Ġë§İ":897,"Ġhas":898,"ëĶ":899,"Ġgo":900,"Ġup":901,"ĠìĥĿ":902,"turn":903,"ĠìĿ¸":904,"Ġê³ł":905,"Ð½":906,"Ġout":907,"íĸī":908,"ê·":909,"Ġíĸ":910,"Ġë°Ķ":911,":Ë·":912,"ìŀĪ":913,"Ġso":914,"íĴ":915,"ĠìŀĪëĬĶ":916,"Ġë§Į":917,"Ġìĥģ":918,"ance":919,"ef":920,"ĠìĬ":921,"Ġqu":922,"Ġap":923,"ë¥´":924,"ĠìľĦ":925,"ord":926,"ĠëĲĺ":927,"ype":928,"Ġcont":929,"Ġê°Ļ":930,"ëįĺ":931,"Ġì¤ĳ":932,"und":933,"so":934,"ia":935,"ÑĢ":936,"ata":937,"gh":938,"©ëĭĪëĭ¤":939,"ëªħ":940,"ear":941,"Ġë¨¹":942,"ode":943,"ĠIn":944,"ach":945,"ĠK":946,"ĠìĨĮ":947,"íģ¬":948,"Ġ&":949,"form":950,"ìĥĿ":951,"ary":952,"ì°¨":953,"ous":954,"ll":955,"ìľł":956,"ry":957,"erv":958,"ĠëķĮ":959,"íķĺê²Į":960,"Ġíı":961,"ÑĤ":962,"ëĭ¨":963,"ĠìĤ":964,"Ë·}":965,"ĠëĶ":966,"ĠTh":967,"Ġëĵ±":968,"pro":969,"du":970,"ĠíĮ":971,"ìłĢ":972,"ĠV":973,"very":974,"Ġnew":975,"ê°ģ":976,"Ġmy":977,"ĠìĹ¬":978,"Ġê³µ":979,"Ġone":980,"ì¡°":981,"íħ":982,"ê³Ħ":983,"\",":984,"ĠìĽ":985,"Ġê²½":986,"ìĿ´ëĿ¼":987,"ëĭ¹":988,"íļĮ":989,"ang":990,"ìľĦ":991,"Ñģ":992,"ìĦł":993,"ê²½":994,"ĠìŀĪëĭ¤":995,"str":996,"ĠíĶ":997,"Ġmore":998,"ject":999,"ition":1000,"ks":1001,"Ġë¹Ħ":1002,"ild":1003,"Ġwhich":1004,"ë²Ī":1005,"lo":1006,"(Ë·":1007,"Ġtheir":1008,"íĸĪ":1009,"Ġë¯":1010,"Ġour":1011,"Ġres":1012,"ations":1013,"Ġthey":1014,"eg":1015,"ount":1016,"ìĸĳ":1017,"ì²´":1018,"ents":1019,"Ġget":1020,"ens":1021,"íĴĪ":1022,"íĥĢ":1023,"Ġar":1024,"ì¤":1025,"Ġì¡°":1026,"Ġëĵ¤":1027,"ìŀħëĭĪëĭ¤":1028,"lic":1029,"ra":1030,"),":1031,"ë°©":1032,"ress":1033,"te":1034,"ref":1035,"Ë·%":1036,"Ð¾Ð":1037,"ìĺģ":1038,"Ġsu":1039,"ĠëįĶ":1040,"_Ë·":1041,"Ġêµ¬":1042,"ft":1043,"ê´Ģ":1044,"ìķĺ":1045,"ëĵ¤ìĿ´":1046,"In":1047,"ìĪ":1048,"Ġper":1049,"ĠĠĠĠĠĠĠĠĠĠĠĠĠĠĠ":1050,"Ġman":1051,"ìĿ´ëĭ¤":1052,"íĸĪëĭ¤":1053,"ont":1054,"ì¤ĳ":1055,"ose":1056,"Ġìľł":1057,"ì¡":1058,"ĠY":1059,"own":1060,"ëłĪ":1061,"row":1062,"ê²ł":1063,"ë§¤":1064,"Ġli":1065,"ìĽĶ":1066,"_{":1067,"Ġë§Ĳ":1068,"Ġsp":1069,"ìłĲ":1070,"ì½":1071,"ical":1072,"Ġìĭł":1073,"ree":1074,"Ġë¶Ħ":1075,"ëª¨":1076,"ê±´":1077,"ìĹ°":1078,").":1079,"Ġíĥ":1080,"ê¹Įì§Ģ":1081,"alue":1082,"Ġhis":1083,"Ġdis":1084,"ëŀĮ":1085,"ĠìĬ¤":1086,"unction":1087,"ple":1088,"ìŀ¬":1089,"ì²ľ":1090,"ove":1091,"Ġany":1092,"ì§ĳ":1093,"Ġabout":1094,"ert":1095,"Ġev":1096,"ìĹŃ":1097,"Ġ/":1098,"Ġtime":1099,"ìĭ¬":1100,"Ġë§Ľ":1101,"ê»":1102,"Ġ6":1103,"ëŀĳ":1104,"ĠëĬ":1105,"ence":1106,"ory":1107,"Ġë¬´":1108,"Ġother":1109,"Ġsc":1110,"li":1111,"ely":1112,"Ë·:Ë·":1113,"ĠìĦł":1114,"ps":1115,"ëł¥":1116,"Ġoff":1117,"ĠíĨ":1118,"íķĻ":1119,"reat":1120,"ĠìłĢ":1121,"Ġ[":1122,"ìŀĳ":1123,"elf":1124,"--------":1125,"Ġê±°":1126,"Ġë°©":1127,"ors":1128,"Ġpart":1129,"ings":1130,"ark":1131,"Ġalso":1132,"ë¸":1133,"ick":1134,"Ġê¹":1135,"íĭ":1136,"ì¢":1137,"ĠSt":1138,"ck":1139,"ë§Ĳ":1140,"Ġpr":1141,"Ġì§Ħ":1142,"red":1143,"Ġwork":1144,"íķ´ìĦľ":1145,"ëŁ°":1146,"ob":1147,"ink":1148,"ound":1149,"ov":1150,"Ġ.":1151,"Ã©":1152,"Ġreturn":1153,"Ġìŀĺ":1154,"ne":1155,"ãħł":1156,"ë©´ìĦľ":1157,"Ġdes":1158,"ëĲľ":1159,"íĤ":1160,"ĠëıĦ":1161,"ull":1162,"ë£Į":1163,"Ġíģ":1164,"ëĬ¥":1165,"ays":1166,"Ġìļ°":1167,"µľ":1168,"ë£¨":1169,"',":1170,"Ġwhen":1171,"div":1172,"ock":1173,"ĠìĺĪ":1174,"ĠIt":1175,"íĺ¸":1176,"Ġë©":1177,"ë¥¸":1178,"ëĳĲ":1179,"Ġstr":1180,"vers":1181,"íĶĦ":1182,"Ġìŀħ":1183,"Ġê´Ģ":1184,"âĢĿ":1185,"ĠëıĻ":1186,"iew":1187,"ë°Ķ":1188,"Ġë¯¸":1189,"Ġwho":1190,"íĹ":1191,"Ġro":1192,"->":1193,"íĶ¼":1194,"ëĭĺ":1195,"ize":1196,"Ġ+":1197,"ĠìĹ°":1198,"Ġ//":1199,"::":1200,"Ġte":1201,"ìļ¸":1202,"ĠìķĮ":1203,"´Ī":1204,"êµĲ":1205,"Ġhad":1206,"Ġsome":1207,"ëĶĶ":1208,"ph":1209,"~~":1210,"Ġover":1211,"Ġthem":1212,"íĮĮ":1213,"old":1214,"ìĸ´ìĦľ":1215,"ë²Ħ":1216,"ĠëĨ":1217,"ublic":1218,"ì¹´":1219,"ë¦¬ê³ł":1220,"Ġkn":1221,"ĠCh":1222,"span":1223,"ìĶ":1224,"here":1225,"Ġë¹":1226,"Ġ7":1227,"ĺĲ":1228,"tern":1229,"ìĹĲëĬĶ":1230,"ëĭ¤ê³ł":1231,"(\"":1232,"ec":1233,"vel":1234,"clud":1235,"ì£":1236,"ì²Ń":1237,"eth":1238,"Ë·;":1239,"ë¹":1240,"irst":1241,"Ġneed":1242,"ĳľ":1243,"ëĤľ":1244,"low":1245,"ëłĩ":1246,"Ġëħ":1247,"Ġthere":1248,"Ġ(Ë·":1249,"ãħİãħİ":1250,"ĠìĦ¸":1251,"ĉĉĉĉ":1252,"ê°Ĳ":1253,"Ġag":1254,"Ġlike":1255,"Īë¬´":1256,"/Ë·":1257,"ëĵł":1258,"use":1259,"Ġbeen":1260,"ëģ":1261,"ê²ĥ":1262,"Ġwould":1263,"ì²ĺ":1264,"ool":1265,"we":1266,"ìĹĪëĭ¤":1267,"ëĦ¤ìļĶ":1268,"Ġwere":1269,"ê²©":1270,"pec":1271,"Ġ8":1272,"íĨµ":1273,"Ġcol":1274,"Ġë°ľ":1275,"Ġyear":1276,"ìĽĮ":1277,"ĠìĦľ":1278,"Ġë§¤":1279,"sc":1280,"ë¡Ŀ":1281,"Ġher":1282,"ë¯¼":1283,"Ġam":1284,"ëĥ":1285,"Ġê·":1286,"ish":1287,"ug":1288,"....":1289,"lect":1290,"Ġund":1291,"ë°ľ":1292,"ìĦ¸ìļĶ":1293,"St":1294,"ë°ĺ":1295,"íı¬":1296,"ãħĭãħĭãħĭãħĭ":1297,"Ð»":1298,"Ġìĺģ":1299,"ì§Ī":1300,"Ġsa":1301,"Ġíİ":1302,"yst":1303,"ê»ĺ":1304,"ater":1305,"ìĨį":1306,"ual":1307,"ë¦Ħ":1308,"Ġadd":1309,"Ġfe":1310,"{\\":1311,"ëĬĺ":1312,"Ġwhat":1313,"Ġpre":1314,"****":1315,"ram":1316,"Ġset":1317,"set":1318,"ption":1319,"ëĭ¤ëĬĶ":1320,"ĠìĥĿê°ģ":1321,"Ġthan":1322,"ces":1323,"Ġinto":1324,"ĠWe":1325,"Ġê°ľ":1326,"put":1327,"Ġits":1328,"ìŀĦ":1329,"hed":1330,"ì¸":1331,"íĽĦ":1332,"ĠâĢľ":1333,"ì¼":1334,"ë´":1335,"Ġcomm":1336,"tt":1337,"ë²ķ":1338,"ĠíĽĦ":1339,"rib":1340,"ì¶ľ":1341,"Ġi":1342,"Ġì¤":1343,"'t":1344,"ss":1345,"ĠìĿĺ":1346,"ìĹĲê²Į":1347,"ax":1348,"Ġíķł":1349,"Ġno":1350,"Ġ</":1351,"ĠíĬ":1352,"iff":1353,"ade":1354,"Ġ_":1355,"wo":1356,"Ġì¶Ķ":1357,"ER":1358,"Ë·]":1359,"ë¦°":1360,"ener":1361,"Ġë°Ľ":1362,"Ġsup":1363,"Ġê³Ħ":1364,"ì§ģ":1365,"ĠThis":1366,"ĠìĽĲ":1367,"round":1368,"oy":1369,"Ġpe":1370,"Ġìŀ¥":1371,"ë³¸":1372,"ìĺĢ":1373,"app":1374,"Ġjust":1375,"ê°ķ":1376,"Ġhow":1377,"ê·¼":1378,"ystem":1379,"ond":1380,"Ġìµľ":1381,"Ġem":1382,"ãģ":1383,"pect":1384,"ĠíĨµ":1385,"://":1386,"Ġla":1387,"igh":1388,"ëįĶëĿ¼":1389,"Ġacc":1390,"Ġuse":1391,"ari":1392,"oint":1393,"ates":1394,"ĠëĪ":1395,"itt":1396,"ĠëĶ°":1397,"Ġ9":1398,"Ġprov":1399,"les":1400,"ë¶ĢíĦ°":1401,"ĠìĤ¬ëŀĮ":1402,"ì»":1403,"iel":1404,"ix":1405,"Ġë¬¸":1406,"fter":1407,"ĢìĿ´":1408,"ëķĮ":1409,"ict":1410,"ml":1411,"err":1412,"Ġonly":1413,"Ġê°ķ":1414,"par":1415,"====":1416,"cess":1417,"ìķ½":1418,"ning":1419,"ange":1420,"Th":1421,"Ðº":1422,"^^":1423,"ons":1424,"íĿ":1425,"Ġ@":1426,"Ġíı¬":1427,"ific":1428,"();":1429,"Ġì°¨":1430,"Ġname":1431,"><":1432,"íĭ°":1433,"Ġìĭ¤":1434,"ì¦Ī":1435,"Ġmay":1436,"ĠìĦ±":1437,"Ġrec":1438,"Ġë¬¼":1439,"Ġìĺ¬":1440,"Ġ$\\":1441,"ise":1442,"ng":1443,"Ġob":1444,"íħĮ":1445,"Ġ|":1446,"Ġë°°":1447,"ì£ł":1448,"ëĸ":1449,"ĠëĤ¨":1450,"íĨł":1451,"Ġê°Ĳ":1452,"ê¶":1453,"íĺķ":1454,"Ġdef":1455,"Ñĥ":1456,"Ġbl":1457,"line":1458,"Ġbu":1459,"íķĺê¸°":1460,"Ġê±´":1461,"ëłĩê²Į":1462,"Ġìŀĳ":1463,"ìłģìĿ¸":1464,"íķ©ëĭĪëĭ¤":1465,"Ġfirst":1466,"Ġì±":1467,"sh":1468,"Ġback":1469,"Ġë¶Ī":1470,"ian":1471,"ĠìĤ¬ìļ©":1472,"ĠìĪ":1473,"ĠêµŃ":1474,"ource":1475,"wn":1476,"Ġmake":1477,"ĠëĬĲ":1478,"ĠëĦĪë¬´":1479,"Ġì¦":1480,"ë¦¼":1481,"ëĭ¬":1482,"ì½Ķ":1483,"rough":1484,"Ġhel":1485,"iss":1486,"Ī¬":1487,"Ġë°ĺ":1488,"erm":1489,"íİĺ":1490,"íĥĿ":1491,"ÂłĊ":1492,"ient":1493,"ê¸¸":1494,"ĠìŀĪìĬµëĭĪëĭ¤":1495,"Ġbec":1496,"Ġëĵ¤ìĸ´":1497,"Ġbet":1498,"Ġop":1499,"Ġìŀ¬":1500,"ëĤ¨":1501,"Ġì»":1502,"ì±":1503,"ëĤł":1504,"ople":1505,"Ġserv":1506,"IN":1507,"ì¤Ģ":1508,"´ĳ":1509,"Ġgr":1510,"ìłģìľ¼ë¡ľ":1511,"ices":1512,"this":1513,"pr":1514,"umber":1515,"Ġke":1516,"io":1517,"Ġshe":1518,"ty":1519,"Ġlook":1520,"Ġfunction":1521,"Ġel":1522,"ield":1523,"Ġëª»":1524,"Ġknow":1525,"êµ¬ìļĶ":1526,"riv":1527,"Ġbr":1528,"ê¸ī":1529,"ĠíĶ¼":1530,"to":1531,"ĠëĳĲ":1532,"ww":1533,"ìĺĪ":1534,"Ġdiff":1535,"Ġì½":1536,"ìł¸":1537,"Ġmod":1538,"td":1539,"ause":1540,"Ġpublic":1541,"ë³µ":1542,"íĤ¤":1543,"Ġass":1544,"ĠëĺĲ":1545,"Ġreg":1546,"cre":1547,"__":1548,"Ġìłģ":1549,"ood":1550,"ys":1551,"Ë·\"":1552,"Ġpos":1553,"oid":1554,"ì¢ħ":1555,"Ġfin":1556,"ON":1557,"Ġprodu":1558,"math":1559,"íĳľ":1560,"ĠëķĮë¬¸":1561,"Ġrequ":1562,"ating":1563,"('":1564,"íķ¨":1565,"Ġëģ":1566,"ĠìļĶ":1567,"als":1568,"ble":1569,"ork":1570,"ĠíĻķ":1571,"Ġë§İìĿ´":1572,"ĠâĢĵ":1573,"Ġthen":1574,"Ġmost":1575,"Ġwant":1576,"ĠHe":1577,"ments":1578,"Ġco":1579,"ĠìĤ´":1580,"Ġthrough":1581,"ì¶Ķ":1582,"ĠìķĦëĭĪ":1583,"Ġcons":1584,"ied":1585,"oth":1586,"fr":1587,"ible":1588,"Ġact":1589,"Ġph":1590,"arg":1591,"Ġinclud":1592,"ìĦĿ":1593,"></":1594,"Ġunder":1595,"mer":1596,"Ġëħ¸":1597,"Ġtwo":1598,"Ġíķ¨":1599,"tring":1600,"Ġdata":1601,"ĠĠĠĠĠĠĠĠĠĠĠĠĠĠĠĠĠĠĠ":1602,"ì¦Ŀ":1603,"Ġsee":1604,"pos":1605,"Ġëĵľ":1606,"ma":1607,"ev":1608,"Ë·\\":1609,"¨¸":1610,"Ġwell":1611,"Ġind":1612,"ëĵ±":1613,"Ġthese":1614,"ful":1615,"Ġìĭ¶":1616,"Ġê²°":1617,"ics":1618,"Ġevery":1619,"Ġëĭ¨":1620,"fig":1621,"ough":1622,"ìĦ¤":1623,"atch":1624,"Ġpeople":1625,"name":1626,"ëĭµ":1627,"ular":1628,"ĠíĿ":1629,"ìĪł":1630,"Ġvalue":1631,"air":1632,"ities":1633,"Ġrel":1634,"anc":1635,"ĠìĦ¤":1636,"Ġhelp":1637,".\"":1638,"Ġent":1639,"Ġshould":1640,"Ġwhere":1641,"Ex":1642,"íĹĺ":1643,"{Ë·":1644,"Ġac":1645,"ë°°":1646,"Ġëĭ¬":1647,"##":1648,"íĥľ":1649,"rit":1650,"Ġì§ĳ":1651,"Ġrem":1652,"ëŁ¼":1653,"ĠíĺĦ":1654,"ìķĦìļĶ":1655,"ëĵ¤ìĿĢ":1656,"ëŁī":1657,"read":1658,"ëŀĢ":1659,"Ð²":1660,"íĺĦ":1661,"enc":1662,"uch":1663,"ĠíĸĪ":1664,"ray":1665,"ility":1666,"ĠíķĺëĬĶ":1667,"ĠYou":1668,"Ġspec":1669,"ìħĺ":1670,"Ġ!":1671,"ê¶Į":1672,"Ġcould":1673,"let":1674,"=Ë·":1675,"text":1676,"Ġsm":1677,"Ġì°¸":1678,"ures":1679,"its":1680,"Ġinv":1681,"Ë·-":1682,"Ġsub":1683,"ì¡±":1684,"ìłĪ":1685,"ily":1686,"ë¦¬ëĬĶ":1687,"Ġloc":1688,"rap":1689,"htt":1690,"))":1691,"bl":1692,"Ġend":1693,"íİ¸":1694,"../":1695,"ox":1696,"arch":1697,"ĠìķĦìĿ´":1698,"ĠíķĦ":1699,"ash":1700,"ious":1701,"Ġëĭ¹":1702,"uct":1703,"ê²°":1704,"equ":1705,"ëĨ":1706,"ĠíĮĮ":1707,"ëĭ´":1708,"Ġë¸":1709,"atic":1710,"ë§Ľ":1711,"ìĺ¨":1712,"Ġvery":1713,"ĠĠĠĠĠĠĠĠĠ":1714,"Ġway":1715,"ë¸Į":1716,"íķľëĭ¤":1717,"eng":1718,"ì´Ī":1719,"RE":1720,"Ġinst":1721,"Ġcall":1722,"any":1723,"urre":1724,"ator":1725,"Ġatt":1726,"ues":1727,"ðŁ":1728,"ë³´ëĭ¤":1729,"ĠêµĲ":1730,"íķĺìĹ¬":1731,"Ġ*/":1732,"ìĥī":1733,"che":1734,"Pro":1735,"ement":1736,"essage":1737,"ìĸµ":1738,"[Ë·":1739,"ëħ¸":1740,"ative":1741,"ëĿ¼ê³ł":1742,"plic":1743,"Ġform":1744,"Ġche":1745,"ting":1746,"Ġê³³":1747,"Ġíķĺê³ł":1748,"return":1749,"Ġexper":1750,"ased":1751,"Ġstart":1752,"íĶĮ":1753,"ĠUn":1754,"Ġíİ¸":1755,"col":1756,"Ġsuch":1757,"ë°ķ":1758,"ãħłãħł":1759,"ages":1760,"ìĹĲëıĦ":1761,"ST":1762,"ale":1763,"co":1764,"ife":1765,"ner":1766,"Ë·/Ë·":1767,"roup":1768,"ì§ĢëĬĶ":1769,"Ġê°Ħ":1770,"}}":1771,"Ġmany":1772,"Ġê°ĢëĬ¥":1773,"ìľ¼ë©´":1774,"Ġì¹´":1775,"ĠíķĺëĤĺ":1776,"abel":1777,"nce":1778,"ë¨¹":1779,"ê¸°ëıĦ":1780,"Ġê²½ìļ°":1781,"ts":1782,"Ġafter":1783,"Ġtrans":1784,"Ġstud":1785,"Ġfind":1786,"ĠIf":1787,"ward":1788,"Ġright":1789,"Ġcre":1790,"erson":1791,"ĠíĻĶ":1792,"Ġsim":1793,"ë³Ħ":1794,"ery":1795,"the":1796,"Ġeven":1797,"ìĭľê°Ħ":1798,"Ġnow":1799,"Ġpar":1800,"ī´":1801,"of":1802,"ute":1803,"Ġgood":1804,"ëª©":1805,"olog":1806,"íĮĲ":1807,"Ġì¶ľ":1808,"ident":1809,"iness":1810,"Ġsaid":1811,"ìĿ´ëĤĺ":1812,"ìĻ¸":1813,"formation":1814,"self":1815,"ëĪ":1816,"Ġused":1817,"ê¸°ë¥¼":1818,"Ġìĸĳ":1819,"Ġdiffere":1820,"Ġâ":1821,"Ġë§ŀ":1822,"ĠíĬ¹":1823,"br":1824,"ower":1825,"AT":1826,"ĉĉĉ":1827,"ë©Ķ":1828,"Ġ,":1829,"Ġresult":1830,"ational":1831,"Ġë§Įëĵ¤":1832,"ìĭľëĬĶ":1833,"ution":1834,"Ġlong":1835,"dd":1836,"day":1837,"Name":1838,"ier":1839,"ë¦½":1840,"ton":1841,"Ġtype":1842,"Ġinter":1843,"Ġread":1844,"íĮħ":1845,"Ġê³¼":1846,"êµ°":1847,"Ġmin":1848,"other":1849,"der":1850,"hat":1851,"Ġdown":1852,"íķ©":1853,"Ġav":1854,"Ġz":1855,"aking":1856,"ĠPro":1857,"ollow":1858,"Ë·$":1859,"Ġgreat":1860,"ª½":1861,"ethod":1862,"Ġì¢ĭìĿĢ":1863,"Â·":1864,"Ġíķ¨ê»ĺ":1865,"na":1866,"Ġê²ĥìĿ´":1867,"ĠìĹ´":1868,"ë¸Ķ":1869,"ta":1870,"ìľ¡":1871,"Ġfl":1872,"Ġíŀ":1873,"Ġown":1874,"ì§ľ":1875,"Ġeff":1876,"·¨":1877,"Ġì°¾":1878,"ë¡ł":1879,"íķĺì§Ģ":1880,"Ġnumber":1881,"az":1882,"ìģ":1883,"Ë·_":1884,"Ġbus":1885,"Ġì§ģ":1886,"import":1887,"ank":1888,"Ñı":1889,"ĠëĤł":1890,"ĠCom":1891,"nc":1892,"amp":1893,"Ġíģ¬":1894,"ê²¨":1895,"ms":1896,"ëĮĢë¡ľ":1897,"We":1898,"Ġhand":1899,"ĠëĿ":1900,"irect":1901,"íĸ¥":1902,"ĠìłĲ":1903,"Ġì¹ĺ":1904,"ead":1905,"Ġëĸ":1906,"ëł¨":1907,"ser":1908,"Ġhim":1909,"ìłĳ":1910,"Ġyears":1911,"html":1912,"Ġhigh":1913,"fore":1914,"velop":1915,"íķĺë©´":1916,"ĵ°":1917,"Ġdet":1918,"ĠëķĮë¬¸ìĹĲ":1919,"----------------":1920,"Ġdon":1921,"led":1922,"Ð¼":1923,"ë¥ĺ":1924,"ĠëĲľ":1925,"Ġhref":1926,"Ġìĭľê°Ħ":1927,"íĻĺ":1928,"ered":1929,"urrent":1930,"right":1931,"Ġbest":1932,"uring":1933,"Ġcar":1934,"add":1935,"ĠíĹ":1936,"Ġlist":1937,"Ġshow":1938,"yle":1939,"ĠìĥĪ":1940,"Ġusing":1941,"ody":1942,"Ġaut":1943,"ëĿ½":1944,"ĠìĤ¬ì§Ħ":1945,"ience":1946,"Ġeach":1947,"Ġì¢ĭìķĦ":1948,"imes":1949,"ript":1950,"Ġdoes":1951,"ìħĶ":1952,"Ġgu":1953,"\":":1954,"Ð´":1955,"ĠëĮĢíķľ":1956,"Ġë§ĽìŀĪ":1957,"vent":1958,"Ġë°ı":1959,"ìĶ¨":1960,"Ġdid":1961,"Ġplay":1962,"ĠìĨĲ":1963,"It":1964,"ym":1965,"Ġsystem":1966,"Ġhere":1967,"Ġmuch":1968,"Ġbecause":1969,"ustom":1970,"Ġpres":1971,"Ġ$Ë·":1972,"ee":1973,"def":1974,"Ķëĭ¤":1975,"Ġìļ´":1976,"ren":1977,"Ġdel":1978,"Ñĸ":1979,"Ġìļ°ë¦¬":1980,"Ġë©Ķ":1981,"íķĺëĭ¤":1982,"ĠìĹŃ":1983,"ins":1984,"fo":1985,"Ġbel":1986,"ĠíĶĦ":1987,"Ġdec":1988,"ited":1989,"ìĨ¡":1990,"Id":1991,"cond":1992,"Ġê±¸":1993,"},":1994,"ames":1995,"ëĵ¤ìĿĦ":1996,"Ġê°ĻìĿĢ":1997,"ĠìĭĿ":1998,"els":1999,"Type":2000,"Cont":2001,"Ġë´":2002,"ĠAr":2003,"ìĹĨ":2004,"ìĤ´":2005,"Ġser":2006,"gan":2007,"ê´ĳ":2008,"LE":2009,"Ġìłķë§Ĳ":2010,"Ġbefore":2011,"Ġpol":2012,"ature":2013,"Ġì½Ķ":2014,"aw":2015,"ĠíļĮ":2016,"Ġx":2017,"ĠíĴ":2018,"Ġsur":2019,"OR":2020,"Ġì´Ī":2021,"ìĿ¸ëį°":2022,"Ġfollow":2023,"Ġself":2024,"Ġday":2025,"ê¸°ê°Ģ":2026,"íıī":2027,"Ġë¦":2028,"Ġref":2029,"uc":2030,"ĠĠĠĠĠĠĠĠĠĠĠĠĠĠĠĠĠĠĠĠĠĠĠĠĠĠĠĠĠĠĠĠ":2031,"Ġsol":2032,"Ġìĭľìŀĳ":2033,"ìĿ´ëĬĶ":2034,"ince":2035,"ines":2036,"AR":2037,"ever":2038,"Ġapp":2039,"ìħ¨":2040,"ek":2041,"ĠìĻĦ":2042,"Ġ=>":2043,"ìĿ´ëĿ¼ê³ł":2044,"ê°Ļ":2045,"ĠâĢĺ":2046,"Ġtake":2047,"ëĵ¤ìĿĺ":2048,"ãĥ":2049,"Ġsom":2050,"Ġê¹Ģ":2051,"ets":2052,"ann":2053,"íļ":2054,"Ġìĸ´ëĸ":2055,"Ġê²Į":2056,"ctions":2057,"Ġ)":2058,"Ġíĸī":2059,"Ġinformation":2060,"gram":2061,"ĠìĿĮ":2062,"ëĬĶëį°ìļĶ":2063,"Ġcor":2064,"String":2065,"Ġgener":2066,"Ġval":2067,"Ġconst":2068,"Ġì²ĺ":2069,"Ġdesign":2070,"Con":2071,"Ġmon":2072,"ĠìĹĲ":2073,"ized":2074,"Ġdi":2075,"ë§Ŀ":2076,"ĠAnd":2077,"min":2078,"ault":2079,"ëĦĪ":2080,"view":2081,"ĠëıĮ":2082,"bs":2083,"ëįĶëĿ¼êµ¬ìļĶ":2084,"ì¸µ":2085,"tain":2086,"Ġvis":2087,"ĠëĬĲëĤ":2088,"Ġmade":2089,"Ġê¼":2090,"Ġë§İìĿĢ":2091,"Ġíķ©ëĭĪëĭ¤":2092,"type":2093,"ument":2094,"Ġfam":2095,"ëĭµëĭĪëĭ¤":2096,"íķŃ":2097,"Ġagain":2098,"ìķĦìĦľ":2099,"ê¸°ìĹĲ":2100,"aut":2101,"ĠìĻ¸":2102,"Ġmem":2103,"ween":2104,"íĿ¬":2105,"Ġì´":2106,"Ġhome":2107,"ality":2108,"ouse":2109,"ë§ī":2110,"Ġíıī":2111,"ì´":2112,"alse":2113,"ìĬ¤íĬ¸":2114,"egin":2115,"This":2116,"Ġins":2117,"Ġfr":2118,"Ġdifferent":2119,"Ġsame":2120,"ê¸Ģ":2121,"ik":2122,"Ġfil":2123,"ëŀľ":2124,"ually":2125,"var":2126,"ĠAl":2127,"ired":2128,"way":2129,"ìª½":2130,"ì¹¨":2131,"^{":2132,"(\\":2133,"be":2134,"EN":2135,"ider":2136,"Ġwhile":2137,"ĠëĿ¼":2138,"Ġbeing":2139,"Ġtest":2140,"Ch":2141,"ĠìľĦíķ´":2142,"Ġline":2143,"ëī´":2144,"Ġed":2145,"ĠìłķëıĦ":2146,"ele":2147,"ì§Ģê³ł":2148,"Ġrun":2149,"ìĹĶ":2150,"Ġperson":2151,"load":2152,"Ġimport":2153,"ern":2154,"Ë·:":2155,"Ġchar":2156,"ëĭĪê¹Į":2157,"arn":2158,"ãĢ":2159,"ĠíķĻ":2160,"ĠíĥĢ":2161,"Com":2162,"Ġê¸Ī":2163,"ë¨¸":2164,",,":2165,"********":2166,"Ġ>":2167,"Ġthink":2168,"Ġì¤Ģ":2169,"chn":2170,"ëĲĺìĸ´":2171,"px":2172,"ëħĢ":2173,"Ġthose":2174,"ĠFor":2175,"idth":2176,"}\\":2177,"ëĬĲ":2178,"Ġbusiness":2179,"param":2180,"Ġprocess":2181,"land":2182,"ather":2183,"Ġë³¸":2184,"yp":2185,"ë°±":2186,"Ġãħİãħİ":2187,"ID":2188,"pon":2189,"ê³³":2190,"Ġìķ½":2191,"ĠìŀĪìĹĪ":2192,"Ġmed":2193,"ìĹĲìļĶ":2194,"que":2195,"alth":2196,"Ġëĭ¤ë¥¸":2197,"Ġvari":2198,"ined":2199,"Ġmark":2200,"Ġíķľëĭ¤":2201,"Ġpoint":2202,"Ġdevelop":2203,"Ġë°Ķë¡ľ":2204,"ĠëĪĪ":2205,"Ġì¹ľ":2206,"AL":2207,"cept":2208,"??":2209,"ëıĦë¡Ŀ":2210,"Ġìķŀ":2211,"ache":2212,"IT":2213,"ample":2214,"^Ë·":2215,"itle":2216,"press":2217,"Ġbetween":2218,"ĠëĨĴ":2219,"Ġdist":2220,"alk":2221,"Ġì²Ń":2222,"Ġproduct":2223,"Ġest":2224,"ë¶Ī":2225,"ë¦¬ë¥¼":2226,"ĠìĹĦ":2227,"ah":2228,"Ġsk":2229,"over":2230,"ëłĪìĿ´":2231,"begin":2232,"į¼":2233,"Ġ==":2234,"Ã¡":2235,"mod":2236,"ĠÐ¿":2237,"Ġë¦¬":2238,"Ġ`":2239,"ê·¸ëŀĺ":2240,"âĢĶ":2241,"ĠTr":2242,"Ġsign":2243,"Ġgiv":2244,"class":2245,"lass":2246,"Ġcase":2247,"code":2248,"cent":2249,"ĠìĤ°":2250,"ĠëĦĺ":2251,"ÑģÑĤ":2252,"Ġì¢ħ":2253,"function":2254,"Ġlast":2255,"AN":2256,"Ġfound":2257,"ession":2258,"ê±¸":2259,"ìĺ¤ëĬĺ":2260,"Ġsupport":2261,"ê¹Ģ":2262,"chool":2263,"íĻ©":2264,"ëĿ¼ëĬĶ":2265,"Ġcle":2266,"ê°Ī":2267,"ĠAn":2268,"ars":2269,"ĠíķĦìļĶ":2270,"ĠQ":2271,"ëĥ¥":2272,"Ġtop":2273,"Ġworld":2274,"ë³Ģ":2275,"rol":2276,"Ġerr":2277,"ric":2278,"}$":2279,"ìĭľë©´":2280,"ĠSh":2281,"Ġart":2282,"ott":2283,"Res":2284,"Ġëª©":2285,"ëł¸":2286,"ason":2287,"Ġìĭ¬":2288,"ë¦´":2289,"ĠìłľíĴĪ":2290,"Ġì§Ħíĸī":2291,"ì°½":2292,"Ġprovid":2293,"ë¦¬ê°Ģ":2294,"Ġìĸ¼":2295,"for":2296,"ëŁ½":2297,"íĻľ":2298,"ãĤ":2299,"ote":2300,"Ġì¢Ģ":2301,"akes":2302,"ê¸´":2303,"ìĥĪ":2304,"val":2305,"ĠëĴ":2306,"ëĲĺëĬĶ":2307,"ense":2308,"+Ë·":2309,"Ġíĺ¸":2310,"Ġë³Ģ":2311,"ception":2312,"Ġlife":2313,"ì²ĺëŁ¼":2314,"ream":2315,"Ġcount":2316,"Ġeas":2317,"¨¼":2318,"ÑĮ":2319,"List":2320,"back":2321,"ì»¤":2322,"Ġboth":2323,"Ġíŀĺ":2324,"ĠìŀĪìľ¼":2325,"ght":2326,"Ġì²´":2327,"oot":2328,"ĠìĨį":2329,"ĠEx":2330,"Ġì»¤":2331,"ccess":2332,"Ë·);":2333,"ìŀĪëĬĶ":2334,"Ġpost":2335,"ĠëŃ":2336,"ĠëĶĶ":2337,"data":2338,"ë°¥":2339,"Ġë²Ħ":2340,"Ġchild":2341,"íĪ¬":2342,"ĠíĪ¬":2343,"../../":2344,"ëĵĿ":2345,"rivate":2346,"Ġaround":2347,"ì±ħ":2348,"ĠAs":2349,"ìĺ¬":2350,"Ġì¤Ħ":2351,"Ġãħĭãħĭ":2352,"Ġë§ĪìĿĮ":2353,"ì¡Į":2354,"Ġelse":2355,"ĠĠĊ":2356,"son":2357,"perty":2358,"ìĹĲìĦľëĬĶ":2359,"Ġìī":2360,"me":2361,"Ġë¡":2362,"Ġì¦Ŀ":2363,"indow":2364,"¾¸":2365,"ê·¸ë¦¬ê³ł":2366,"ters":2367,"Ġì°į":2368,"ĠëĶ°ëĿ¼":2369,"lease":2370,"Ë·'":2371,"Ġet":2372,"Ġê¸¸":2373,"cal":2374,"Ġcr":2375,"Ġrep":2376,"Ġtrue":2377,"ness":2378,"att":2379,"ength":2380,"ìĸ¸":2381,"Ġê°Ģìŀ¥":2382,"SE":2383,"Ã³":2384,"To":2385,"íĬ¹":2386,"Ġëį°":2387,"ways":2388,"arm":2389,"Ġtry":2390,"========":2391,"Ġê·¸ëŁ°":2392,"de":2393,"ìĿ´íĬ¸":2394,"arent":2395,"ĠëĬĲëĤĮ":2396,"Ġpass":2397,"ĠÃ":2398,"ìĿ´ê³ł":2399,"ĠZ":2400,"ê¸°ëĬĶ":2401,"gy":2402,",\"":2403,"~Ë·":2404,"IC":2405,"ëĵ¯":2406,"ìĬ¹":2407,"label":2408,"ared":2409,"ule":2410,"ailable":2411,"ì³":2412,"ĠëĪĦ":2413,"ì°©":2414,"ĠíĻľ":2415,"Ar":2416,"ëĭ¤ê°Ģ":2417,"½ĥ":2418,"Ġstill":2419,"ìī":2420,"ask":2421,"Ġplace":2422,"Ġresp":2423,"Ġëĭ´":2424,"Ġext":2425,"ĠëĦ£":2426,"ĠNew":2427,"ê±°ëĤĺ":2428,"Ġappro":2429,"Ġíħ":2430,"ven":2431,"ĠÐ²":2432,"Ġcustom":2433,"Ġwr":2434,"Ġlead":2435,"hip":2436,"ify":2437,"ë²ł":2438,"Ġmain":2439,"Ġprof":2440,"íķĺìĦ¸ìļĶ":2441,"ants":2442,"raph":2443,"ì¹ľ":2444,"Ġvoid":2445,"ĠíĮĲ":2446,"ìĻĶ":2447,"roll":2448,"ĠBut":2449,"Ġposs":2450,"Ġele":2451,"\"><":2452,"Ġcour":2453,"Ġbuild":2454,"ĠìĿ´ìĥģ":2455,"ced":2456,"less":2457,"play":2458,"Ġcent":2459,"Ġvar":2460,"ì¶ķ":2461,"Ġìĵ°":2462,"Ġ--":2463,"aj":2464,"ëıħ":2465,"ë³ĳ":2466,"date":2467,"Ġë²Ī":2468,"Ġëł":2469,"Ġmust":2470,"Ġbre":2471,"Ġëªħ":2472,"new":2473,"man":2474,"ists":2475,"Ġê·¼":2476,"ìķĺëĭ¤":2477,"Ġprogram":2478,"Ġlet":2479,"Ġbook":2480,"Ġid":2481,"esc":2482,"ë¶ģ":2483,"ished":2484,"Ġcare":2485,"ÃŃ":2486,"Ġpartic":2487,"ëł¹":2488,"íķ´ìķ¼":2489,"Ë·),":2490,"ìĽĢ":2491,"pp":2492,"Ġsmall":2493,"ìĪľ":2494,"ĠìĪľ":2495,"ross":2496,"ĠëģĿ":2497,"inal":2498,"Ġopen":2499,"oci":2500,"_{\\":2501,"Ġequ":2502,"ë°Ľ":2503,"uss":2504,"ĠX":2505,"Ġlo":2506,"ÑĢÐ°":2507,"ê°ĢëĬĶ":2508,"ole":2509,"ĠìĦłíĥĿ":2510,"Ġcommun":2511,"ivers":2512,"Ġreally":2513,"Ġtoo":2514,"ware":2515,"ľ´":2516,"left":2517,"\")":2518,"riend":2519,"ush":2520,"ĠCon":2521,"Ñĭ":2522,"Ġreal":2523,"Ġë¸Ķ":2524,"Ġíļ":2525,"Ġë³¼":2526,"Ë·/":2527,"Ġoper":2528,"įëĭĪëĭ¤":2529,"ĠìĿ´ëłĩê²Į":2530,"ìķł":2531,"Ġfree":2532,"ì§¸":2533,"au":2534,"ĠìĿ´ìļ©":2535,"aving":2536,"Ġnull":2537,"Ġallow":2538,"ĠìķĦëĭ":2539,"fe":2540,"ĠíĨµíķ´":2541,"Ġbo":2542,"Ġëĭ¤ìĭľ":2543,"pre":2544,"Ġpur":2545,"ey":2546,"trans":2547,"ten":2548,"Ġcurrent":2549,"ava":2550,"cont":2551,"ê°Ģì§Ģ":2552,"Ġproject":2553,"ittle":2554,"Ġopt":2555,"íģ¼":2556,"ems":2557,"ĠìĹĨëĬĶ":2558,"íķ´ì£¼":2559,"SS":2560,"ë¡ľê·¸":2561,"Ġìĸ¸":2562,"Ġfact":2563,"Ġproble":2564,"ĠìŀĪìĸ´":2565,"ots":2566,"ĠĠĠĠĠĠĠĠĠĠĠĠĠĠĠĠĠĠĠĠĠĠĠ":2567,"ering":2568,"erest":2569,"Ġdisc":2570,"Ñĩ":2571,"ĠìŀĪìĸ´ìļĶ":2572,"Ġservice":2573,"Ġhead":2574,"uff":2575,"Ġì±ħ":2576,"ëĭ¤ë©´":2577,"Ġìĺ¨":2578,"www":2579,"Ġfile":2580,"Ð½Ð¸":2581,"bject":2582,"Ġíģ°":2583,"bers":2584,"https":2585,"ìĿ´ì§Ģ":2586,"eta":2587,"by":2588,"Ġgoing":2589,"!!!":2590,"į¨":2591,"not":2592,"Ġide":2593,"Ġê²ĥìľ¼ë¡ľ":2594,"til":2595,"Ġtechn":2596,"frac":2597,"ê¼":2598,"ë³¼":2599,"Ġê°ģ":2600,"Ġëª¨ìĬµ":2601,"Ġwithout":2602,"work":2603,"Ġcap":2604,"ĠThey":2605,"arget":2606,"ê°Ŀ":2607,"Tr":2608,"):":2609,"CT":2610,"Ġmethod":2611,"Ġpat":2612,"comm":2613,"Ġadv":2614,"Ġê²Ģ":2615,"ĠSe":2616,"Ġê¶":2617,"Ġavailable":2618,"Ġë¹ł":2619,"Ġsl":2620,"âĸ":2621,"ified":2622,"Ġfew":2623,"ì¦ĺ":2624,"ì±Ħ":2625,"reen":2626,"ĠìŀĪìĸ´ìĦľ":2627,"Ġteam":2628,"Ġorder":2629,"Ġì§ĢëĤľ":2630,"Ġhapp":2631,"fl":2632,"ëĺĲ":2633,"vert":2634,"rr":2635,"Ġë¬¸ìłľ":2636,"Ġdirect":2637,"ething":2638,"Data":2639,"ization":2640,"íķĺë©°":2641,"Ġëª¨ëĳĲ":2642,"âĢ¦":2643,"Ġsecond":2644,"thing":2645,"org":2646,"Ġmat":2647,"AA":2648,"ung":2649,"ĠëĤĺìĺ¤":2650,"If":2651,"aining":2652,"stand":2653,"ĠHow":2654,"ëĳ":2655,"ì¿":2656,"ural":2657,"Ġdep":2658,"ĠíĻĺ":2659,"Ġthree":2660,"ology":2661,"////":2662,"Ġkeep":2663,"ìķ¡":2664,"Ġhtt":2665,"ains":2666,"ëģ¼":2667,"ê³łìļĶ":2668,"Ġnext":2669,"eter":2670,"ĠDe":2671,"\");":2672,"ĠëĴ¤":2673,"ital":2674,"ives":2675,"ìķħ":2676,"Ġì¡°ê¸Ī":2677,"Ġì±Ħ":2678,"arly":2679,"ĠĠĠĠĠĠ":2680,"string":2681,"ê²¬":2682,"ision":2683,"Ġalways":2684,"ìĹĪìĸ´ìļĶ":2685,"log":2686,"Ġíĳľ":2687,"key":2688,"ĠìŀĪìĿĦ":2689,"ral":2690,"ìĿµ":2691,"ought":2692,"ë§ģ":2693,"ential":2694,"ety":2695,"ĠëĲł":2696,"DE":2697,"Ġeffect":2698,"version":2699,"Ġcontin":2700,"Ġperform":2701,"ìĹ´":2702,"umm":2703,"Ġstand":2704,"sub":2705,"ĠÑģ":2706,"Ġlove":2707,"Ð¾Ð²":2708,"Ġê·¸ë¦¬ê³ł":2709,"Ġcho":2710,"Ġsay":2711,"Ġquest":2712,"Ġconf":2713,"ĠìĹħ":2714,"raw":2715,"source":2716,"Ġplan":2717,"ved":2718,"gr":2719,"ency":2720,"íķĺì§Ģë§Į":2721,"value":2722,"Ġìº":2723,"med":2724,"ger":2725,"eq":2726,"arge":2727,"As":2728,"ĠíķľêµŃ":2729,"LL":2730,"Ġì¤Ģë¹Ħ":2731,"Ġsure":2732,"Ġì¶©":2733,"Ġëĭ¤ìĸĳ":2734,"message":2735,"Ġcome":2736,"ait":2737,"Ġì·¨":2738,"atus":2739,"ember":2740,"Ġdr":2741,"Ġì¦Ĳ":2742,"hor":2743,"Ġlittle":2744,"')":2745,"ploy":2746,"Ġfeel":2747,"Col":2748,"ope":2749,"ĠPl":2750,"ë§ĮìĽĲ":2751,"lection":2752,"ĠWh":2753,"Ġview":2754,"Ġkey":2755,"ĠìĿ´ëŁ°":2756,"ì¡´":2757,"Ġwater":2758,"Ġtri":2759,"ĠìŀĲìĭł":2760,"Ġ'Ë·":2761,"opt":2762,"Ð·":2763,"face":2764,"Ġê°Ī":2765,"ism":2766,"bo":2767,"Ġê°Ģê²©":2768,"ëľ":2769,"Ġstate":2770,"ĠëłĪ":2771,"Ġìķł":2772,"ì¸ł":2773,"http":2774,"Ġlevel":2775,"Ġduring":2776,"Ġë¶Ģë¶Ħ":2777,"ior":2778,"bar":2779,"ê²łìĬµëĭĪëĭ¤":2780,")$":2781,"Ġrece":2782,"Ġìĺ¤ëĬĺ":2783,"Ġsomething":2784,"Ġanother":2785,"ases":2786,"ìĹĪëĬĶëį°":2787,"ats":2788,"ìķĦìĿ´":2789,"Ġtem":2790,"Ġobject":2791,"Ġcou":2792,"ĠShe":2793,"yn":2794,"Ġiss":2795,"lex":2796,"ëħķ":2797,"ails":2798,"ìĸ¼":2799,"Ġê²ĥìĿĢ":2800,"Ġput":2801,"AM":2802,"Ġcompany":2803,"Ġorgan":2804,"ëģĶ":2805,"íķĺë©´ìĦľ":2806,"Ġthings":2807,"Ġexpect":2808,"uild":2809,"Ġfield":2810,"ìĬ¤íĥĢ":2811,"ĠíĨł":2812,"For":2813,"Ġmight":2814,"âĢĵ":2815,"ëĥĲ":2816,"ĠìŀħëĭĪëĭ¤":2817,"rem":2818,"Ġfalse":2819,"ìĭľê³ł":2820,"ervice":2821,"Ġinterest":2822,"ĠíĸĪëĭ¤":2823,"ĠíĻķìĿ¸":2824,"Ġë°ķ":2825,"íķĳ":2826,"Ġ-Ë·":2827,"ĠĠĠĠĠĠĠĠĠĠĠĠĠ":2828,"ìĤ¬ë¥¼":2829,"head":2830,".Ë·":2831,"Ã¤":2832,"=\"Ë·":2833,"ìľ¨":2834,"time":2835,"íı°":2836,"Ġê°ĻìķĦìļĶ":2837,"loc":2838,"ĠìŀĦ":2839,"Ð¿":2840,"requ":2841,"Ġë³´ê³ł":2842,"Ġevent":2843,"meric":2844,"ì³Ĳ":2845,"Ġcheck":2846,"Ġê²ĥìĿĦ":2847,"Ġbetter":2848,"umn":2849,"sw":2850,"Ġve":2851,"go":2852,"Ġsince":2853,"Ġmonth":2854,"Ġmet":2855,"ocument":2856,"ì¼Ģ":2857,"Ġìŀ¡":2858,"Ġmarket":2859,"Ġ~":2860,"Ġold":2861,"ëĤĺëĬĶ":2862,"ì°¬":2863,"Ġprivate":2864,"orn":2865,"._":2866,"Ð¹":2867,"Ġlocal":2868,"Ġaccess":2869,"Ë·).":2870,"Ġíļ¨":2871,"Ġapplic":2872,"oh":2873,"ì¢ĭ":2874,"Ġstring":2875,"erence":2876,"Ġincluding":2877,"rm":2878,"ìĹĪìĬµëĭĪëĭ¤":2879,"Ġcreate":2880,"],":2881,"ĠThere":2882,"ED":2883,"ĠRe":2884,"($":2885,"ĠìķĦëĭĪëĿ¼":2886,"ĠìķĬëĬĶ":2887,"Ġimportant":2888,"Ġê·¸ëŀĺ":2889,"action":2890,"Ġfamily":2891,"ìĦ¼":2892,"Ġpay":2893,"Ġexperience":2894,"Ġíĸ¥":2895,"ĠëĦ¤":2896,"Ġë°Ŀ":2897,"Ġweek":2898,"ique":2899,"ium":2900,"Ġlight":2901,"ground":2902,"itions":2903,"ĠìĤ¼":2904,"Ġë§Įëĵ¤ìĸ´":2905,"An":2906,"Ë·~Ë·":2907,"order":2908,"/>":2909,"Ġterm":2910,"íĺĢ":2911,"ĠCol":2912,"ìŀĲê°Ģ":2913,"Ġê·Ģ":2914,"Ġë¸Į":2915,"ately":2916,"ĠFr":2917,"ì§Ģë¥¼":2918,"ÂłÂł":2919,"Ġë¿":2920,"Ġprovide":2921,"íį¼":2922,"rop":2923,"Ġfull":2924,"inter":2925,"ĠAll":2926,"ĠëĲĺìĸ´":2927,"ëĵ¤ëıĦ":2928,"Ġë¡ľ":2929,"Ġincre":2930,"cite":2931,"ĠìĻĢ":2932,"amb":2933,"ĠInd":2934,"tract":2935,"uf":2936,"ìµľ":2937,"Ġhealth":2938,"ĠìŀĪê³ł":2939,"ĠSo":2940,"ron":2941,"por":2942,"You":2943,"Ġwithin":2944,"íķĦ":2945,"ì¤Ħ":2946,"ves":2947,"Ġë²ł":2948,"Ġê´ĳ":2949,"RO":2950,"lation":2951,"Value":2952,"hes":2953,"Ġfriend":2954,"Ġì¶Ķì²ľ":2955,"nect":2956,"Ġu":2957,"gg":2958,"top":2959,"íļį":2960,"ically":2961,"AC":2962,"Ġtext":2963,"Ġsize":2964,"ler":2965,"){":2966,"Ġcert":2967,".,":2968,"Ġcost":2969,"Ġ?":2970,"Ġable":2971,"Ġnon":2972,"opy":2973,"struct":2974,";;":2975,"Ġrest":2976,"Ġë³µ":2977,"Ġê¸Ģ":2978,"item":2979,"ìŀ¥ìĿĦ":2980,"uck":2981,"ë´ī":2982,"ĳ¸":2983,"roid":2984,"utes":2985,"bf":2986,"Ġturn":2987,"Ġcond":2988,"oss":2989,"ãħľ":2990,"size":2991,"ĠìĹ¬ëŁ¬":2992,"ì°°":2993,"da":2994,"ëĿ¼ìĿ´":2995,"ability":2996,"search":2997,"ëĪĦ":2998,"ateg":2999,"ìĶ©":3000,"ĠÐ½":3001,"Ë·\">":3002,"ients":3003,"ift":3004,"ë¹ł":3005,"Ġgive":3006,"Ġë°©ë²ķ":3007,"Ġì£¼ë¬¸":3008,"Ġíķľë²Ī":3009,"Ġschool":3010,"iron":3011,"Ġnever":3012,"aster":3013,"Ġmanag":3014,"Ġgrow":3015,"ìģĺ":3016,"test":3017,"ission":3018,"Ġexpl":3019,"idd":3020,"rc":3021,"Ġpresent":3022,"Ġservices":3023,"Ġì¡":3024,"lob":3025,"['":3026,"Ġhard":3027,"íĥķ":3028,"Ġdev":3029,"Ġì§Ģê¸Ī":3030,"Ġê°ĻìĿ´":3031,"list":3032,"urs":3033,"\",\"":3034,"ĠíħĮ":3035,"Ġpower":3036,"ìĿ´ëĿ¼ëĬĶ":3037,"Ġpop":3038,"Ġë¨¹ê³ł":3039,"Ġëĳ":3040,"Ġspe":3041,"ï¼":3042,"Ġdesc":3043,"Ġes":3044,"ump":3045,"Ġë§ī":3046,"ĠIs":3047,"Ġleft":3048,"Ġdem":3049,"Ġcode":3050,"ê¸°ë¡ľ":3051,"Ñħ":3052,"bb":3053,"ë¹ĦìĬ¤":3054,"ëł¤ê³ł":3055,"íģ´":3056,"aff":3057,"ìĺĢëĭ¤":3058,"ina":3059,"ìº":3060,"Ġreport":3061,"ours":3062,"ìŀĲëĬĶ":3063,"Object":3064,"ë³´ê³ł":3065,"íĺ¼":3066,"ape":3067,"Ġ%":3068,"aces":3069,"ĠìĤ¬ëŀĳ":3070,"Ġsing":3071,"ì£¼ëĬĶ":3072,"ìļ±":3073,"ĠíĤ":3074,"Ġchange":3075,"itor":3076,"íķ´ìļĶ":3077,"Ġintern":3078,"ling":3079,"Ġder":3080,"Ġarea":3081,"itional":3082,"reg":3083,"Ġë¨¸":3084,"file":3085,"Ġfinal":3086,"ìŀ¥ìĿ´":3087,"Ġê²ĥìĿ´ëĭ¤":3088,"ĠìķĬê³ł":3089,"Ġchang":3090,"View":3091,"Ġspecial":3092,"Ġì²ĺìĿĮ":3093,"ĠAmeric":3094,"ìķĮ":3095,"Ġsit":3096,"Ġgot":3097,"js":3098,"ci":3099,"cle":3100,"ĠìĤ¬ìĿ´":3101,"Ġëª¨ëĵł":3102,"ĠíĶĮ":3103,"ê·¹":3104,"Ġ||":3105,"rror":3106,"ration":3107,"íĻķ":3108,"ëħĲ":3109,"Ġìļ©":3110,"Ġì°¾ìķĦ":3111,"Ġroom":3112,"Ġì§Ħì§ľ":3113,"ds":3114,"rist":3115,"ply":3116,"Ġìłĳ":3117,"oney":3118,"Ġëľ":3119,"Ġask":3120,"Set":3121,"Ġexp":3122,"ì§Ŀ":3123,",Ë·":3124,"ë³´ëĭĪ":3125,"Ġless":3126,"ively":3127,"Ġíģ´":3128,"ocus":3129,"Ġlot":3130,"Ġgroup":3131,"ìĹĦ":3132,"ĠìľĦíķľ":3133,"ì¼ľ":3134,"Ĳëĭ¤":3135,"Ġbig":3136,"ĠCl":3137,"ìĤ¼":3138,"ì²ł":3139,"Ġmov":3140,"¨ìĸ´":3141,"net":3142,"Ġuser":3143,"ĠìłĪ":3144,"íĮ¨":3145,"ìľ¼ë©°":3146,"Ġìķ¼":3147,"Ġì´Ŀ":3148,"Ġìŀł":3149,"FF":3150,"Ġsw":3151,"ET":3152,"ards":3153,"ĠRes":3154,"ĠíķŃ":3155,"Ġstyle":3156,"Ġlog":3157,"ÐµÑĢ":3158,"Ġì¤ĳìļĶ":3159,"ìĨĲ":3160,"Ġmus":3161,"Ġì²ľ":3162,"ë¦Ń":3163,"ëĵ¤ìĹĲê²Į":3164,"ending":3165,"ription":3166,"Ġmult":3167,"Ġeng":3168,"Ġëĥ":3169,"'m":3170,"user":3171,"ĠÂ":3172,"ĠëĲĺëĬĶ":3173,"aterial":3174,"ìķĪëħķ":3175,"ĠìĿ´ìķ¼":3176,"Ġì§Ī":3177,"ane":3178,"ë´¤":3179,"·°":3180,"ĠìĦľìļ¸":3181,"Ġmodel":3182,"Ġê¼Ń":3183,"ĠOr":3184,"nb":3185,"Ġë³Ħ":3186,"ctor":3187,"util":3188,"ĠTo":3189,"Ġì°½":3190,"Ġcontent":3191,"naver":3192,"âĢľ":3193,"ĠëĤ´ê°Ģ":3194,"ê³¨":3195,"ister":3196,"ĠëĮĢíķ´":3197,"Im":3198,"Ġtyp":3199,"ì°¸":3200,"ĠëĤľ":3201,"Ġíĭ":3202,"Ġë¨¹ìĸ´":3203,"íĤ¨":3204,"Get":3205,"íĥĦ":3206,"ĠìĤ¬ìĭ¤":3207,"CO":3208,"Par":3209,"ê·¸ëŀĺìĦľ":3210,"ë´Ĳ":3211,"Ġì¹ľêµ¬":3212,"ĠOn":3213,"Ġgiven":3214,"Ġbeh":3215,"ĠìķĦëĭĮ":3216,"ìłķëıĦ":3217,"Ġonline":3218,"unc":3219,"Ġfollowing":3220,"Ġ&&":3221,"Ġworking":3222,"ëĶ©":3223,"ised":3224,"Ġpage":3225,"Ġ!=":3226,"ìŀĲìĿ¸":3227,"Ġstatic":3228,"Ġappe":3229,"ëłĮ":3230,"Ġinc":3231,"ently":3232,"ìĿ´ê°Ģ":3233,"Ġë°©ë¬¸":3234,"ĠString":3235,"Ġëĭ¤ìĿĮ":3236,"Ġlarge":3237,"ries":3238,"Ġphot":3239,"icle":3240,"url":3241,"af":3242,"Ġê·¸ëĥ¥":3243,"Ġexample":3244,"ES":3245,"']":3246,"ĠëĬĺ":3247,"ìĿ´ìĹĲìļĶ":3248,"Ġwebs":3249,"Ð±":3250,"ëıĮ":3251,"ention":3252,"Mod":3253,"ĠìĿ´ë²Ī":3254,"ĠBe":3255,"íħĶ":3256,"Ġdays":3257,"='":3258,"ĠSp":3259,"vious":3260,"Ë·(":3261,"By":3262,"ìĿ´ìĸ´":3263,"Ġaff":3264,"ĠPh":3265,"Ġë²ķ":3266,"ĠìłĦë¬¸":3267,"Ġíĺķ":3268,"Ġpossible":3269,"ination":3270,"resent":3271,"ION":3272,"Ġlim":3273,"ìĤ¬ì§Ħ":3274,"aps":3275,"includ":3276,"Ġsuccess":3277,"Ġëª¨ë¥´":3278,"ived":3279,"ìĹĪëįĺ":3280,"ëĨĵ":3281,"ready":3282,"side":3283,"ux":3284,"lish":3285,"ÐµÐ½":3286,"iving":3287,"box":3288,"ĠBl":3289,"));":3290,"Ġinvest":3291,"width":3292,"Ġrequest":3293,"ì·¨":3294,"Ġnet":3295,"ìĺģìĥģ":3296,"íĬ¼":3297,"ocial":3298,"lement":3299,"().":3300,"itive":3301,"outh":3302,"Ġê´Ģëł¨":3303,"duct":3304,"êµ´":3305,"íĸĪëįĺ":3306,"Sh":3307,"Ġsite":3308,"ìĹĨìĿ´":3309,"ably":3310,"Ð³":3311,"Ġexc":3312,"ìĹ¼":3313,"Un":3314,"word":3315,"ê·ľ":3316,"ĠSc":3317,"ä¸":3318,"ouble":3319,"ĠìĿ´ìľł":3320,"ĠíĶ¼ë¶Ģ":3321,"ĠëĨĢ":3322,"Ġarg":3323,"Ġbro":3324,"!!!!":3325,"Ġrequire":3326,"Ġprot":3327,"âĺ":3328,"ìĦ±ìĿ´":3329,"ĠëĲ©ëĭĪëĭ¤":3330,"AP":3331,"umer":3332,"ê¾¸":3333,"âĻ":3334,"ivity":3335,"Ġëª¸":3336,"'re":3337,"ë°Ģ":3338,"Ġben":3339,"Ġleg":3340,"ìŀ¥ìĿĢ":3341,"ĠìĶ":3342,"Ġunderstand":3343,"ĠíĬ¸":3344,"ĠíĤ¤":3345,"Ġíĥľ":3346,"Ġjob":3347,"ëĲł":3348,"ien":3349,"ìłľê°Ģ":3350,"ëŀľëĵľ":3351,"Ġì£":3352,"joy":3353,"Ġsal":3354,"Ġuntil":3355,"ially":3356,"Ã¶":3357,"ìķĪëħķíķĺìĦ¸ìļĶ":3358,"ieve":3359,"dis":3360,"ìŁ":3361,"Ġgame":3362,"OT":3363,"ìĹĲìĦľëıĦ":3364,"ëĵ¤ê³¼":3365,"ĠAd":3366,"Ġê´":3367,"ê³¡":3368,"Ġëıħ":3369,"ì¶©":3370,"ëĦĪë¬´":3371,"íĥģ":3372,"Ġaway":3373,"ì§ķ":3374,"ãħĭãħĭãħĭãħĭãħĭãħĭãħĭãħĭ":3375,"Ġë¯¼":3376,"Ġíķ©":3377,"ĠíĮ¨":3378,"ì§ĢëıĦ":3379,"Ġbas":3380,"íħľ":3381,"Ġì¼":3382,"Ġëĭ¤ìĸĳíķľ":3383,"Exception":3384,"ë¶ĦìĿ´":3385,"Ë·>":3386,"Ġquality":3387,"fect":3388,"Ë·</":3389,"tra":3390,"Ġbased":3391,"Ã¼":3392,"viron":3393,"ĠLe":3394,"anag":3395,"Ġflo":3396,"ë¿":3397,"ìī¬":3398,"ĠWhen":3399,"Ġhist":3400,"Ġlooking":3401,"ê²łëĭ¤":3402,"++":3403,"Ġtable":3404,"ê²Ģ":3405,"ume":3406,"ories":3407,"Ġpract":3408,"iversity":3409,"ë²Į":3410,"pha":3411,"irt":3412,"ai":3413,"Ġprom":3414,"ë¡ľìļ´":3415,"index":3416,"ĠÐ¸":3417,"ë¡Ģ":3418,"aper":3419,"})":3420,"ĠìľĦì¹ĺ":3421,"ÑĨ":3422,"ĠìķĦì£¼":3423,"Ġstruct":3424,"Ġque":3425,"ury":3426,"erc":3427,"\";":3428,"ĠUS":3429,"ither":3430,"ëŀ¨":3431,"ìļĶìĿ¼":3432,"Ġalong":3433,"ped":3434,"IS":3435,"Ġchildren":3436,"Ġerror":3437,"public":3438,"Ġcolor":3439,"Ġbreak":3440,"ĠÐ¾":3441,"ĠĠĠĠĊ":3442,"¨¼ìłĢ":3443,"Ġmaking":3444,"Ġìĥī":3445,"Ġinit":3446,"ĠBr":3447,"Ġmeet":3448,"ird":3449,"room":3450,"ogle":3451,"ìĿ´ë²Ī":3452,"ìłķìĿĦ":3453,"ĠëıĮìķĦ":3454,"pi":3455,"Ġê³¨":3456,"º¼":3457,"Ġproblem":3458,"ìĬ¤íģ¬":3459,"enu":3460,"Ġcreat":3461,"ìģľ":3462,"ĠìĥģíĻ©":3463,"ëĲĺê³ł":3464,"ìľ¼ëĭĪ":3465,"atures":3466,"Ġwhe":3467,"iter":3468,"ches":3469,"ured":3470,"Ġê·¸ëŁ¬":3471,"Ġíķĺì§Ģë§Į":3472,"Ġìĸ´ëĸ¤":3473,"mathcal":3474,"equation":3475,"ìĿ¸ì§Ģ":3476,"Ġbeg":3477,"Ġêµ¬ë§¤":3478,"Ġ^^":3479,"ëĲľëĭ¤":3480,"Ġorig":3481,"ables":3482,"nbsp":3483,"Ġfood":3484,"Ġwrit":3485,"Ġocc":3486,"$.":3487,"color":3488,"Ġ///":3489,"Ġstep":3490,"aint":3491,"iles":3492,"Ġì§ģìłĳ":3493,"ĠëĤ´ìļ©":3494,"ended":3495,"íĸĪìĬµëĭĪëĭ¤":3496,"AS":3497,"UT":3498,"Ġcourse":3499,"Ġret":3500,"On":3501,"»ê²Į":3502,"Ġtitle":3503,"ĠëĶ±":3504,"Ġrecord":3505,"ĠíĹĪ":3506,"Ġresults":3507,"ĠìĿĮìĭĿ":3508,"Ġë°±":3509,"Ġside":3510,"ĠëŃĲ":3511,"Ġcalled":3512,"ëŀįëĭĪëĭ¤":3513,"Ġneeds":3514,"Ġspecific":3515,"off":3516,"ideo":3517,"íķĻêµĲ":3518,"Ġair":3519,"Ġdone":3520,"Ġspace":3521,"ĠìĨĮê°ľ":3522,"Ġagainst":3523,"Al":3524,"Ġ/**":3525,"ìĬ¤íĮħ":3526,"script":3527,"Ġann":3528,"ension":3529,"Ġimpro":3530,"Ġtimes":3531,"ì°®":3532,"book":3533,"orth":3534,"Ġlaw":3535,"}.":3536,"iver":3537,"_{Ë·":3538,"Ġaccount":3539,"Ġparam":3540,"Ġmove":3541,"ĠìĦ¤ëªħ":3542,"stru":3543,"ĠGr":3544,"ìļ°ë¦¬":3545,"ze":3546,"Ġoffer":3547,"Ġíķĺë£¨":3548,"Ġì¹´íİĺ":3549,"ë²¤":3550,"ĠìĹĨìĿ´":3551,"ĩ¼":3552,"Ġìĺ¬ëĿ¼":3553,"Ġcontrol":3554,"but":3555,"ands":3556,"Ġvisit":3557,"``":3558,"Ġtoday":3559,"ĠPr":3560,"Ġê³ĦìĨį":3561,"íķ´ë³´":3562,"Ġë³´ìĹ¬":3563,"ĠíĽ":3564,"ë²½":3565,"Ġthought":3566,"(),":3567,"Ġpack":3568,"Ġhouse":3569,"ê¹ĮìļĶ":3570,"Ġhum":3571,"Ġbody":3572,"urity":3573,"path":3574,"UR":3575,"Ġdri":3576,"Ġident":3577,"Ġport":3578,"ĠìĿ½":3579,"ìĿ¸ìĿ´":3580,"With":3581,"Ġalready":3582,"Error":3583,"Ind":3584,"lete":3585,"gether":3586,"ances":3587,"ìĽł":3588,"ources":3589,"Ġtogether":3590,"');":3591,"ìħĶìĦľ":3592,"Test":3593,"ê·¸ëŁ¬":3594,"idual":3595,"const":3596,"Ġìī½":3597,"Ġsec":3598,"Ġinclude":3599,"ĠìĹĦì²Ń":3600,"ëĭ¥":3601,"Ġfour":3602,"ëł¥ìĿĦ":3603,"ëįĶëĭĪ":3604,"Ġkind":3605,"Ġcal":3606,"wh":3607,"Ġanal":3608,"Ġê°ĸ":3609,"Ġ},":3610,"ìŁģ":3611,"Ġpot":3612,"ored":3613,"Ġì§ĢìĹŃ":3614,"Ġproducts":3615,"Ġrange":3616,"ained":3617,"ìłĦìĹĲ":3618,"Ġfac":3619,"Ġwhy":3620,"cm":3621,"oin":3622,"AD":3623,"Ġì¶Ķê°Ģ":3624,"Ġshort":3625,"omen":3626,"table":3627,"ĠWith":3628,"Ġíķ´ìĦľ":3629,"?\"":3630,"Ġoften":3631,"####":3632,"Ġë©´":3633,"Ġëªĩ":3634,"ìĬ¤ë¥¼":3635,"uration":3636,"bt":3637,"íĮĮíĬ¸":3638,"Ġlearn":3639,"Ġinstall":3640,"acter":3641,"Ġëĵ¤ìĸ´ê°Ģ":3642,"my":3643,"ĠìĹ¬íĸī":3644,"Ġsoft":3645,"ìĹħìĿĦ":3646,"ĠìŀĪëĬĶëį°":3647,"ìĿ´ë²Ħ":3648,"He":3649,"Ð¾ÑĢ":3650,"ley":3651,"ìį¨":3652,"ëĤ¬":3653,"And":3654,"Ð¾Ð´":3655,"part":3656,"ì§Ģë§ī":3657,"But":3658,"aring":3659,"ĠComm":3660,"Ġselect":3661,"];":3662,"Ġworks":3663,"Ġeasy":3664,"Ġconsider":3665,"no":3666,"ids":3667,"ë§Īëĭ¤":3668,"ìĥģìĿĦ":3669,"#Ë·":3670,"link":3671,"Ġë©Ķëī´":3672,"Ġprint":3673,"Ġgl":3674,"ìĦ±ìĿĦ":3675,"ìĦľìļ¸":3676,"Ġabove":3677,"Ġstudents":3678,"ĠÐº":3679,"ĠNo":3680,"Ġhaving":3681,"uro":3682,"Ġëĸł":3683,"lobal":3684,"Text":3685,"ends":3686,"Ġê±´ê°ķ":3687,"ummary":3688,"Ġstre":3689,"Ġindust":3690,"Ġpast":3691,"Ġmoney":3692,"Ġìĥģíĥľ":3693,"ides":3694,"init":3695,"Ġë³´ë©´":3696,"ribute":3697,"ë²Ķ":3698,"mm":3699,"ĠâĢĶ":3700,"angu":3701,"Ġenc":3702,"Ġgover":3703,"ë¦¬ìĹĲ":3704,"Ġlow":3705,"ĠìķĮëł¤":3706,"ills":3707,"ëįĶëĿ¼ê³łìļĶ":3708,"Ġmeans":3709,"ê·ł":3710,"void":3711,"ìłĢëĬĶ":3712,"Ġenjoy":3713,"Ġwebsite":3714,"Ġìµľê³ł":3715,"Ġvol":3716,"Ġpo":3717,"ĠAt":3718,"illion":3719,"());":3720,"Ġbit":3721,"Ġelect":3722,"ĠëĨĵ":3723,"ê½ĥ":3724,"ĠMar":3725,"ĠThat":3726,"ĠíĦ":3727,"ns":3728,"$,":3729,"ĠìķĮìķĦ":3730,"Ġ...":3731,"ĠìĿ´ìłľ":3732,"utions":3733,"Ë·âĢĵ":3734,"Ġindiv":3735,"ification":3736,"ì¿ł":3737,"ĠìĹŃìĭľ":3738,"Ġfore":3739,"Ġtrad":3740,"ëĶ°":3741,"Ġmean":3742,"Class":3743,"field":3744,"ë·°":3745,"ëįķ":3746,"Ð°Ð½":3747,"ìĿĳ":3748,"íĸĪìĸ´ìļĶ":3749,"Ġemploy":3750,"HE":3751,"ìĿ´ëłĩê²Į":3752,"vironment":3753,"ì°Į":3754,"Ġë¯¸êµŃ":3755,"Ġê¹Ķ":3756,"Add":3757,"ë¦¬ìĸ´":3758,"ëĿ¼ìĿ¸":3759,"length":3760,"=\\":3761,"****************":3762,"Ġbuy":3763,"Ġhold":3764,"'ve":3765,"ising":3766,"Ġì§ĢìĽĲ":3767,"Ġëĵ¯":3768,"ĠëıĪ":3769,"ulation":3770,"Ġcomplet":3771,"ĠìĿĢ":3772,"ĠëĮĢíĳľ":3773,"Ġthing":3774,"ë¦¬ìĬ¤":3775,"ĠìĻľ":3776,"--------------------------------":3777,"ê·Ģ":3778,"Ġorg":3779,"Ġca":3780,"Requ":3781,"ë¥ł":3782,"uture":3783,"Ġaddress":3784,"Ġfun":3785,"Ġsever":3786,"IM":3787,"ĠìĿ´ìĸ´":3788,"Ġì²«":3789,"Ġëĳĺ":3790,"ĠìĿ´íĽĦ":3791,"Ġprofession":3792,"ìĬ¬":3793,"ĠìĿ´ë¯¸":3794,"translation":3795,"ĠChrist":3796,"ĠEng":3797,"sm":3798,"IG":3799,"Ġfar":3800,"ping":3801,"ĠìķĬìĿĢ":3802,"Int":3803,"\"></":3804,"Ġê·ľ":3805,"Ġìłķë³´":3806,"ĠWhat":3807,"Ġë§Ľì§ĳ":3808,"/*":3809,"Ġenough":3810,"alpha":3811,"Ġtot":3812,"arning":3813,"ë§İ":3814,"body":3815,"ules":3816,"All":3817,"Ġìłľê°Ģ":3818,"ìŀ¡":3819,"itch":3820,"íĻĶë¥¼":3821,"Ġbelow":3822,"aim":3823,"Ġproperty":3824,"Ġmaterial":3825,"Ë·âĢĵË·":3826,"ë§Ľì§ĳ":3827,"Ġãħłãħł":3828,"File":3829,"ilt":3830,"ê°ĻìĿĢ":3831,"ene":3832,"ĠëĲľëĭ¤":3833,"íĥĪ":3834,"Se":3835,"alf":3836,"Time":3837,"Key":3838,"ìĬ¤ëŁ¬":3839,"ëĤĺìļĶ":3840,"Ġclos":3841,"Ġíľ´":3842,"pert":3843,"ĠMy":3844,"ë¶Ģë¶Ħ":3845,"ëĪĪ":3846,"Ġparticular":3847,"Ġnight":3848,"ips":3849,"ĠìĹĨëĭ¤":3850,"Ġë²Į":3851,"'ll":3852,"plement":3853,"fort":3854,"acy":3855,"ë¦½ëĭĪëĭ¤":3856,"resh":3857,"icy":3858,"Ð¾Ð¼":3859,"Ġtarget":3860,"pm":3861,"Ġcertain":3862,"ibr":3863,"ì§Ģê°Ģ":3864,"Ġtreat":3865,"íĴį":3866,"ples":3867,"ĠíĴį":3868,"AB":3869,"Ð¾Ð»":3870,"Re":3871,"ĠCent":3872,"ëıĻìķĪ":3873,"íİ´":3874,"apt":3875,"urther":3876,"lay":3877,"iod":3878,"ìĹĩ":3879,"Ġíķ´ìķ¼":3880,"Ġê¸°ëĮĢ":3881,"En":3882,"ìĸ´ëĤĺ":3883,"icro":3884,"section":3885,"Ġëª°":3886,"ĠSystem":3887,"Ġë°ľìĥĿ":3888,"ograph":3889,"ĠTe":3890,"Qu":3891,"Ġë¨¹ìĿĦ":3892,"ĠëĤĺëĬĶ":3893,"Ð°Ð»":3894,"sk":3895,"ING":3896,"Ġpath":3897,"Ġmar":3898,"Ġhttp":3899,"ponse":3900,"input":3901,"ĠCan":3902,"pack":3903,"Ġë§ĲíĸĪëĭ¤":3904,"Ġìłľê³µ":3905,"ĠÐ´":3906,"ì¹´íİĺ":3907,"Ġseveral":3908,"Ġoptions":3909,"Ġbecome":3910,"ìĪĺê°Ģ":3911,"Ġê¿":3912,"ĠĠĠĠĠĠĠĠĠĠĠĠĠĠĠĠĠĠĠĠĠĠĠĠĠĠĠ":3913,"Ġversion":3914,"bol":3915,"ìĻĦ":3916,"ica":3917,"Ġfocus":3918,"PE":3919,"Ġíļ¨ê³¼":3920,"ajor":3921,"ij":3922,"ìĭ¶":3923,"~\\":3924,"Ġbeaut":3925,"ĠíĮĲë§¤":3926,"Ġindividual":3927,"ìŀĶ":3928,"Ġmom":3929,"Ġtell":3930,"\\\\":3931,"Ġener":3932,"uit":3933,"Ġcontact":3934,"ëħģ":3935,"ĠìķĬìķĺ":3936,"ìłķìĿ´":3937,"inc":3938,"Ġëĵ±ìĿĦ":3939,"What":3940,"une":3941,"Ġmakes":3942,"Sc":3943,"Ġcomb":3944,"Ġonce":3945,"mp":3946,"ĠGod":3947,"ëĵľëĬĶ":3948,"plate":3949,"Ġlik":3950,"Ġì§ĢëĤĺ":3951,"ëı¼":3952,"........":3953,"Ġgovern":3954,"align":3955,"Ġdidn":3956,"Ġsingle":3957,"ÑģÐº":3958,"Ġê¹¨":3959,"icon":3960,"isk":3961,"ottom":3962,"ĠìķĦë¬´":3963,"ìŀĪëĭ¤":3964,"do":3965,"ìŀĲìĿĺ":3966,"Ë·',":3967,"arr":3968,"Ġë³ĳ":3969,"Ġimage":3970,"Ġleast":3971,"Ġtool":3972,"ULL":3973,"Ġê²°ê³¼":3974,"Ġrequired":3975,"Ġredu":3976,"Ġê´Ģê³Ħ":3977,"ĉĉĉĉĉ":3978,"era":3979,"ording":3980,"Ġposition":3981,"ike":3982,"Ġê³µê°Ħ":3983,"ports":3984,"Ġstop":3985,"':":3986,"elta":3987,"Ġconc":3988,"pace":3989,"Ġtre":3990,"Ġpersonal":3991,"Ġacross":3992,"place":3993,"avel":3994,"array":3995,"Ġperfect":3996,"Ġëķ":3997,"ãĥ»":3998,"Ġíĺ¼":3999,"ìĤ¬ê°Ģ":4000,"Ġresearch":4001,"ĠUniversity":4002,"ional":4003,",\\":4004,"Ġmind":4005,"Ġhig":4006,"ambda":4007,"Ġìħ":4008,"Wh":4009,"most":4010,"Ë·_Ë·":4011,"ìķĶ":4012,"kr":4013,"Ġthrow":4014,"Ġey":4015,"Ġothers":4016,"ĠìĹ¬ê¸°":4017,"ada":4018,"};":4019,"ĠíĴĢ":4020,"ìĥģìĿ´":4021,"ormal":4022,"ney":4023,"ĠíĻį":4024,"ìĽĥ":4025,"UN":4026,"ags":4027,"Ġê´ľ":4028,"Ġë³´ëĤ´":4029,"Ġìĸ´ëĸ»ê²Į":4030,"ìĿ´íģ¬":4031,"ìŀĲë¥¼":4032,"Is":4033,"Ġê½ĥ":4034,"ternal":4035,"ĠInst":4036,"IP":4037,"oad":4038,"Ġens":4039,"ë§ĮìĹĲ":4040,"ëŃ":4041,"ĠÐ½Ð°":4042,"ino":4043,"ĠThese":4044,"Ġever":4045,"íķĺëĤĺ":4046,"Ġcommunity":4047,"ëĦĲ":4048,"^{\\":4049,"ones":4050,"conom":4051,"Ġexist":4052,"Ġìĸ¼ë§Ī":4053,"anks":4054,"Ġsearch":4055,"ui":4056,"ìĪĻ":4057,"Ġquick":4058,"Ġsocial":4059,"Ġë°ĽìķĦ":4060,"ĠìĻĶ":4061,"ibility":4062,"Ġmembers":4063,"Ġstat":4064,"Ġthough":4065,"Ġbenef":4066,"ls":4067,"rect":4068,"blog":4069,"Ġë¹¨":4070,"ëĭĺìĿ´":4071,"now":4072,"Ġë¶Ļ":4073,"Ġprob":4074,"ĠìŀĪëĭ¤ëĬĶ":4075,"epend":4076,"light":4077,"ged":4078,"Ġland":4079,"Ð¾Ð³":4080,"ìĺĪìļĶ":4081,"Ģë¡ľ":4082,"íļ¨":4083,"ĠíĺĦìŀ¬":4084,"ê°ĳ":4085,"Ġarray":4086,"Ġver":4087,"Ġmax":4088,"Ġë¶ģ":4089,"Ġgetting":4090,"ĠìĪĺëıĦ":4091,"ĠìĽĶ":4092,"wards":4093,"TR":4094,"íķĺìĭľ":4095,"lin":4096,"ì§ĢìļĶ":4097,"At":4098,"Ġclean":4099,"ĠIN":4100,"íĸĪëĬĶëį°":4101,"ë§ĪíĬ¸":4102,"indows":4103,">Ë·":4104,"ìĹŃìĭľ":4105,"ament":4106,"Ġdoesn":4107,"Ë·],":4108,"ĠíĮĶ":4109,"ohn":4110,"ĠAss":4111,"Ġê½":4112,"portun":4113,"Ġmeas":4114,"Ġreason":4115,"ĠëıĻìĺģìĥģ":4116,"Ġì£½":4117,"inst":4118,"Ġmag":4119,"Ġdevelopment":4120,"ìĭŃ":4121,"Or":4122,"ìļķ":4123,"ĸìĹĲ":4124,"ĠCont":4125,"Ġíı¬ìĬ¤íĮħ":4126,"Ġì¤ĳêµŃ":4127,"Ġdoing":4128,"ĠìĦ¸ê³Ħ":4129,"Ġrepresent":4130,"Ġê³łë¯¼":4131,"TE":4132,"ìķĬ":4133,"from":4134,"verage":4135,"nection":4136,"ĠìĦľë¹ĦìĬ¤":4137,"ĠEn":4138,"Ġíķĺë©´":4139,"ĠDo":4140,"ĠëĤĺíĥĢ":4141,"rite":4142,"Ġhot":4143,"bre":4144,"oken":4145,"Ġë¨¹ëĬĶ":4146,"Event":4147,"Ġcomes":4148,"ë§Įíģ¼":4149,"ìłķë§Ĳ":4150,"LO":4151,"ĠìĬ¤íĥĢ":4152,"ĠHowever":4153,"Ġìļ´ëıĻ":4154,"ëĵ¤ìĸ´":4155,"irc":4156,"ê»´":4157,"Ġsimple":4158,"ëł¥ìĿ´":4159,"ĠCar":4160,"Ġì¢ĭìķĺ":4161,"ĠìŀĪìĹĪëĭ¤":4162,"ĠìĤ¬ìĹħ":4163,"Ġê°Ģì§Ģê³ł":4164,"ì£¼ê³ł":4165,"íĺĳ":4166,"pty":4167,"raft":4168,"ĠëįĶìļ±":4169,"Ġë³´ëĭĪ":4170,"_\\":4171,"Ġë°Ŀíĺ":4172,"Ġstrong":4173,"Ġcur":4174,"&&":4175,"ìĻķ":4176,"ãħĭãħĭãħĭ":4177,"Ġden":4178,"Ġcomput":4179,"define":4180,"Ġ);":4181,"Ġìļ¸":4182,"íĹĪ":4183,"ado":4184,"Ġê¸ī":4185,"Ġparent":4186,"Ġlater":4187,"íķĺìĭľëĬĶ":4188,"Ġcountry":4189,"aken":4190,"Ġwin":4191,"Ġãĥ»":4192,"ìķĻ":4193,"where":4194,"[]":4195,"Ġê²ĥëıĦ":4196,"Ġvalues":4197,"Ġknown":4198,"Ġreview":4199,"Ġëĸ¨ìĸ´":4200,"Ġeither":4201,"Ġfav":4202,"Ġ/>":4203,"ì©":4204,"ĠìĺģíĻĶ":4205,"Ġë°¥":4206,"ìĿ´ëŀĳ":4207,"Ġ/*":4208,"ë¡ľëĤĺ":4209,"Ġprice":4210,"Ġfund":4211,"íħĲ":4212,"ĠìĦ¤ì¹ĺ":4213,"iful":4214,"cd":4215,"ìĬ¨":4216,"ĠAp":4217,"ÑĪ":4218,"ìĿ´ìĬ¤":4219,"nav":4220,"Ġtalk":4221,"pose":4222,"chen":4223,"Ġâĸ":4224,"eters":4225,"īìŀ¥":4226,"ĩ´":4227,"ìķŀ":4228,"Request":4229,"íĶĪ":4230,"Ġcame":4231,"Ġbegin":4232,"Ġprotect":4233,"Ġìĸ´ëł¤":4234,"ë³´ê¸°":4235,"Ġmajor":4236,"group":4237,"Ġê¸°ìĹħ":4238,"pression":4239,"Ġstudy":4240,"ê¿":4241,"ÑĢÐµ":4242,"Ref":4243,"olution":4244,"ĠChe":4245,"ìļĶì¦ĺ":4246,"pen":4247,"ĠìĿ¼ë³¸":4248,"ìĽĲìĿ´":4249,"anguage":4250,"ìĭĿìĿĦ":4251,"uments":4252,"orld":4253,"Ġdie":4254,"}{":4255,"ster":4256,"Ġsat":4257,"Ġdat":4258,"Ġmusic":4259,"ëł´":4260,"Ġê¸°ëĭ¤":4261,"Ġopportun":4262,"Ġê¶ģ":4263,"Ġdefault":4264,"Ġë°Ģ":4265,"Ġinteg":4266,"Ġsource":4267,"lished":4268,"Ġdeal":4269,"map":4270,"ĠOur":4271,"ĠìĿ´ë¦Ħ":4272,"ìĿ¸ê°Ģ":4273,"ailed":4274,"irm":4275,"ìĵ°":4276,"Ġconnect":4277,"Ġfuture":4278,"Ġnat":4279,"md":4280,"Ġsuper":4281,"Ġdiscuss":4282,"Ġcity":4283,"Ġconfig":4284,"ators":4285,"Ġinput":4286,"ì£¼ìĦ¸ìļĶ":4287,"State":4288,"met":4289,"íľ´":4290,"Ġlive":4291,"Ġê³Ħíļį":4292,":\"":4293,"ĠìĹĦë§Ī":4294,"Ġ:)":4295,"la":4296,"Ġmot":4297,"Ġdue":4298,"Ġdocument":4299,"íķĺëĭĪ":4300,"Ġë¨¼ìłĢ":4301,"ëį¸":4302,"Ġeduc":4303,"osp":4304,"ìĭ±":4305,"Ġê³łê°Ŀ":4306,"perties":4307,"ãĦ":4308,"ê²ĥëıĦ":4309,"US":4310,"Ġì²ł":4311,".</":4312,"Ġactually":4313,"Ġenergy":4314,"Ġinvol":4315,"Ġpub":4316,"oud":4317,"error":4318,"ĠìŀĪëĭ¤ê³ł":4319,"Ġ#Ë·":4320,"Ġcell":4321,"gress":4322,"Ġansw":4323,"Ġlay":4324,"================":4325,"amma":4326,"Ġë¶ĦìľĦ":4327,"ĠìķĦì§ģ":4328,"Ġbase":4329,"ê±°ë¦¬":4330,"Ġweb":4331,"Ġred":4332,"mit":4333,"Ġê¶Į":4334,"print":4335,"íĬ¸ë¥¼":4336,"Ġcut":4337,"Ġê°ľìĿ¸":4338,"ìĭľìĹĲ":4339,"atter":4340,"Ġstarted":4341,",âĢĿ":4342,"Element":4343,"How":4344,"Ġì¡´":4345,"ĠMay":4346,"Info":4347,"AG":4348,"ì°į":4349,"When":4350,"Ġíĸīë³µ":4351,"comp":4352,"ìĺ¤ëĬĺìĿĢ":4353,"ony":4354,"There":4355,"Ġê¸°ë³¸":4356,"Ġìļ´ìĺģ":4357,"Ġì°©":4358,"ilar":4359,"mber":4360,"Ġant":4361,"Path":4362,"ìŀ¥ìĹĲ":4363,"Ġ__":4364,"}(":4365,"Ñİ":4366,"Node":4367,"Ã¨":4368,"Not":4369,"Ġpri":4370,"cher":4371,"ë¬¼ìĿ´":4372,"íķĺëĬĶëį°":4373,"Ġapplication":4374,"Ġê¾¸":4375,"Ġamount":4376,"Def":4377,"ì§Ĳ":4378,"ison":4379,"imate":4380,"Ġwhether":4381,"Of":4382,"Ġtook":4383,"íĳ¸":4384,"Ġfeatures":4385,"oon":4386,"include":4387,"Ġë³´ìĿ´":4388,"Ġcompan":4389,"ë°Ķë¡ľ":4390,"Ġdisplay":4391,"iple":4392,"ë¥´ê²Į":4393,"ĠëĶĶìŀĲìĿ¸":4394,"~~~":4395,"ĠíıŃ":4396,"urch":4397,"Ġyet":4398,"ams":4399,"Ġquestion":4400,"enn":4401,"Ġaction":4402,"Ġbed":4403,"ĠëĤĺìĺ¨":4404,"ĠPar":4405,"Config":4406,"Ġwalk":4407,"ĠGo":4408,"ê·¸ëŁ°":4409,"Ġ**":4410,"ëĬĶì§Ģ":4411,"uation":4412,"ĠêµĲìľ¡":4413,"Ġmessage":4414,"ë¡Ń":4415,"ì¹ł":4416,"ĠëĤ®":4417,"imal":4418,"Ġë§ĮëĤĺ":4419,"ĠGet":4420,"ìłľë¡ľ":4421,"config":4422,"ued":4423,"ĠCo":4424,"ë»":4425,"Ġê°ĲìĤ¬":4426,"Ġlarg":4427,"mu":4428,"Ġminutes":4429,"Įĵ":4430,"ìĹ¬íĸī":4431,"title":4432,"CH":4433,"OM":4434,"ìĿ´ìłľ":4435,"ëıĪ":4436,"Ġimp":4437,"ëĭĿ":4438,"ê³łê¸°":4439,"Ġshare":4440,"Ġrele":4441,"%Ë·":4442,"summary":4443,"ì§Ģê¸Ī":4444,"illed":4445,"Context":4446,"ync":4447,"sl":4448,"mat":4449,"ĠëĺĲíķľ":4450,"ymbol":4451,"Ġstory":4452,"((":4453,"php":4454,"prot":4455,"Ġì¸":4456,"Ġpie":4457,"Ġíĺĳ":4458,"bit":4459,"Ġoffic":4460,"serv":4461,"ender":4462,"null":4463,"Ġhours":4464,"ĠìĤ¬ëŀĮìĿ´":4465,"Ġwon":4466,"unch":4467,"ĠíĪ¬ìŀĲ":4468,"ìĬ¤ë¡ľ":4469,"ë¬¼ìĿĦ":4470,"ìĸµìĽĲ":4471,"ì´Ŀ":4472,"Ġëĭ¤ëħĢ":4473,"Ġê°Ļëĭ¤":4474,"elt":4475,"Form":4476,"Index":4477,"py":4478,"ogn":4479,"Ġcommon":4480,"point":4481,"ìĬ¤ëŁ½":4482,"êµ¬ëĤĺ":4483,"Ġê¸°ìĸµ":4484,"Ġcompet":4485,"Ġ\\\\":4486,"ì¡Įëĭ¤":4487,"Ġê°Ģì¡±":4488,"imum":4489,"Ġbring":4490,"Ġyoung":4491,"count":4492,"ìŀĺ":4493,"Ġlink":4494,"Ġenvironment":4495,"ê±°ëĵł":4496,"Ġperiod":4497,"ìĤ¬ëŀĮ":4498,"())":4499,"Ġoption":4500,"ho":4501,"////////":4502,"odes":4503,"uary":4504,"Item":4505,"rs":4506,"content":4507,"ilities":4508,"ÐµÐ»":4509,"Ġìĭ¶ìĿĢ":4510,"struction":4511,"ĠOne":4512,"Ġhost":4513,"sec":4514,"ĠêµŃëĤ´":4515,"ÑĢÐ¸":4516,"Ġê¹ĶëģĶ":4517,"Ġess":4518,"Ġ\"Ë·":4519,"Ġ->":4520,"asc":4521,"ÑĤÐ°":4522,"ê»ĺìĦľ":4523,"ê´Ģë¦¬":4524,"ided":4525,"orage":4526,"ring":4527,"Ġê´ľì°®":4528,"Ġeverything":4529,"Ġsound":4530,"ê°ľìĽĶ":4531,"ixed":4532,"µìħĺ":4533,"íĨµëł¹":4534,"Ġbackground":4535,"ë¬¸ìĹĲ":4536,"Ġabs":4537,"ging":4538,"Ġdeterm":4539,"lock":4540,"ML":4541,"Ġpress":4542,"Ġcamp":4543,"Map":4544,"Array":4545,"mathbb":4546,"Ph":4547,"ìĦ¼íĦ°":4548,"down":4549,"ENT":4550,"Ġê´Ģë¦¬":4551,"ìĺ¤ëĬĶ":4552,"Ġhappen":4553,"ìĬ¤ê°Ģ":4554,"ĠìĻĦìłĦ":4555,"ì¤ĳìĹĲ":4556,"iction":4557,"CE":4558,"ĠìķĦëŀĺ":4559,"Ġ});":4560,"lang":4561,"Ġseen":4562,"';":4563,"Ġì¿":4564,"Ġìĸ´ëĬĲ":4565,"Ġpurch":4566,"ĠìĿ¼ë°ĺ":4567,"Ġface":4568,"ëĦ·":4569,"ë¦¬ìķĦ":4570,"Ġì»¤íĶ¼":4571,"OS":4572,"fully":4573,"uk":4574,"ĠëĤ´ëł¤":4575,"ires":4576,"Field":4577,"mb":4578,"ëĭ¤ìĿĮ":4579,"Ġseason":4580,"ĠëıĻìķĪ":4581,"Ġwent":4582,"Ġíİĺ":4583,"Ġearly":4584,"api":4585,"Ġwhole":4586,"Ġheart":4587,"node":4588,"ĠìĬ¹":4589,"ê°Ģê²©":4590,"'d":4591,"igma":4592,"ĠíĹ¤":4593,"roller":4594,"posed":4595,"ìĭ¬íŀĪ":4596,"ì½¤":4597,"ì¼ĢìĿ´":4598,"!--":4599,"Over":4600,"ĠìŀĪëıĦë¡Ŀ":4601,"Ġlov":4602,"Ġêµ°":4603,"using":4604,"ëĿ¼ìĦľ":4605,"Ġdom":4606,"Ġpict":4607,"Ġrespons":4608,"ication":4609,"Ġ-->":4610,"Ġcomplete":4611,"create":4612,"ĠGu":4613,"Ð¾Ð½":4614,"Ġbar":4615,"ĠëĬĲê»´":4616,"Ġvideo":4617,"Ġdiv":4618,"Ġì°¨ëŁī":4619,"ĠAmerican":4620,"Ġrecomm":4621,"sel":4622,"ìľµ":4623,"ìĻĢìĦľ":4624,"ì¸¡":4625,"ĠìºĲ":4626,"No":4627,"\"\"":4628,"ĠMed":4629,"ride":4630,"].":4631,"ìĽĢìĿ´":4632,"oll":4633,"Ġë°ĿíĺĶëĭ¤":4634,"asing":4635,"Ð¶":4636,"Ġê´Ģìĭ¬":4637,"Ġassert":4638,"Ġactiv":4639,"De":4640,"íħĮë¦¬ìĸ´":4641,"Ġclose":4642,"IL":4643,"leg":4644,"Ë·+":4645,"abled":4646,"state":4647,"Ġrespect":4648,"ledge":4649,"Ġë´Ĳ":4650,"Ġgeneral":4651,"So":4652,"ê³¤":4653,"ians":4654,"fer":4655,"Ë·},":4656,"Ġë£":4657,"Ġì¢ĭìĿĦ":4658,"ìŀĲê¸°":4659,"ining":4660,"Ġìłķë¶Ģ":4661,"ëĵľë¦¬":4662,"Ġprovided":4663,"yl":4664,"ĠNot":4665,"ĠìķĬìĿĦ":4666,"ì¤ĺ":4667,"ëª»":4668,"Ġcreated":4669,"true":4670,"Ġmen":4671,"Ġê¹Į":4672,"Ġìľ¡":4673,"Ġtw":4674,"ëĤ´ê°Ģ":4675,"Ġblack":4676,"ÅĤ":4677,"Ġsugg":4678,"âĹ":4679,"ìĪĺë¥¼":4680,"ball":4681,"Ġbuilding":4682,"Ġra":4683,")\\":4684,"ĠëĦĪ":4685,"ĠFl":4686,"ë¥´ë©´":4687,"ĠìŀĲìĹ°":4688,"Ġclear":4689,"ë£Įë¥¼":4690,"Ġauthor":4691,"Ġãħĭãħĭãħĭ":4692,"Ġphys":4693,"Ġsuggest":4694,"ĠÐ·":4695,"ĠìłĢëĬĶ":4696,"ana":4697,"ĠëĨį":4698,"Ġtrack":4699,"df":4700,"ì²Ļ":4701,"ëıĦê°Ģ":4702,"Ġrad":4703,"onse":4704,"Ġìĵ":4705,"Ġfront":4706,"âĶ":4707,"result":4708,"Ġíķ´ìļĶ":4709,"Ġtraining":4710,"iment":4711,"ĠìŀĳìĹħ":4712,"ìĿ´ë¥¼":4713,"uly":4714,"Ġdate":4715,"astic":4716,"rix":4717,"location":4718,"Ġblock":4719,"Ġãħĭãħĭãħĭãħĭ":4720,"rodu":4721,"ĠìĺĨ":4722,"obile":4723,"ìłĢíĿ¬":4724,"idence":4725,"Ġidea":4726,"ìŀ¥ìĹĲìĦľ":4727,"$\\":4728,"Ġfurther":4729,"ìĤ¬ëĬĶ":4730,"Ġê¸°ì¤Ģ":4731,"Ġassoci":4732,"ĠÐ¼":4733,"Ġnecess":4734,"used":4735,"ì¹ĺëĬĶ":4736,"ĠQu":4737,"ĠIntern":4738,"ĠíĻĪ":4739,"Ġload":4740,"Ġplease":4741,"Ġìĭľê°ĦìĿ´":4742,"ners":4743,"ħëĭĪëĭ¤":4744,"ilter":4745,"Ġê±±":4746,"ĠDr":4747,"tings":4748,"Ġì¢ĭìķĦíķĺëĬĶ":4749,"Ġperformance":4750,"though":4751,"Ġìī¬":4752,"Ġindustry":4753,"Ġnetwork":4754,"argin":4755,"Ġstay":4756,"Ġprovides":4757,"ê¸°ìĹħ":4758,"tes":4759,"ched":4760,"object":4761,"igned":4762,"ĠíĶĦë¡ľ":4763,"ĠInt":4764,"itted":4765,"ival":4766,"Ġtotal":4767,"Ġìľłëªħ":4768,"Ġwond":4769,"ìĺĢìĬµëĭĪëĭ¤":4770,"Ġvarious":4771,"/**":4772,"Service":4773,"ĠìĤ¬íļĮ":4774,"with":4775,"oo":4776,"abor":4777,"Ġresponse":4778,"ëĤĺëĿ¼":4779,"lt":4780,"Ġoffers":4781,"ĠìĺĪìłķ":4782,"ites":4783,"PI":4784,"Code":4785,"Ġflow":4786,"ìĽĢìĿĦ":4787,"Ġnear":4788,"Ġsays":4789,"Ġprevious":4790,"Ġrelations":4791,"ried":4792,"Ġseem":4793,"ĠìľĦíķ´ìĦľ":4794,"ëıĦë¡ľ":4795,"anager":4796,"ì¼ĵ":4797,"ìĬ¤íĦ°":4798,"Ġë¿Ĳ":4799,"ĠìĥģíĴĪ":4800,"inary":4801,"Ġíķĺì§Ģ":4802,"âĺħ":4803,"ìļ´ëį°":4804,"ĠìļĶì¦ĺ":4805,"ero":4806,"block":4807,"Ġ:=":4808,"Ġê°Ķ":4809,"Ġneeded":4810,"ĠCor":4811,"ëłµ":4812,"den":4813,"Ġaddition":4814,"Ġê°ĢëĬĶ":4815,"olean":4816,"Ġìķī":4817,"ìĿ´ëĵľ":4818,"position":4819,"ĠFe":4820,"Ġsent":4821,"ëŀµ":4822,"aur":4823,"Ġdescrib":4824,"artment":4825,"ĠìĤ¶":4826,"íķ´ëıĦ":4827,"Ġear":4828,"Ġcompanies":4829,"Ġcharacter":4830,"Ġcult":4831,"ĠìłĦì²´":4832,"ëķ":4833,"Ġdistrib":4834,"íĽ":4835,"Ġmatch":4836,"Ë·\",":4837,"Ġê±°ìĿĺ":4838,"Ġbox":4839,"Ġhuman":4840,"Ġë¸Ķë¡ľê·¸":4841,"ĠìķĮê³ł":4842,"ises":4843,"ga":4844,"Ġchall":4845,"ĠëĨĴìĿĢ":4846,"Ġê·¸ëŀĺìĦľ":4847,"ponent":4848,"\".":4849,"Ġìĭľê³µ":4850,"Size":4851,"ì¹ĺë¥¼":4852,"older":4853,"ëĭĺìĿĺ":4854,"Ġê°Ģì§Ģ":4855,"ëŀĻ":4856,"ëıĦë¥¼":4857,"íĻį":4858,"Ġbeautiful":4859,"ëıĻìĤ°":4860,"Ġì¶ķ":4861,"Ġobtain":4862,"Ġshop":4863,"Ġcred":4864,"pecially":4865,"hing":4866,"Ġamong":4867,"ĠëĦĵ":4868,"Ġêµ¬ìĦ±":4869,"Ġmonths":4870,"istic":4871,"ëĨį":4872,"Ġê¸°ëĬ¥":4873,"Ġë§Įì¡±":4874,"nces":4875,"ĠAdd":4876,"ë¥´ëĬĶ":4877,"ìłģìĿ´":4878,"Ġë¬¼ë¡ł":4879,"ì»¨":4880,"íĭĢ":4881,"êº¼":4882,"urope":4883,"Ġquestions":4884,"clus":4885,"atform":4886,"inks":4887,"ĠìŀĪìľ¼ë©°":4888,"ëĭ¤ë¥¸":4889,"Ġhom":4890,"ĠSup":4891,"ë³´ëĬĶ":4892,"Ġexec":4893,"Ġmor":4894,"ĠJohn":4895,"ì£½":4896,"Ġtrying":4897,"ĠíĻľìļ©":4898,"ĠìµľëĮĢ":4899,"ĠIm":4900,"icense":4901,"Ġpoints":4902,"mon":4903,"Ġgovernment":4904,"ĠðŁ":4905,"Ġpotential":4906,"ĠÐ³":4907,"Ġindex":4908,"Ġadded":4909,"ĠìķĦì¹¨":4910,"íķĺìĭł":4911,"Ġcard":4912,"íĨ¡":4913,"ĠìĿµ":4914,"Ġinstance":4915,"earch":4916,"Ġíı¬íķ¨":4917,"Ġìĸ´ëĶĶ":4918,"ĠReg":4919,"yd":4920,"Ġdest":4921,"ourn":4922,"Ġach":4923,"Ġwhite":4924,"Ġsrc":4925,"Ġëħ¼":4926,"Ġê·¸ëłĩ":4927,"default":4928,"Ġsimilar":4929,"Ġevents":4930,"ìĸ´ëıĦ":4931,"Ġmiss":4932,"Ġê¸°ë¡Ŀ":4933,"ouch":4934,"ìĶĢ":4935,"amespace":4936,"Ġ..":4937,"oke":4938,"ĠëĺĲëĬĶ":4939,"ëĲ©ëĭĪëĭ¤":4940,"ëľ»":4941,"Ġnum":4942,"info":4943,"ì£¼ìĭľ":4944,"Ġê³µë¶Ģ":4945,"Ġsomeone":4946,".)":4947,"ude":4948,"aced":4949,"eral":4950,"ret":4951,"Ġanything":4952,"ĠìĿ´ìķ¼ê¸°":4953,"Ġdownload":4954,"ï¿":4955,"nder":4956,"urance":4957,"Ġunique":4958,"From":4959,"style":4960,"max":4961,"ounc":4962,"Ġwait":4963,"ëĿ¼ëıĦ":4964,"ĠìŀĪì§Ģë§Į":4965,"icient":4966,"Ľ°":4967,"](":4968,"Ġhalf":4969,"ĠìŀĳìĿĢ":4970,"Ġdig":4971,"ĠíĥĦ":4972,"ì£¼ìĿĺ":4973,"Ġsignific":4974,"icult":4975,"ĠìķĪìłĦ":4976,"abase":4977,"Ġcrit":4978,"unk":4979,"Ġìĭ¸":4980,"rel":4981,"db":4982,"phi":4983,"ìĭ¸":4984,"Ġseries":4985,"OD":4986,"Ġimprove":4987,"Ġëĭµ":4988,"Ġsum":4989,"Ġhttps":4990,"Ġíĭ°":4991,"ĠìĥĿê°ģìĿ´":4992,"ëıĻì°¨":4993,"Ġprim":4994,"Ġtaking":4995,"Ġaud":4996,"ached":4997,"Ġcannot":4998,"Ġpaper":4999,"ĠCal":5000,"Ġentire":5001,"Ġeconom":5002,"Ġer":5003,"^{Ë·":5004,"Inst":5005,"ìĬ¤íħľ":5006,"ìĬĪ":5007,"start":5008,"Ġìı":5009,"ilit":5010,"ysis":5011,"Equ":5012,"Ġmass":5013,"Ġsimply":5014,"íĬ¹íŀĪ":5015,"Ġcontext":5016,"ìĤ¬ìĭ¤":5017,"cast":5018,"Ġìį¨":5019,"Ġclient":5020,"ëª¬":5021,"ê°ĢëĬ¥":5022,"ĠĠĠĠĠĠĠĠĠĠĠĠ":5023,"Ġfriends":5024,"Ġissues":5025,"Ġsoftware":5026,"ëĲĲëĭ¤":5027,"Ġpick":5028,"Ġexam":5029,"medi":5030,"ë¦¬ì§Ģ":5031,"elling":5032,"Ġhistory":5033,"Ġhope":5034,"Att":5035,"oper":5036,"itten":5037,"ìľĦìĽĲ":5038,"ĠBy":5039,"edd":5040,"Ġwrite":5041,"ë²¤íĬ¸":5042,"ï¸":5043,"Ġwomen":5044,"ĠëĮĢíĨµëł¹":5045,"Up":5046,"Ë·&":5047,"Ġfall":5048,"ëĶĶìĸ´":5049,"call":5050,"Ġcustomers":5051,"ë²Īì§¸":5052,"¯¤":5053,"Ġtax":5054,"ief":5055,"lambda":5056,"Ġê¸°ìĪł":5057,"My":5058,"Ġìĸ¸ìłľ":5059,"Ġmach":5060,"reate":5061,"oman":5062,"resp":5063,"ë¨¸ëĭĪ":5064,"¬ëŁ¬":5065,"ë¹µ":5066,"ĠìŀĲì£¼":5067,"Ġë¬´ìĹĩ":5068,"Ġalmost":5069,"Ġpain":5070,"come":5071,"íķľêµŃ":5072,"Ġìĺµìħĺ":5073,"ë³¶":5074,"ê±°ëĵłìļĶ":5075,"Ġ{\\":5076,"ober":5077,"ë£¸":5078,"annel":5079,"Ġ[Ë·":5080,"ĠÃ©":5081,"íĺľ":5082,"Ġhowever":5083,"Ġimplement":5084,"Ġwall":5085,"Ġwidth":5086,"Ġquite":5087,"rew":5088,"Ġmedia":5089,"Ġíŀĺëĵ¤":5090,"Ġitem":5091,"board":5092,"Ġtechnology":5093,"cho":5094,"Ġë§Įíģ¼":5095,"Ġoriginal":5096,"ëª°":5097,"ë³´ë©´":5098,"agram":5099,"Ġblog":5100,"Ġmillion":5101,"ìĭľìķĦ":5102,"ë¡ľê·¸ëŀ¨":5103,"ì§Ħì§ľ":5104,"Ġemail":5105,"ĠUnited":5106,"ades":5107,"Ġelement":5108,"Ġcompon":5109,"LA":5110,"rt":5111,"ĠëĮĢíķ´ìĦľ":5112,"ĠìŀĶ":5113,"Ġchanges":5114,"VER":5115,"plication":5116,"Hand":5117,"Ġì¹¨":5118,"ĠìĿĺë¯¸":5119,"ìĿ´ë¸Ķ":5120,"OP":5121,"ìĿ¸ëį°ìļĶ":5122,"~!":5123,"anel":5124,"ights":5125,"ìĿ´ëŁ°":5126,"ê²łì§Ģë§Į":5127,"Ġfive":5128,"Ġautom":5129,"ê°ĲìĿ´":5130,"Ġclaim":5131,"see":5132,"Ġprofessional":5133,"ë¯Ģë¡ľ":5134,"selves":5135,"eed":5136,"Ġsolution":5137,"Ġë§ĽìĿ´":5138,"êµĲìľ¡":5139,"oring":5140,"ĠìĥĪë¡ľìļ´":5141,"Ġpref":5142,"uth":5143,"ì§ĢìĹŃ":5144,"Ġmap":5145,"lient":5146,"iqu":5147,"ÑĤÐ¸":5148,"ìĿ¸íĬ¸":5149,"Ġë¯¿":5150,"ìĿ´ë©°":5151,"ëį°ìļĶ":5152,"Ġdetails":5153,"Ġë§Īì§Ģë§ī":5154,"ving":5155,"Ġìµľê·¼":5156,"Ġmanagement":5157,"Ġcook":5158,"ĠìłĢíĿ¬":5159,"ĠMin":5160,"ĠGe":5161,"ê·¸ëŀĺëıĦ":5162,"ili":5163,"Ġwriting":5164,"Val":5165,"ĠíĬ¹íŀĪ":5166,"Ġê²¨":5167,"ĠëĬĲëĤĮìĿ´":5168,"iet":5169,"gt":5170,"ë¨¼":5171,"íĹ¤":5172,"Ġsystems":5173,"ìĥģìľ¼ë¡ľ":5174,"lim":5175,"ìĽĮìĦľ":5176,"Ġrole":5177,"ê·¼ëį°":5178,"ìĺ¥":5179,"Ġ(!":5180,"Ag":5181,"ainer":5182,"ê²¼":5183,".âĢĿ":5184,"ìĭľíĤ¤":5185,"Ë·\"/>":5186,"Message":5187,"Ġpolit":5188,"Ġê°ľë°ľ":5189,"ì´Į":5190,"ĠíĸĪëĬĶëį°":5191,"Ġinside":5192,"ëłĪìĬ¤":5193,"Ġaccept":5194,"Ġìĺ¤ëŀĺ":5195,"ìį":5196,"Be":5197,"web":5198,"Ġë©ĭ":5199,"Ġfinanc":5200,"select":5201,"ãħ¡":5202,"Ġfeature":5203,"Pl":5204,"ĠìĺĪìķ½":5205,"Ġfoot":5206,"Ġliving":5207,"ï¿½":5208,"Ġtaken":5209,"Ġissue":5210,"ĠìĥĿíĻľ":5211,"ë¥´ê³ł":5212,"Ġbelieve":5213,"Ġvia":5214,"java":5215,"ë¶ĢìĤ°":5216,"Ġrather":5217,"umb":5218,"ĠíĥĪ":5219,"gl":5220,"ĠPol":5221,"Ġetc":5222,"CC":5223,"ĠíĦ°":5224,"Ġëĵ±ìĿĺ":5225,"ë¬´ë¦¬":5226,"Ġjava":5227,"sum":5228,"ĠDes":5229,"ges":5230,"Ġoutput":5231,"ì¹ľêµ¬":5232,"roups":5233,"Ġpercent":5234,"Ġrunning":5235,"User":5236,"ìĤ¬ìĹħ":5237,"¬ìĺģ":5238,"Ġareas":5239,"ĠëĦ£ìĸ´":5240,"ĠÃł":5241,"ha":5242,".....":5243,"ĠAfter":5244,"sq":5245,"ĠëĤĺìĻĶ":5246,"Ġê·¸ëłĩê²Į":5247,"ĠìłĢëħģ":5248,"íıŃ":5249,"Ġcoll":5250,"ï¸ı":5251,"Ġìĥģëĭ´":5252,"ĠNULL":5253,"arrow":5254,"lick":5255,"ë¹Į":5256,"Build":5257,"Ġparticip":5258,"íĺ¹":5259,"ÑĦ":5260,"Ġë§ŀì¶":5261,"ìłķë³´":5262,"Ġë´¤":5263,"ĠìłĦìĹĲ":5264,"uffer":5265,"ê°Ķ":5266,"Out":5267,"Ġmoment":5268,"Ġchoose":5269,"ìĨĶ":5270,"iddle":5271,"Ġstore":5272,"Ġë§Įëĵł":5273,"Log":5274,"ìĿ¼ìĿ´":5275,"Ġstd":5276,"ìľ¼ëĤĺ":5277,"Ġdu":5278,"Ġste":5279,"Ġìĸ¼êµ´":5280,"Ġcopy":5281,"ëŁ´":5282,"je":5283,")}":5284,"ĠCount":5285,"quot":5286,"ê²ĥìĿ´":5287,"izing":5288,"iÃ³":5289,"alt":5290,"ìĽĲìĿĦ":5291,"ĠìŀĪìľ¼ëĭĪ":5292,"ĠëıĦì°©":5293,"ĠAN":5294,"ìĭľìŀ¥":5295,"Ġexpected":5296,"ibrary":5297,"Loc":5298,"ATE":5299,"ìłľíĴĪ":5300,"ĠEurope":5301,"ì½ĺ":5302,"Result":5303,"ĠMe":5304,"Ġnatural":5305,"ĠìĬ¬":5306,"ĠìĤ´ìķĦ":5307,"ĠComp":5308,"Ġsubject":5309,"Ġengine":5310,"ĠìĪĻ":5311,"ëªħìĿ´":5312,"íĮĢ":5313,"plied":5314,"dom":5315,"Ġê²½ìłľ":5316,"Ġapproach":5317,"Ġlat":5318,"Ġìĺ¬ëł¤":5319,"lege":5320,"dt":5321,"ë§ŀ":5322,"anced":5323,"à¤":5324,"ategory":5325,"ìĿ¸ìĿĺ":5326,"MA":5327,"button":5328,"ĠYork":5329,"ĠëĬĲëģ¼":5330,"aven":5331,"Ġdifficult":5332,"Ġë°¤":5333,"Ġshows":5334,"ĠThen":5335,"escription":5336,"Ġexact":5337,"ĠìķĬìķĦ":5338,"íĤ¹":5339,"amed":5340,"Ġsection":5341,"pri":5342,"ëıĻìĿĦ":5343,"ĠìĿ¸íĦ°":5344,"base":5345,"Ġê¶ģê¸Ī":5346,"Ġproblems":5347,"Ġterms":5348,"airs":5349,"Ķê°Ģ":5350,"idge":5351,"ores":5352,"Ġclick":5353,"ê¶ģ":5354,"aged":5355,"Ġinstead":5356,"ĠYour":5357,"ille":5358,"Ġë§¤ìļ°":5359,"Ser":5360,"ĠëĲĺê³ł":5361,"Ġensure":5362,"Ġestab":5363,"Ġì°¸ê³ł":5364,"ĠíķĦìļĶíķľ":5365,"íĦ´":5366,"aves":5367,"ensive":5368,"ocol":5369,"||":5370,"ĠOff":5371,"OL":5372,"Ġê²°ìłķ":5373,"íģ¬ë¦¼":5374,"ì¶Ķì²ľ":5375,"New":5376,"Ġë¶Ģëĭ´":5377,"Ġtravel":5378,"Ġwords":5379,"ìĽĲìĿĢ":5380,"ĠTV":5381,"Ġëħ¹":5382,"ìĹĪê³ł":5383,"ĠĠĠĠĠĠĠĠĠĠ":5384,"Ġbad":5385,"ĠÐ±":5386,"Ġdam":5387,"uted":5388,"ĠEd":5389,"Ġìĸ»":5390,"ìĿĦëķĮ":5391,"nter":5392,"Ent":5393,"iday":5394,"ithub":5395,"Ġê°Ģìł¸":5396,"Ġíģ¬ê²Į":5397,"cer":5398,"Ġ<<":5399,"Ġdeg":5400,"ê²ĮìļĶ":5401,"eps":5402,"Ġrate":5403,"aid":5404,"Ë·}\\":5405,"Ġìľłì§Ģ":5406,"Ġìłľìŀĳ":5407,"refore":5408,"Ġsoon":5409,"omet":5410,"Model":5411,"check":5412,"itting":5413,"Ġespecially":5414,"iting":5415,"ì½ľ":5416,"Ġë§ĲìĶĢ":5417,"Ġë³´ìĿ´ëĬĶ":5418,"case":5419,"wise":5420,"ĠìĪł":5421,"static":5422,"Ġoffice":5423,"Fr":5424,"Ġitems":5425,"plit":5426,"fin":5427,"efore":5428,"$Ë·":5429,"Ġfig":5430,"Ð½Ð°":5431,"sup":5432,"Ġsche":5433,"ì´ī":5434,"bug":5435,"Ġcontinue":5436,"Ad":5437,"Ġstandard":5438,"Ġaw":5439,"Ġcover":5440,"Ġìĭłì²Ń":5441,"ĠPer":5442,"ĠÑĥ":5443,"Ġêµ¬ìŀħ":5444,"ĠìĽĥ":5445,"ufact":5446,"ìĬ¤ëĬĶ":5447,"page":5448,"ìĮ":5449,"ĠìłľëĮĢë¡ľ":5450,"BC":5451,"empt":5452,"Ġìŀ¬ë¯¸":5453,"ĠCity":5454,"hel":5455,"tty":5456,"Ġvo":5457,"âĨ":5458,"ius":5459,"Ġëı¼":5460,"Ġì°¸ìĹ¬":5461,"hand":5462,"ìķĦì£¼":5463,"Ġê²ĮìŀĦ":5464,"ëĬĶëĭ¤":5465,"Ġmatter":5466,"ĠPart":5467,"[\"":5468,"mark":5469,"ëĸ¡":5470,"NS":5471,"eturn":5472,"Ġnothing":5473,"Ġincludes":5474,"Ġê°ĳ":5475,"Ġassist":5476,"ì¥":5477,"gen":5478,"Ġì£¼ì°¨":5479,"ìĻĶëĭ¤":5480,"Ġapply":5481,"ĠSet":5482,"ĠBo":5483,"ãİ":5484,"ĠNational":5485,"Ġtold":5486,"overed":5487,"aph":5488,"Ġlocation":5489,"ë©Ķëī´":5490,"active":5491,"ĠìĨ¡":5492,"image":5493,"doc":5494,"êµ°ìļĶ":5495,"Ġsepar":5496,"ĠEl":5497,"ê²łì£ł":5498,"soft":5499,"Ġthird":5500,"íĬľ":5501,"irtual":5502,"ĠìĹ°êµ¬":5503,"ube":5504,"ëĴ":5505,"istr":5506,"Ġusers":5507,"Ġsignificant":5508,"Ġbrow":5509,"ĠìĤ¬ëŀĮëĵ¤ìĿ´":5510,"Ġoil":5511,"Ġvan":5512,"ĠĠĠĠĠĠĠĠĠĠĠĠĠĠĠĠĠĠĠĠĠĠĠĠĠĠĠĠĠĠĠ":5513,"Ġfiles":5514,"Ġfire":5515,"Ġful":5516,"Ġëĵ£":5517,"ìĤ¬ìĿĺ":5518,"Ġregard":5519,"ì¯¤":5520,"Ġíĳ¸":5521,"ê¹¨":5522,"aging":5523,"ĠAust":5524,"Ġwanted":5525,"Ġdesigned":5526,"System":5527,"Ġê²½íĹĺ":5528,"Ġage":5529,"ĠìŀĲìĦ¸":5530,"ĠíķĻìĥĿ":5531,"next":5532,"ĠìķĦíĮĮíĬ¸":5533,"ĠìĿĳ":5534,"Ġcorrect":5535,"ĠìłĢëł´":5536,"apter":5537,"ceed":5538,"Ġìī½ê²Į":5539,"Ġlikely":5540,"ë¦¿":5541,"assert":5542,"Ġways":5543,"lib":5544,"Ġë¿Į":5545,"MS":5546,"Ġì±Ļ":5547,"andom":5548,"Ġknowledge":5549,"Ġíķ´ì£¼":5550,"Ġhigher":5551,"ëĵľë¦½ëĭĪëĭ¤":5552,"Ġstaff":5553,"Ġeffort":5554,"ĠíķĺëĬĶëį°":5555,"Ġequip":5556,"ĠDis":5557,"ilon":5558,"MP":5559,"space":5560,"Ġì¦Ŀê°Ģ":5561,"IR":5562,"tem":5563,"Ġforward":5564,"ìĪĺëĬĶ":5565,"adding":5566,"Ġsens":5567,"BS":5568,"Ġdouble":5569,"Ġfa":5570,"¨ìĿ´":5571,"Ġprobably":5572,"rang":5573,"Ġpred":5574,"ë¿Ĳ":5575,"ny":5576,"Ġtypes":5577,"ĠSer":5578,"ê°ĻìĿ´":5579,"Ġìķħ":5580,"Ġadditional":5581,"zy":5582,"ĠìŀĲìĭłìĿĺ":5583,"Ġlearning":5584,"Ġnode":5585,"____":5586,"ĠìŀĲì²´":5587,"Ġwatch":5588,"ľĺ":5589,"\"/>":5590,"just":5591,"ĠHis":5592,"ĠìłľìĿ¼":5593,"Ġinfl":5594,"Ġground":5595,"nov":5596,"ÐµÑĤ":5597,"ãħľãħľ":5598,"ĠëŁ":5599,"ìĿ´ì§Ģë§Į":5600,"Ġborder":5601,"Ġregular":5602,"ĠìĿ´íķ´":5603,"Ġdoor":5604,"ĠìĦ±ê³µ":5605,"cul":5606,"Ġì»¨":5607,"rup":5608,"ĠìĹ´ìĭ¬íŀĪ":5609,"ìłľë¥¼":5610,"Ġsuff":5611,"Ġê·¹":5612,"^\\":5613,"img":5614,"ê°ĲìĿĦ":5615,"Ġtakes":5616,"ĠSouth":5617,"Ġfit":5618,"Ġextra":5619,"Ġlength":5620,"Ġyourself":5621,"ìĸ´ìķ¼":5622,"Ġíĺ¹":5623,"mathbf":5624,"ëŀĲ":5625,"ĠìĥģìĬ¹":5626,"Ġinitial":5627,"Ġupon":5628,"Reg":5629,"ìĸ´ê°Ģ":5630,"Ġíķ´ëĭ¹":5631,"Ġë¶ĢìĤ°":5632,"ese":5633,"beta":5634,"ework":5635,"Ġwar":5636,"Ġìłģìļ©":5637,"unt":5638,"ĠìĦłë¬¼":5639,"Ġserver":5640,"flow":5641,"Trans":5642,"Cl":5643,"Ġoutside":5644,"Ġfavor":5645,"ìĬ´":5646,"Ġíķ´ê²°":5647,"ĠSchool":5648,"ĠëĽ°":5649,"apache":5650,"Ġfast":5651,"Ġcenter":5652,"ë¹Ľ":5653,"Ġê°ĢëĵĿ":5654,"ĠìŀĳíĴĪ":5655,"Ġge":5656,"Ġword":5657,"\":\"":5658,"Ġsix":5659,"aching":5660,"Ġìĺ¤íĽĦ":5661,"ìĿ´ìĹĪëĭ¤":5662,"Ġê°ĻìĬµëĭĪëĭ¤":5663,"Ġconditions":5664,"Ð½Ð¾":5665,"Ġphone":5666,"ìłĦë¬¸":5667,"ĠWorld":5668,"Ġrelationship":5669,"Le":5670,"oph":5671,"íĭ±":5672,"íĬ¹ë³Ħ":5673,"Ã§":5674,"Ġpopular":5675,"Read":5676,"Ġlower":5677,"Ġindic":5678,"ca":5679,"Ġë¶Ħëĵ¤ìĿ´":5680,"Ġeveryone":5681,"ì£¼íĥĿ":5682,"Ġrow":5683,"Ġê°Ģê¹Į":5684,"Ġasked":5685,"Ġmember":5686,"Ġcustomer":5687,"-\\":5688,"ìłĲìĿĦ":5689,"anch":5690,"Ġë°Ľê³ł":5691,"Ġì¤ĳìļĶíķľ":5692,"vis":5693,"íķĺìĭ¤":5694,"ynam":5695,"Ġil":5696,"ĠìĤ´ì§Ŀ":5697,"Ġintrodu":5698,"Ġë¹¼":5699,"ken":5700,"github":5701,"Ġdevice":5702,"ìĿ´ìĹĲ":5703,"ĠID":5704,"Ġneg":5705,"ĠìŀĲë¦¬":5706,"ĠAb":5707,"ĠíĿĲ":5708,"ê²ģ":5709,"ĠList":5710,"igation":5711,"ĩ¼íķĳ":5712,"Ġë¸Įëŀľëĵľ":5713,"Ġdraw":5714,"ĠAg":5715,"css":5716,"ìĿ¸ìĿĦ":5717,"Ġ};":5718,"ëĤĺë¬´":5719,"ĠLa":5720,"Ġsave":5721,"ìłĲìĿ´":5722,"ĠíĻ©":5723,"Ġcomfort":5724,"Param":5725,"Color":5726,"Ġill":5727,"íĿ¥":5728,"ì¢ĭìĿĢ":5729,"II":5730,"po":5731,"ìĭĿìľ¼ë¡ľ":5732,"ìŀĸ":5733,"UL":5734,"Ġbound":5735,"ë§¥":5736,"íİĺìĿ´ì§Ģ":5737,"Ġì¸¡":5738,"Ġroad":5739,"Ġë¹ĦêµĲ":5740,"query":5741,"íķľíħĮ":5742,"íĮĶ":5743,"Ġideas":5744,"ëļ":5745,"Ġìĸĺ":5746,"ë¶ĢëĬĶ":5747,"dev":5748,"®¤":5749,"Table":5750,"ming":5751,"Ġvalid":5752,"Ġsecurity":5753,"Ġëļ":5754,"Ġëī´":5755,"Ġandroid":5756,"Ġready":5757,"Ġreceived":5758,"Ġ;":5759,"ĠìĹ¬ë¦Ħ":5760,"íĻĶì§Ī":5761,"ì§ĢëĤľ":5762,"ĠState":5763,"valid":5764,"ë¡¯":5765,"isf":5766,"Ġbehind":5767,"Ġcam":5768,"sy":5769,"Count":5770,"ae":5771,"ĠìĿ´ë£¨":5772,"ĠìĽĮ":5773,"ëŁŃ":5774,"ĠJan":5775,"height":5776,"gle":5777,"PS":5778,"Ġlonger":5779,"=\"../../":5780,"model":5781,"Ġê·¸ë¦¼":5782,"Ġnil":5783,"ìĬ·":5784,"rec":5785,"ìķĺìĸ´ìļĶ":5786,"ëĮĢë¥¼":5787,"ëĤ¸":5788,"ĠêµŃë¯¼":5789,"Date":5790,"Ġloss":5791,"ìĿ´íĦ°":5792,"ĠSome":5793,"Ġreceive":5794,"ales":5795,"Ġsort":5796,"ê¹Ĳ":5797,"Ġë°ĶëŀĮ":5798,"Ġson":5799,"Ġ]":5800,"Ġremov":5801,"ĠíĳľíĺĦ":5802,"Ġbuilt":5803,"ĠNorth":5804,"ìĥĿíĻľ":5805,"Ġë¬¸ìĿĺ":5806,"Ġê°Ħëĭ¨":5807,"ìĥĿê°ģ":5808,"VE":5809,"ĠìĿ´ëıĻ":5810,"Ġcondition":5811,"Ġsle":5812,"}_":5813,"Ġusually":5814,"Ð»Ð°":5815,"ĠíĬ¹ë³Ħ":5816,"Ġglobal":5817,"Ġë³´ëĬĶ":5818,"Pr":5819,"íķĺìĭľë©´":5820,"Ġhol":5821,"Ġaccording":5822,"orks":5823,"Ġheight":5824,"Ġwindow":5825,"sing":5826,"Ġìĺ¬íķ´":5827,"oute":5828,"Ġsaf":5829,"ëķĮë¬¸ìĹĲ":5830,"Ġsend":5831,"Ġincrease":5832,"Ġkit":5833,"Ġcollect":5834,"coming":5835,"ê´":5836,"Ġgames":5837,"ĠìĿ¼ìĿ´":5838,"acher":5839,"ĠíĻĶìŀ¥":5840,"Ġsqu":5841,"post":5842,"Manager":5843,"Ġì°įìĸ´":5844,"ees":5845,"ëģĹ":5846,"Inter":5847,"Ġmultiple":5848,"eff":5849,"Ġrecogn":5850,"Ġisn":5851,"Ġì£¼ëĬĶ":5852,"ÂłÂłÂłÂł":5853,"Ġcoming":5854,"hib":5855,"change":5856,"ĠíķŃìĥģ":5857,"ĠMod":5858,"Ġcurrently":5859,"ĠìŀĪê¸°":5860,"Ġë§ĽìŀĪëĬĶ":5861,"ë§Įíķľ":5862,"ifier":5863,"Property":5864,"Ð½Ñĭ":5865,"ĠìĻķ":5866,"Ġë¬´ë£Į":5867,"ĠìĹ¬ìĦ±":5868,"ëł¸ëĭ¤":5869,"Ġago":5870,"inner":5871,"Dis":5872,"Ġrelated":5873,"Ġì£¼ë³Ģ":5874,"km":5875,"sigma":5876,"Ġprior":5877,"iol":5878,"ìĶ¬":5879,"Ġ===":5880,"TH":5881,"Ġnews":5882,"ì¹¼":5883,"Ġê¿Ī":5884,"ìĶ¨ê°Ģ":5885,"ĠSm":5886,"ìłľì£¼":5887,"Ġì¶©ë¶Ħ":5888,"({":5889,"ìĿ¼ìĿĦ":5890,"build":5891,"Ġpers":5892,"ìĹħì²´":5893,"ĠMan":5894,"ìł¸ìĦľ":5895,"ĠBar":5896,"Ġupdate":5897,"Ġseems":5898,"big":5899,"Ġimpact":5900,"Ġìĺ·":5901,"Ġì¼ĢìĿ´":5902,"?)":5903,"Ġì¿ł":5904,"uge":5905,"ĠAct":5906,"ato":5907,"Ġsil":5908,"Ġheld":5909,"uel":5910,"Ġë°°ìļ°":5911,"Ġsn":5912,"inition":5913,"ìĿ¸ëĭ¤":5914,"ìĬ¤ëŁ¬ìļ´":5915,"Ġscreen":5916,"ìľ¼ë¡ľëıĦ":5917,"Ġíķ´ëıĦ":5918,"ìĹ¬ê¸°":5919,"font":5920,"One":5921,"Ġfilm":5922,"ê°Ģê°Ģ":5923,"za":5924,"Ġshall":5925,"reed":5926,"Ġ(\\":5927,"ìĿĮìĿĦ":5928,"Ġëŀ":5929,"ops":5930,"Ð»Ð¸":5931,"Ġrisk":5932,"ĠSch":5933,"íķĻìĽĲ":5934,"Ġlabel":5935,"Ġparty":5936,"acing":5937,"Call":5938,"mission":5939,"Ġì¹¼":5940,"ìĭĿìĿ´":5941,"Ġë¶Ģëĵľ":5942,"Ġìĸ´ë¦°":5943,"Ġì¹ĺë£Į":5944,"option":5945,"ĉĉĉĉĉĉ":5946,"ka":5947,"ilde":5948,"Ġcirc":5949,"çļ":5950,"Ġë°ľíĳľ":5951,"ellow":5952,"Ġitself":5953,"aily":5954,"Query":5955,"contain":5956,"ĠĠĠĠĠĠĠĠĠĠĠĠĠĠĠĠĠ":5957,"Response":5958,"ë³´ëĭ¤ëĬĶ":5959,"ĠìłĦíĻĶ":5960,"tab":5961,"ĠĠĠĊ":5962,"ĠìłķëıĦë¡ľ":5963,"Ġappear":5964,"ëĵľë¥¼":5965,"verse":5966,"ĠìŀĪê²Į":5967,"idden":5968,"Ġveh":5969,"ìľĦë¥¼":5970,";&":5971,"Ġleave":5972,"atal":5973,"Ġallows":5974,"ìķķ":5975,"ĠPark":5976,"Ġgrad":5977,"func":5978,"Ġlanguage":5979,"Ġprep":5980,"Ġê³³ìĿ´":5981,"ersion":5982,"ìĿĢíĸī":5983,"ii":5984,"Do":5985,"Ġcases":5986,"ê°Ģë¥¼":5987,"Ġupd":5988,"ĠWill":5989,"ĠAm":5990,"Ġarch":5991,"ê¹Ķ":5992,"irection":5993,"ĠíĶĮëłĪìĿ´":5994,"urg":5995,"EX":5996,"Ġincluded":5997,"ëĮĢêµ¬":5998,"FA":5999,"Ġê°ĢëĬ¥íķľ":6000,"Ġë©Ģ":6001,"Ġchoice":6002,"ĠAut":6003,"ĠStud":6004,"Ġìłľì£¼":6005,"Client":6006,"Ġeasily":6007,"Ġê¸´":6008,"ÐºÐ°":6009,"ê±°ìļ´":6010,"Ġclients":6011,"Ġcollection":6012,"Ã©s":6013,"\"]":6014,"ĠíĿĶ":6015,"Ġíį¼":6016,"Ġles":6017,"Ġå":6018,"ĠëĲĺë©´":6019,"ĠëĶ°ë¡ľ":6020,"mail":6021,"Ġmix":6022,"ê¼¼":6023,">&":6024,"ì»¤íĶ¼":6025,"ĠëĤĺìĺ¤ëĬĶ":6026,"ìŀ¥ìĿĺ":6027,"ìĤŃ":6028,"ê¸°ê°Ħ":6029,"âĻ¡":6030,"ëĿ¼ë©´":6031,"open":6032,"sole":6033,"ëĵľë¦´":6034,"based":6035,"Ġthroughout":6036,"HT":6037,"json":6038,"Ġprote":6039,"Ġë§Īëł¨":6040,"íıĲ":6041,"Ġcomplex":6042,"Ġë½":6043,"aker":6044,"ëĭĪëĭ¹":6045,"Ð¾Ð¹":6046,"Ġbal":6047,"ëĲĲ":6048,"ĠStates":6049,"Ġë§ĺ":6050,"Ġlocated":6051,"tx":6052,"eks":6053,"Ġë§¥":6054,"Ġhon":6055,".'":6056,"ìŀł":6057,"ì§Ħëĭ¤":6058,"Ġbir":6059,"ĠìĶ¨":6060,"Ġcontract":6061,"ë§¨":6062,"bor":6063,"Ġë°ĶëĿ¼":6064,"Ġdeep":6065,"ĠëĶ¸":6066,"Ġweight":6067,"Ġwonder":6068,"Ġëħ¸ëŀĺ":6069,"Ġnecessary":6070,"Ġcolumn":6071,"ĠìĺĪìģĺ":6072,"sequ":6073,"Ġ()":6074,"ĠìĹ°ê²°":6075,"Ġì¢ĭìķĦìļĶ":6076,"Ġwood":6077,"Ġë²Ķ":6078,"ë§İìĿĢ":6079,"Ġfinancial":6080,"xy":6081,"Ġcommand":6082,"erg":6083,"mas":6084,"Ġê²ĥìŀħëĭĪëĭ¤":6085,"ĠApr":6086,"ĠMark":6087,"agn":6088,"icles":6089,"Ġëĵ±ìĿ´":6090,"Ġê±±ìłķ":6091,"Ġlimit":6092,"Ë·ãİ":6093,"ĠìĹĨìĸ´":6094,"ĠìŀĲê¸°":6095,"ĠIS":6096,"Ġê·¸ëĮĢë¡ľ":6097,"çļĦ":6098,"Ġëįķ":6099,"aul":6100,"core":6101,"ìĦłìĿĦ":6102,"Ġsense":6103,"Ġpretty":6104,"Ġtown":6105,"ĠìĨĶ":6106,"Ġround":6107,"ĠíĶĦë¡ľê·¸ëŀ¨":6108,"otype":6109,"ê¼¬":6110,"Ġíķĺê¸°":6111,"ëĶ±":6112,"ëĮĢê°Ģ":6113,"ĠìķĦë¦Ħ":6114,"ĠNow":6115,"Ġì¢ħë¥ĺ":6116,"Ð¾Ð³Ð¾":6117,"ë¡±":6118,"event":6119,"ì¹Ń":6120,"ê²½ìĿĦ":6121,"urb":6122,"ĠGener":6123,"ìī½":6124,"ĠDep":6125,"íļĮìĿĺ":6126,"ĠìĤ¬ê³ł":6127,"Ġbrand":6128,"ĠìĹħì²´":6129,"actory":6130,"ìĹĺ":6131,"year":6132,"ìĨĮë¥¼":6133,"istration":6134,"acity":6135,"ĠJust":6136,"Ġskin":6137,"ê·¸ëĥ¥":6138,"ĠìĺĪìĥģ":6139,"Ġ''":6140,"Ë·%)":6141,"yles":6142,"ĠVal":6143,"nown":6144,"ëĺĲíķľ":6145,"Ã¥":6146,"íĸĪê³ł":6147,"ëĳĺ":6148,"Ġwritten":6149,"ìĹĦë§Ī":6150,"ĠìĬ¤íĬ¸":6151,"Ġord":6152,"ico":6153,"respond":6154,"ba":6155,"Ġfail":6156,"ìľĦìĹĲ":6157,"request":6158,"Ġìĥģëĭ¹":6159,"Ġanswer":6160,"Ġìĸ´ëłµ":6161,"ìĸĳìĿ´":6162,"Ġë¶Ħëĵ¤":6163,"ramework":6164,"ĠíķĻêµĲ":6165,"íĢ":6166,"EC":6167,"ìłĳê¸°":6168,"ê°ĢìĦľ":6169,"Ġsaw":6170,"Ð²Ð°":6171,"ĠëĤ´ë¶Ģ":6172,"run":6173,"Ġãħİ":6174,"ì§ĢìķĬ":6175,"Ġgir":6176,"*}":6177,"Ġcross":6178,"ĠìķĶ":6179,"Ġtreatment":6180,"ëĭŃ":6181,"Ap":6182,"íķĻìĥĿ":6183,"ìĦ¯":6184,"Rec":6185,"ĠRep":6186,"rad":6187,"Ġ!!":6188,"Our":6189,"Ġpractice":6190,"ĠìŀĪëĬĶëį°ìļĶ":6191,"Ġobserv":6192,"ship":6193,"ìļ°ìĬ¤":6194,"Ġìĺģíĸ¥":6195,"ìĭľì¼ľ":6196,"Ġshown":6197,"íķĺëĭ¤ê³ł":6198,"~~~~":6199,"irit":6200,"Ġë³´ëĭ¤":6201,"UE":6202,"Ġmaintain":6203,"ëł¤ìĦľ":6204,"Ġmanufact":6205,"adem":6206,"Ġhappy":6207,"ëįĶëĿ¼ëıĦ":6208,"ìŀ¥ëĭĺ":6209,"Sub":6210,"Ġproper":6211,"ì½©":6212,"íķľëĭ¤ê³ł":6213,"Ġproduction":6214,"Ġmodels":6215,"ĠëĤĺìĻĢ":6216,"Ġnormal":6217,"Ġë¶Ģì¡±":6218,"Ġimages":6219,"íĨ¤":6220,"Ġcause":6221,"Ġamaz":6222,"íĽĪ":6223,"äº":6224,"ĠíĴĪ":6225,"Ed":6226,"ios":6227,"ë¦ĩ":6228,"ìĪĺëıĦ":6229,"ìĿ´ì£ł":6230,"ê°Īë¹Ħ":6231,"Ġê³¼ìłķ":6232,"ipe":6233,"Ġparts":6234,"Ġswe":6235,"ias":6236,"izes":6237,"ì¹ĺê°Ģ":6238,"Ġconcern":6239,"áĦ":6240,"iam":6241,"Che":6242,"ìĤ¬ìĿ´":6243,"ìķĦëĭĪ":6244,"Ġbool":6245,"ì¢Į":6246,"Ġstructure":6247,"ĠLet":6248,"Ġê¸°ê°Ħ":6249,"Ġìłķë¦¬":6250,"Ġreading":6251,"Ġopportunity":6252,"ìķĺìĬµëĭĪëĭ¤":6253,"ëĦĺ":6254,"Ġlooks":6255,"}_{":6256,"íĶĦë¡ľ":6257,"Ġëľ»":6258,"ìĿ´ìĸ´íĬ¸":6259,"Ġdirectly":6260,"Ġê²¬":6261,"ìĽĲìĹĲ":6262,"Ġìĭ«":6263,"current":6264,"Ġ$(":6265,"íĤ¬":6266,"Ġìª½":6267,"Ġë§¡":6268,"ĠìĭľìĽĲ":6269,"Ġdrive":6270,"ì§Ģë¡ľ":6271,"App":6272,"Ġmodern":6273,"ë°ĸìĹĲ":6274,"Ġmethods":6275,"ìľ¤":6276,"false":6277,"ìĹĨëĬĶ":6278,"Ġda":6279,"Ġanyone":6280,"ĠíĿ¬":6281,"Ġsun":6282,"Ġcompl":6283,"ìķĦì§Ģ":6284,"ï¼Į":6285,"ĠMon":6286,"Ġdog":6287,"Ġwide":6288,"Ġinsp":6289,"íĻĶê°Ģ":6290,"ëĶĶìĺ¤":6291,"Ġgives":6292,"Ġì¢ĭëĭ¤":6293,"Ġê°ĢìĦľ":6294,"ëĭ¤ìĭľ":6295,"SP":6296,"īìŀ¥íŀĪ":6297,"rest":6298,"ìĿ´ìĥģ":6299,"Ġê°Ģìļ´ëį°":6300,"ìĭľìĦ¤":6301,"Ġrecent":6302,"ì²ĺìĿĮ":6303,"Ġcy":6304,"ìĿ´ëĿ¼ë©´":6305,"æľ":6306,"like":6307,"loat":6308,"ë°©ë²ķ":6309,"len":6310,"ĠìĽĢ":6311,"Ġstatus":6312,"UM":6313,"Ġë¹ĦìĬ·":6314,"ama":6315,"âĢ¢":6316,"child":6317,"Ġëľ¨":6318,"TD":6319,"Image":6320,"ĠìłĦë§Ŀ":6321,"context":6322,"Ġeducation":6323,"ìĥ¤":6324,"mathrm":6325,"Ġregion":6326,"ë¨¹ê³ł":6327,"Ġadmin":6328,"ëĲĺì§Ģ":6329,"ĠìĿ´ë²¤íĬ¸":6330,"aches":6331,"ì§ĢìĹĲ":6332,"Ġdeath":6333,"ë²¨":6334,"ptions":6335,"Ġdefined":6336,"ĠDon":6337,"Ġavoid":6338,"Ġìĸ¼ë§ĪëĤĺ":6339,"íĶ¼ë¶Ģ":6340,"icrosoft":6341,">>":6342,"Ġì§ľ":6343,"Ġgen":6344,"gamma":6345,"íļĮë¥¼":6346,"ĠìĻĦìĦ±":6347,"ĠÑĤ":6348,"Ġworked":6349,"Ġquickly":6350,"ĠSw":6351,"Ġìĺ¤ëĬĶ":6352,"ental":6353,"iers":6354,"theta":6355,"ìĹĪì§Ģë§Į":6356,"ĺĳ":6357,"That":6358,"ë¡ľëĬĶ":6359,"ìĤ¬ìļ©":6360,"Ġfeed":6361,"ìĸ´ëĸ":6362,"ĠClass":6363,"Ġíĺ¼ìŀĲ":6364,"íģ°":6365,"Ġlos":6366,"Ġprojects":6367,"íİ´ê¸°":6368,"aa":6369,"zz":6370,"Ġì«":6371,"ĠìĿ´ëĤł":6372,"ĠìĿ¸íķ´":6373,"ocks":6374,"Ġrecommend":6375,"Ġtour":6376,"Ġworth":6377,"rip":6378,"ĵ¨":6379,"ðŁĺ":6380,"ìłł":6381,"Ġship":6382,"áħ":6383,"IF":6384,"Ë·}$":6385,"Ġinsurance":6386,"Ġê½¤":6387,"Act":6388,"Ġeffective":6389,"ological":6390,"ĠSim":6391,"Ġnote":6392,"Ġsatisf":6393,"elebr":6394,"Ġpolicy":6395,"Ġimmedi":6396,"ìĿ´ê¸°":6397,"ìĿ´ìķ¼":6398,"TY":6399,"Ġcomputer":6400,"Ġaffect":6401,"ì¹ĺê³ł":6402,"xi":6403,"Ġê¸°ì¡´":6404,"istry":6405,"ë½":6406,"Ġìķ½ê°Ħ":6407,"Ġì½Ķë¡ľëĤĺ":6408,"Ġtim":6409,"ë§ĮìĿĺ":6410,"Ġê¸°ë¶Ħ":6411,"Ġsales":6412,"Ġrepl":6413,"SC":6414,"aby":6415,"Ġë°ĶëŀįëĭĪëĭ¤":6416,"Ġhor":6417,"Ġplatform":6418,"Ġeyes":6419,"Ġactivities":6420,"ëıĦìĭľ":6421,"ĠHigh":6422,"Ġpattern":6423,"ĠëĬ¥":6424,"inate":6425,"AME":6426,"ê¸ĪìĿĦ":6427,"ocket":6428,"ìķ¤":6429,"ĠCr":6430,"íĺĪ":6431,"Ġë°ĽìĿĦ":6432,"Ġê·¸ëŀĺëıĦ":6433,"Ġentry":6434,"atur":6435,"ìľ¼ë©´ìĦľ":6436,"Ġcool":6437,"Ġsong":6438,"ì£¼ì°¨":6439,"Group":6440,"íĮ©":6441,"Ġones":6442,"Ġë¹µ":6443,"Ġple":6444,"ë¹Ī":6445,"ros":6446,"reet":6447,"ham":6448,"Ġgrowth":6449,"(){":6450,"Ġblo":6451,"Ġgraph":6452,"delta":6453,"Ġvers":6454,"Ġì§ĳì¤ĳ":6455,"PC":6456,"Ð¸ÑĤ":6457,"ëĤĻ":6458,"Ġarticle":6459,"ĠWest":6460,"ìĹ¬ìĦľ":6461,"ëĮĢíķľ":6462,"Ġexpress":6463,"ĠFin":6464,"Ġelements":6465,"ĠíķłìĿ¸":6466,"ëŀ«":6467,"=\"#":6468,"ì¹Ļ":6469,"ĠëĦ¤ìĿ´ë²Ħ":6470,"ìķĺëĬĶëį°":6471,"Ġë¶Ħëĵ¤ìĿĢ":6472,"ĠëĮĢë¶Ģë¶Ħ":6473,"ĠMc":6474,"Ġbehav":6475,"ĠêµŃê°Ģ":6476,"Ġspeed":6477,"ĠëĶ°ë¥´ë©´":6478,"Ġëħ¸ëł¥":6479,"ĠëĤĺìĦľ":6480,"ences":6481,"âĶĢ":6482,"has":6483,"Ġkids":6484,"Ġëª¨ìĬµìĿĦ":6485,"Ġprevent":6486,"Input":6487,"ìĹ¬ëŁ¬":6488,"hood":6489,"iding":6490,"Ġtried":6491,"ĠìĹĨê³ł":6492,"Ġhair":6493,"cing":6494,"ëŀĦ":6495,"^{-Ë·":6496,"ê²łìĸ´ìļĶ":6497,"Ġcontrib":6498,"Ġë§Ŀ":6499,"Ġê¹Ĭ":6500,"ĠPe":6501,"Ġskills":6502,"erences":6503,"Ġìļķ":6504,"ĠíļĮìĤ¬":6505,"Ġslow":6506,"Ġcand":6507,"ĠìĪľê°Ħ":6508,"Ġhands":6509,"êµŃìĪĺ":6510,"avy":6511,"ì¦Į":6512,"figure":6513,"Ġíķĺë©´ìĦľ":6514,"iring":6515,"package":6516,"Ġë¯¸ë¦¬":6517,"Ġvariety":6518,"ĠPres":6519,"ë¦¬ì¹´":6520,"Ġcatch":6521,"ida":6522,"åı":6523,"ì§Ģì§Ģ":6524,"Ġqual":6525,"idered":6526,"ìľ¼ë¡ľëĬĶ":6527,"ìĤ¬ëŀĳ":6528,"cel":6529,"ÐµÐ½Ð¸":6530,"ìĿ¸ìĿĢ":6531,"Ġexcell":6532,"Ġaverage":6533,"Ġformat":6534,"Ġê·¸ëŁ°ì§Ģ":6535,"ondon":6536,"Arg":6537,"ëĿ¼ë§Ī":6538,"aries":6539,"ĠìĿ¸íħĮë¦¬ìĸ´":6540,"Ġë´ī":6541,"ĠTest":6542,"Ġanalysis":6543,"Ġconsist":6544,"Status":6545,"ë¶ĦìĹĲ":6546,"method":6547,"enced":6548,"Ġëĭ¤ëĭĪ":6549,"ëŁ¬ìĬ¤":6550,"chan":6551,"izer":6552,"ĠRec":6553,"Ġë°ĽìĿĢ":6554,"Ġ+=":6555,"ìŀĲë¡ľ":6556,"ements":6557,"dir":6558,"Ġweeks":6559,"idget":6560,"TO":6561,"ooth":6562,"ening":6563,"Ġlines":6564,"ĠÂ«":6565,"Ġcouple":6566,"Ġë°©ìĨ¡":6567,"ìĬ¤íĨł":6568,"ĠìĦ¼":6569,"ë²Īíĺ¸":6570,"find":6571,"ĠìĿ´ëŁ¬":6572,"íĦ¸":6573,"Ġbooks":6574,"ĠëıĦìĭľ":6575,"cell":6576,"client":6577,"google":6578,"std":6579,"Ġë³´ê¸°":6580,"ĠëĬ¦":6581,"Ġmount":6582,"ĠíĻľëıĻ":6583,"times":6584,"Ġlate":6585,"Ġê²°êµŃ":6586,"Ġresources":6587,"ê·¸ëŁ¼":6588,"ÐºÐ¸":6589,"Ġë§Īë¬´ë¦¬":6590,"ici":6591,"$$":6592,"haps":6593,"ĉĊ":6594,"After":6595,"ì²¨":6596,"illing":6597,"Ġê²½ê¸°":6598,"Line":6599,"Ġë°ľê²¬":6600,"íķĺìŀĲ":6601,"Ġãħĭ":6602,"Ġì§ĢëĤľíķ´":6603,"ĠëĮĢë¹Ħ":6604,"ìĿĺë¥¼":6605,"Lay":6606,"Ġdriv":6607,"center":6608,"ëĭ¤ìļ´":6609,"Ġsem":6610,"Ġìĸ´ìļ¸":6611,"Ġwrong":6612,"---":6613,"Method":6614,"Ġsolutions":6615,"Ġgroups":6616,"Ġcredit":6617,"Ġboard":6618,"ìŀ¬ìĥĿ":6619,"Ġcas":6620,"Ġìĭľê°ĦìĿĦ":6621,"ë£¹":6622,"QL":6623,"EM":6624,"ĠArt":6625,"pat":6626,"itter":6627,"Ġì´ī":6628,"Ġì¤ĳìĭ¬":6629,"sim":6630,"Ġê¼¬":6631,"Ġbegan":6632,"arter":6633,"ì¶ĺ":6634,"Ġì¡´ìŀ¬":6635,"Ġì§ĢìĨį":6636,"Ĩį":6637,"Ð¾Ñģ":6638,"Aut":6639,"ĠìĦ±ìŀ¥":6640,"ĦìĥĪ":6641,"ĠëķĮëĬĶ":6642,"ì¤¬":6643,"Stream":6644,"ĠApril":6645,"ëŀľë§ĮìĹĲ":6646,"Ġmention":6647,"Ġfont":6648,"Ġì²ŃìĨĮ":6649,"uster":6650,"_.":6651,"Ġattempt":6652,"parent":6653,"ìĥģìĹĲ":6654,"Ġmeasure":6655,"rho":6656,"Ġlatest":6657,"su":6658,"ìĥµ":6659,"options":6660,"nu":6661,"ëŀ¬":6662,"ĠÐ°":6663,"Select":6664,"Override":6665,"atory":6666,"Ġì§ĳìĹĲ":6667,"ëľ¨":6668,"Ġëª¨ëį¸":6669,"Builder":6670,"Ġê³łê¸°":6671,"ĠSee":6672,"Ġjoin":6673,"ê²ĥìĿĢ":6674,"Ġë§ĪìĿĮìĹĲ":6675,"ĠìĥĿìĤ°":6676,"Ġì»¬ëŁ¬":6677,"Ġdark":6678,"gor":6679,"ĠAug":6680,"Ġleading":6681,"Ġbecame":6682,"ĠìķĪëĤ´":6683,"Ġten":6684,"íŀĮ":6685,"ê·¸ëŁ°ëį°":6686,"ĠTHE":6687,"íķ¨ìĿĦ":6688,"ëłī":6689,"End":6690,"ëĮ":6691,"ĠSec":6692,"ename":6693,"íĻĢ":6694,"Ġattack":6695,"ĠìŀĪëįĺ":6696,"Ġìłľê±°":6697,"ĠìĹ°ëĿ½":6698,"uid":6699,"Ġì´¬ìĺģ":6700,"host":6701,"Ġthemselves":6702,"ĠëıĦìĽĢìĿ´":6703,"ĠìĿ¼ë¶Ģ":6704,"Ġê²Ģìĥī":6705,"ĠFrom":6706,"Ġremove":6707,"Ġë¶ĦìĦĿ":6708,"oe":6709,"Ġtask":6710,"Ġdecl":6711,"Ġfine":6712,"Ġì£¼ë§Ĳ":6713,"apping":6714,"ìĽĲìĿĺ":6715,"Ġsolid":6716,"fa":6717,"ĠGerm":6718,"ìŀĲë¦¬":6719,">(":6720,"ëªħìĿĦ":6721,"Ġgoal":6722,"ĠìŀĳìĦ±":6723,"char":6724,"Ġunit":6725,"ependent":6726,"ĠìĪĺì¤Ģ":6727,"ĠHer":6728,"ĠHere":6729,"append":6730,"ĠTrans":6731,"Ġability":6732,"Ġfrequ":6733,"ãĢĤ":6734,"ĠìĤ¬ì§ĦìĿĦ":6735,"leq":6736,"ê°Ģê³ł":6737,"Ġrights":6738,"ìļ´ëıĻ":6739,"main":6740,"Ġtools":6741,"Ġlevels":6742,"comes":6743,"ialog":6744,"ĠOct":6745,"Ġë§¤ìĿ¼":6746,"Ġassociated":6747,"ìĪĺë¡Ŀ":6748,"Ġê²¨ìļ¸":6749,"Ġconsidered":6750,"Ġdepend":6751,"Ġauto":6752,"ĠìĹĨìĸ´ìĦľ":6753,"Ġprec":6754,"Ġnice":6755,"Ġì¢ĭê³ł":6756,"Ġpositive":6757,"íĻĺê²½":6758,"ìºĲ":6759,"ĠìĤ¼ìĦ±":6760,"ĠGoogle":6761,"Ġna":6762,"ĠAustral":6763,"hern":6764,"ĠCounty":6765,"ĠMore":6766,"Ġmaterials":6767,"Ġmorning":6768,"Ġpark":6769,"EL":6770,"Ġproperties":6771,"Str":6772,"ì¢Ģ":6773,"Ġsus":6774,"Ġlost":6775,"Ġball":6776,"Ġê±°ëŀĺ":6777,"inding":6778,"Ġinternational":6779,"Ġutil":6780,"ĠëĦ£ê³ł":6781,"ĠEnglish":6782,"anger":6783,"Ġmother":6784,"Ġì¦ī":6785,"Ġlives":6786,"ociety":6787,"ĠëĤ¨ìŀĲ":6788,"ĠìĿ´ë¥¼":6789,"header":6790,"ĠíĻķìĭ¤":6791,"Ġnational":6792,"íķĺëįĺ":6793,"btn":6794,"ĠCenter":6795,"mem":6796,"Ġconnection":6797,"elete":6798,"ìĿ´ë©´":6799,"ĠìĪĺê°Ģ":6800,"Ġproviding":6801,"Ġfresh":6802,"íĴĢ":6803,"Gener":6804,"status":6805,"Â»":6806,"iÃ³n":6807,"ãĨį":6808,"She":6809,"Ġenter":6810,"Ġdim":6811,"ĠìĨĮë¹Ħ":6812,"ĠìĤ¬ê±´":6813,"uses":6814,"OW":6815,"Ġrecently":6816,"Ġtemper":6817,"ournal":6818,"ìħĶìķ¼":6819,"ĠìŀĲìľł":6820,"Ġì½ĺ":6821,"Ġê¹¨ëģĹ":6822,"ano":6823,"ëĭ¤ëĭĪ":6824,"ĠAcc":6825,"Pos":6826,"ĠBrit":6827,"Ġìĺģìĸ´":6828,"ĠíĶ¼íķ´":6829,"ĠNe":6830,"ëĦ¤ìĿ´ë²Ħ":6831,"Ġbutton":6832,"Ġuses":6833,"ĠAc":6834,"ĠAir":6835,"ara":6836,"ÐµÐ¼":6837,"ĠPlease":6838,"ìłķë¶Ģ":6839,"ìĥģìĿĺ":6840,"ë¦¬ê¸°":6841,"Ġsell":6842,"Ġpull":6843,"ëł¤ë©´":6844,"Ë·$,":6845,"ìłĦìĿĦ":6846,"ä»":6847,"Ġanim":6848,"rupt":6849,"ĠìĿ´ê³³":6850,"ëĤĺê²Į":6851,"ĠÐ¡":6852,"ë°¤":6853,"ê²¹":6854,"Ġconstant":6855,"Ġplant":6856,"Source":6857,"Ġtrust":6858,"ĠApp":6859,"Ġcorrespond":6860,"Ġstream":6861,"ìĩ":6862,"ture":6863,"encies":6864,"ĠíĻĺê²½":6865,"ella":6866,"íĸĪì§Ģë§Į":6867,"ishing":6868,"ategy":6869,"ì¤įëĭĪëĭ¤":6870,"aly":6871,"ìĺĪìķ½":6872,"args":6873,"Ġsym":6874,"Ġsafe":6875,"Ġhandle":6876,"ĠíĺĦëĮĢ":6877,"ìłĦìŀĲ":6878,"ĲëŁ¬":6879,"nes":6880,"íĸĪëĭ¤ê³ł":6881,"Ġtouch":6882,"Ġë£¨":6883,"ê¸°ê³ł":6884,"enty":6885,"Ġmedical":6886,"Ġmachine":6887,"Ġpatients":6888,"Ġfelt":6889,"Ġê·ľëª¨":6890,"Ġgreen":6891,"kg":6892,"Ġattention":6893,"Ġroll":6894,"CL":6895,"INT":6896,"=\"+Ë·":6897,"Ġãħł":6898,"ë¡Ńê²Į":6899,"Ġactive":6900,"ĠSte":6901,"ëĩ":6902,"CK":6903,"ĠìĭľìĬ¤íħľ":6904,"Ġplayers":6905,"ĠìĽĢì§ģ":6906,"itect":6907,"ĠOF":6908,"mt":6909,"ĠìłķíĻķ":6910,"cs":6911,"uy":6912,"Ġamazing":6913,"ĠMarch":6914,"Ġsomet":6915,"ugin":6916,"ĠíĥĢê³ł":6917,"ĠWhile":6918,"Ġbud":6919,"Ġë§ŀëĬĶ":6920,"íĵ¨":6921,"íĶ½":6922,"ë»Ĳ":6923,"Ġë´Ħ":6924,"Ġleaders":6925,"Ġêµ¬ì¡°":6926,"Ġcelebr":6927,"Ġcontains":6928,"Ġmyself":6929,"Ġêµ¬ê²½":6930,"ëĳ¥":6931,"ĠUp":6932,"src":6933,"ĠëĲĺìĹĪ":6934,"ĠĠĠĠĠĠĠĠĊ":6935,"ĠëĶ°ëľ»":6936,"ĠìĤ´íİ´":6937,"Ġremember":6938,"Ġimm":6939,"ĠSk":6940,"pected":6941,"ëĿ¼ìĬ¤":6942,"Ġsetting":6943,"Ġep":6944,"last":6945,"ì¥¬":6946,"ë¬¸ìĿĺ":6947,"bum":6948,"Content":6949,"vey":6950,"Ġmeeting":6951,"png":6952,"lem":6953,"Ġmarketing":6954,"BA":6955,"Ġfunctions":6956,"EE":6957,"Ġstudent":6958,"ĠRem":6959,"ëĮĢìĹĲ":6960,"ĠST":6961,"ĠíıĲ":6962,"Ġkitchen":6963,"ë§ĪìŀĲ":6964,"Ġë§ĽìŀĪê²Į":6965,"ĠìĬ¤ë§ĪíĬ¸":6966,"rive":6967,"Ġprograms":6968,"ĠRed":6969,"Ġhighly":6970,"ĠëĤĺìĿĺ":6971,"Ġdecision":6972,"Ġcosts":6973,"partial":6974,"Ã£":6975,"atives":6976,"ìĻľ":6977,"Ġaccom":6978,"bottom":6979,"ector":6980,"Ð°ÑĤ":6981,"\"),":6982,"aign":6983,"ĠìľĦìĹĲ":6984,"Ġìľ¤":6985,"push":6986,"ê¸°ê´Ģ":6987,"íĩ´":6988,"fty":6989,"eline":6990,"tau":6991,"display":6992,"Off":6993,"Sp":6994,"det":6995,"Ġê³µê°ľ":6996,"Ñī":6997,"else":6998,"ĠìŀĪëĭµëĭĪëĭ¤":6999,"Ġëįľ":7000,"Ġsummer":7001,"ĠìķĪìĹĲ":7002,"Ġdifference":7003,"Ġeval":7004,"Ġfully":7005,"itable":7006,"ëĭī":7007,"Ġlooked":7008,"Ġinvolved":7009,"vec":7010,"ĠìĹŃíķł":7011,"band":7012,"ê¸°ìĿĺ":7013,"ĠEm":7014,"ula":7015,"ĠWar":7016,"Ġchalleng":7017,"ĠMus":7018,"ìĦľëĬĶ":7019,"ë°ĶìĿ´":7020,"ĉĉĉĉĉĉĉĉ":7021,"thon":7022,"Ġvon":7023,"server":7024,"Ġìĥ¤":7025,"Ġcommit":7026,"Point":7027,"ĠìĤ¬ìĿ´ì¦Ī":7028,"ìĹ½":7029,"ĠOR":7030,"Ġfloor":7031,"Ġê²°íĺ¼":7032,"ĠHar":7033,"íķĺê¸°ëıĦ":7034,"ìĦ¸ê³Ħ":7035,"Ġded":7036,"Ġfix":7037,"ëŃĲ":7038,"Ġìķķ":7039,"ĠìĺĪìģľ":7040,"ĠNet":7041,"ë¹Ļ":7042,"íķĺê±°ëĤĺ":7043,"Ġmess":7044,"Cell":7045,"Ġnature":7046,"Ġpor":7047,"rl":7048,"android":7049,"Ġq":7050,"Comm":7051,"íķľëĭ¤ëĬĶ":7052,"Ġprem":7053,"asons":7054,"Ġë¹¨ë¦¬":7055,"!\"":7056,"aling":7057,"Ë·].":7058,"Ġì»´":7059,"ĠëĭŃ":7060,"river":7061,"Ġêµīìŀ¥íŀĪ":7062,"ì»¬":7063,"ìŀĦìĿĦ":7064,"Ġrelease":7065,"ĠëĲĺìĹĪëĭ¤":7066,"pass":7067,"Ġì§Ģë°©":7068,"arden":7069,"Ġstreng":7070,"Ġë¹Į":7071,"namespace":7072,"ĠHol":7073,"Start":7074,"Ġê°ķíĻĶ":7075,"dat":7076,"ĠĠĠĠĠĠĠĠĠĠĠĠĠĠ":7077,"ĠìłĦêµŃ":7078,"Ġê¸Īìľµ":7079,"ĠìķĦìī¬":7080,"Ġcompletely":7081,"ĠPC":7082,"Ġpiece":7083,"Ġêº¼":7084,"Ġcreating":7085,"Ġchance":7086,"Ġëĥī":7087,"first":7088,"Ġrev":7089,"Ġessential":7090,"íŀĺ":7091,"Ġemb":7092,"wood":7093,"Ġstates":7094,"xim":7095,";</":7096,"Ġmobile":7097,"Ġgoes":7098,"íķĺìĺĢ":7099,"Ñĺ":7100,"ĠìĿ¸ê°Ħ":7101,"Ġgiving":7102,"ë¬¸ìĿĦ":7103,"Ë·}{Ë·":7104,"*/":7105,"={":7106,"Ġìį":7107,"vant":7108,"ìĤ°ìĹħ":7109,"ĠëģĮ":7110,"Ġê°ľìĦł":7111,"ĠChar":7112,"Ġwel":7113,"cover":7114,"ĠStr":7115,"ĠSept":7116,"ervices":7117,"ĠìĦľë¡ľ":7118,"Ġëĭ¬ëĿ¼":7119,"plies":7120,"eful":7121,"ĠService":7122,"Ġpurchase":7123,"Ġexactly":7124,"ague":7125,"Ġmemory":7126,"ëģĦ":7127,"Head":7128,"ĠLondon":7129,"Ġëģĵ":7130,"rought":7131,"ê°ĢìļĶ":7132,"itude":7133,"ĠHouse":7134,"ë¹Ħê°Ģ":7135,"more":7136,"Ġìłķìĭł":7137,"Ġë¹Ħìļ©":7138,"Ġprogress":7139,"gorith":7140,"ĠCON":7141,"Ġabsol":7142,"EO":7143,"target":7144,"ĠAmerica":7145,"Ġsurpr":7146,"Ġ($":7147,"ĠData":7148,"ì³¤":7149,"Ġëĭ¹ìĭł":7150,"Ġbank":7151,"erve":7152,"Ġdoc":7153,"UP":7154,"ĠìĹ¼":7155,"Ġë¬¸íĻĶ":7156,"ëª¸":7157,"ëĨĵê³ł":7158,"ĠëķĮë¬¸ìĿ´ëĭ¤":7159,"Ġë¥":7160,"Ë·$.":7161,"ĠìĿĮìķħ":7162,"Ġìĵ¸":7163,"ĠDav":7164,"Ġequipment":7165,"Ġsurface":7166,"íķĺë£¨":7167,"Ġofficial":7168,"âĻ¥":7169,"\").":7170,"apan":7171,"ëħĦìĹĲ":7172,"Now":7173,"Ġaf":7174,"âĶĢâĶĢ":7175,"ì£Ħ":7176,"oom":7177,"ĠInc":7178,"Ġì¢Į":7179,"Ġconcept":7180,"Ġtele":7181,"```":7182,"Ġinteresting":7183,"Ġê²½ìļ°ê°Ģ":7184,"Fl":7185,"!Ë·":7186,"Ġëĭ¹ìĭľ":7187,"mar":7188,"edding":7189,"Ġíķĺëĭ¤":7190,"Ġstorage":7191,"ĠDay":7192,"Ġresource":7193,"Ġknew":7194,"¢°":7195,"Ë·%,":7196,"Util":7197,"Ġë§ĮëĵľëĬĶ":7198,"Ġìĭľìŀ¥":7199,"ĠìĤ¬ìļ©íķł":7200,"ĠìĿ¸ìłķ":7201,"cret":7202,"actions":7203,"ìŀĪìĸ´ìĦľ":7204,"Instance":7205,"Ġliter":7206,"ìķĦë¬´":7207,"Ġplus":7208,"ares":7209,"ë¹Ħë¥¼":7210,"íĺģ":7211,"Ġê±´ë¬¼":7212,"Ġspeak":7213,"Ġmargin":7214,"Ġachieve":7215,"oding":7216,",,,":7217,"Ð°ÑĢ":7218,"num":7219,"Ġsy":7220,"rated":7221,"ĠUK":7222,"Ġëĸ¡":7223,"ua":7224,"Ġëĵ¤ê³ł":7225,"Ġhear":7226,"ĠìĹ¬ìŀĲ":7227,"ĠìłĦíĺĢ":7228,"ĠìłĲìĭ¬":7229,"Ġcareer":7230,"oz":7231,"Ġquant":7232,"RA":7233,"ĠMr":7234,"ĠëŃĶê°Ģ":7235,"Ġíķĺê²Į":7236,"ĠSan":7237,"Run":7238,"ê²ĥìĿĦ":7239,"strong":7240,"ĠAng":7241,"Ġphysical":7242,"ìĸ´ëĤľ":7243,"\\\"":7244,"Ġbottom":7245,"ìĿ´ëŀĢ":7246,"wide":7247,"Ġsubst":7248,"Ġë¶Īíİ¸":7249,"ë¢°":7250,"Ġwasn":7251,"DA":7252,"ĠìĬ¤íĥĢìĿ¼":7253,"?!":7254,"write":7255,"Ġëª©íĳľ":7256,"¾Į":7257,"augh":7258,"Ġì¢ĭìĬµëĭĪëĭ¤":7259,"ëĢ":7260,"Ġinf":7261,"ë¤":7262,"Ġtag":7263,"Ġbath":7264,"Ġurl":7265,"ëĤĺê³ł":7266,"ĠìĿ¸íĦ°ëĦ·":7267,"ë¦¬ë¡ľ":7268,"Ġhit":7269,"ê³¼ìĿĺ":7270,"ĠìĹĨìĿĦ":7271,"Ġreach":7272,"uate":7273,"FI":7274,"+\\":7275,"amily":7276,"Base":7277,"Ġsold":7278,"à¸":7279,"Ġstarting":7280,"ãģ®":7281,"ë³´íĹĺ":7282,"ĠíĿ¡":7283,"ught":7284,"Ġencour":7285,"abs":7286,"ĠìĿ¼ìĿĦ":7287,"ĠLicense":7288,"Ġìĺ¤íĶĪ":7289,"Ġparents":7290,"íĶ¼ìĬ¤":7291,"Ãł":7292,"Ġaltern":7293,"Ġhelps":7294,"cy":7295,"ĠRE":7296,"Ġíĩ´":7297,"Ġdecided":7298,"ario":7299,"Ġled":7300,"Ġë³Ħë¡ľ":7301,"local":7302,"Ë·,-Ë·":7303,"Ġhimself":7304,"Ġlif":7305,"Ġneigh":7306,"ptr":7307,"ĠOf":7308,"ì²ŃìĨĮ":7309,"Ġì²´íĹĺ":7310,"ì§Ģê²Į":7311,"infty":7312,"¨ìĶ¬":7313,"TP":7314,"ì¼°":7315,"Ġinj":7316,"ìŀī":7317,"ĠãĢ":7318,"oul":7319,"spec":7320,"êµ¬ë¥¼":7321,"Ġinform":7322,"Bar":7323,"ĠAfr":7324,"ëĭĲ":7325,"rate":7326,"Ġexcept":7327,"íĻĪ":7328,"Ġë°ĳ":7329,"Ġë§ĲìĿĦ":7330,"Ġë¹Ľ":7331,"DF":7332,"ëĤ©":7333,"íĺĦìŀ¬":7334,"Token":7335,"ì¡°ê±´":7336,"Ġcomment":7337,"Ġíĺ¸íħĶ":7338,"Ġê³łê¸ī":7339,"ê°Ģë£¨":7340,"ìĬ¤íħĮ":7341,"Ã£o":7342,"Ġpicture":7343,"Ġband":7344,"Ġì¶Ķì§Ħ":7345,"Ġgave":7346,"Ġíķ´ìĻ¸":7347,"Ġë¬¸ìłľê°Ģ":7348,"Box":7349,"ecause":7350,"Ġblue":7351,"Ġãħİãħİãħİ":7352,"ĠíķĺëĭĪ":7353,"itory":7354,"arant":7355,"ĠìĭľíĹĺ":7356,"Ġgold":7357,"Ġtree":7358,"ĠìĬµ":7359,"Ġbi":7360,"ë¬¸íĻĶ":7361,"level":7362,"Ġein":7363,"orge":7364,"ĠíĮ¬":7365,"Ġexcellent":7366,"SI":7367,"Ġë²Ĺ":7368,"ester":7369,"Ġíķµ":7370,"Ġinflu":7371,"Ġturned":7372,"ëĲĺë©´":7373,"ega":7374,"Ġnumbers":7375,"ĠOut":7376,"ìĸ´ë¥¼":7377,"enge":7378,"Ġcountries":7379,"Ġdise":7380,"roy":7381,"eqref":7382,"Ġtransform":7383,"Ġexpert":7384,"Ġê·¸ë¦¬":7385,"rypt":7386,"Ð¾ÑĤ":7387,"ington":7388,"Ġsometimes":7389,"Ġconstruct":7390,"ê·¸ëŁ¬ëĤĺ":7391,"Ð¾Ðº":7392,"Ġìĺģìĥģ":7393,"Ġmer":7394,"ĠJune":7395,"});":7396,"ê±´ê°ķ":7397,"ì§ĢìĽĲ":7398,"Ġnumer":7399,"ìĿ¼ëĭ¨":7400,"Ġë¶ĢëıĻìĤ°":7401,"het":7402,"rench":7403,"Ġìľłëªħíķľ":7404,"Ġfamil":7405,"ë§ĺ":7406,"Ġapplications":7407,"íķĺëĭ¤ëĬĶ":7408,"ëĿ¼ìļ´":7409,"])":7410,"ĠìĮ":7411,"íģĲ":7412,"Ġsequ":7413,"Ġdeveloped":7414,"Ġfavorite":7415,"SON":7416,"CON":7417,"ĠíŀĪ":7418,"å¤":7419,"Ġteacher":7420,"ests":7421,"çĶ":7422,"Ġdaily":7423,"ography":7424,"ĠíķĦìĪĺ":7425,"ìĹ°íŀĪ":7426,"Ġthinking":7427,"rown":7428,"ë¦°ëĭ¤":7429,"prototype":7430,"ĠInternational":7431,"Ġplans":7432,"ëĤ¬ëĭ¤":7433,"Gr":7434,"Ġtast":7435,"Ġing":7436,"ford":7437,"Ġspect":7438,"ĠìĹĶ":7439,"ëĮĢìĿĺ":7440,"ĠBro":7441,"gener":7442,"usiness":7443,"Ġmid":7444,"icks":7445,"Ġformer":7446,"ê°ľë¥¼":7447,"Ġê·¸ëŁ¬ëĤĺ":7448,"Ġheat":7449,"hold":7450,"Check":7451,"Ġíķĺìĭľ":7452,"Ġglass":7453,"Ġbenefits":7454,"Ġtowards":7455,"ê°Ķëĭ¤":7456,"ĠëĪĪìĹĲ":7457,"ìħĢ":7458,"module":7459,"attle":7460,"Ġëģ¼":7461,"Action":7462,"Ġcharg":7463,"ì¹´ëĵľ":7464,"ĠDef":7465,"ql":7466,"ãħĩ":7467,"Ġdigital":7468,"istics":7469,"iance":7470,"ê·¸ëłĩ":7471,"iques":7472,"oto":7473,"Ġìĭłê²½":7474,"rief":7475,"ĠPat":7476,"Create":7477,"ĠÐ·Ð°":7478,"Ġê°ĢëĬ¥íķ©ëĭĪëĭ¤":7479,"foot":7480,"ë§ĪìĿĦ":7481,"Ġalt":7482,"Component":7483,"CD":7484,"Ġgets":7485,"Ġprotected":7486,"Ġactivity":7487,"PO":7488,"Ġhistor":7489,"ocr":7490,"Ġchanged":7491,"Ġreference":7492,"Ġrent":7493,"Ġsale":7494,"Ġsuccessful":7495,"Ġnone":7496,"iven":7497,"Ġì£¼íĥĿ":7498,"Ġê·¼ì²ĺ":7499,"íĬ¸ë¡ľ":7500,"Handler":7501,"ĠWindows":7502,"stream":7503,"Ġexisting":7504,"ìķĦíĮĮíĬ¸":7505,"Ġìĸ´ì©":7506,"ìĦľë¥¼":7507,"ëĭĺëĵ¤":7508,"Ġappropri":7509,"Ġrestaur":7510,"Ġwarm":7511,"xml":7512,"sem":7513,"ĠìŀĪìľ¼ë©´":7514,"otal":7515,"Ġì±Ļê²¨":7516,"Ġappre":7517,"Ġsafety":7518,"ĠìĿ¼ëĭ¨":7519,"ĠìĪĺìĹħ":7520,"ìĿ´ìħĺ":7521,"utor":7522,"Default":7523,"TV":7524,"Ġrequirements":7525,"Ġë³¶":7526,"Ġfair":7527,"åħ":7528,"Ġplaying":7529,"ÑĨÐ¸":7530,"ĠìĪĺìĿµ":7531,"Ġsituation":7532,"Ġactual":7533,"gn":7534,"ìĬ¤ëŁ½ê²Į":7535,"Ġë§ŀì¶°":7536,"Ġmulti":7537,"ĠìĮĵ":7538,"ĠWeb":7539,"Ġê°Ģìŀħ":7540,"ĠíħĮìĿ´ë¸Ķ":7541,"DB":7542,"ĠInter":7543,"Ġê°Ģê²Į":7544,"Ġconstruction":7545,"Ġëĵ±ìŀ¥":7546,"Ġë¨¹ìľ¼ë©´":7547,"íķ¨ìĿ´":7548,"Ë·(Ë·":7549,"Ġcontinu":7550,"ĠíķĺëĬĺ":7551,"hr":7552,"hent":7553,"ê¸¸ëŀĺ":7554,"Ġë¶Ģëª¨":7555,"ìłķíķľ":7556,"Ġgas":7557,"Ġìĺ¤ìłĦ":7558,"Ġimag":7559,"Ġlimited":7560,"Ġhour":7561,"Ġviol":7562,"ĠíĽĦê¸°":7563,"Ġ((":7564,"Ë·}{":7565,"ĠDirect":7566,"Ġinternal":7567,"urt":7568,"ê°ľë°ľ":7569,"ëªħìĿĺ":7570,"First":7571,"Ġlegal":7572,"Ġê²½ìŁģ":7573,"hest":7574,"Ġparameters":7575,"ibly":7576,"ĠFirst":7577,"Ġmode":7578,"non":7579,"Ġserious":7580,"ously":7581,"Ġstock":7582,"Ġcontr":7583,"ĠBlack":7584,"ìŀĪìĸ´ìļĶ":7585,"Ġselected":7586,"ĠObject":7587,"Ġsav":7588,"Ë·*":7589,"ĠKing":7590,"adow":7591,"Button":7592,"omega":7593,"Ġìĭ±":7594,"Ġìºł":7595,"atically":7596,"eger":7597,"Ġnames":7598,"Ġë³´íĺ¸":7599,"ë¬¼ë¡ł":7600,"ĠSub":7601,"ë¦ī":7602,"Ġcalcul":7603,"ĠìĦĿ":7604,"Ġ\"\"\"":7605,"ĠíĶĦë¦¬":7606,"Ġdro":7607,"¸ëĵľ":7608,"********************************":7609,"Ġsession":7610,"TS":7611,"Ġë²½":7612,"Ġbroad":7613,"ĠìŀĲëıĻì°¨":7614,"ĠíĥĿ":7615,"Ġwish":7616,"initely":7617,"zon":7618,"ìĦ¸ë¥¼":7619,"Ġuseful":7620,"ãĦ·":7621,"Controller":7622,"ìĿ´ëĿ¼ëıĦ":7623,"Ġë¹Ī":7624,"ë³´ìĦ¸ìļĶ":7625,"Ġorganization":7626,"ìķĪìĹĲ":7627,"ë¶Ļ":7628,"Ġtraditional":7629,"Ġê°ĸê³ł":7630,"miss":7631,"++)":7632,"Ġê³µê¸ī":7633,"Ġìĺ¤ë¥¸":7634,"erred":7635,"Let":7636,"ĠìĹĨìĬµëĭĪëĭ¤":7637,"ìŀĪê²Į":7638,"ensions":7639,"Ġexperi":7640,"gar":7641,"ìķĪìĿĦ":7642,"Ġheard":7643,"store":7644,"Ġhuge":7645,"Ġê¼¼":7646,"íķĺìħ¨":7647,"ĠëĴ·":7648,"erved":7649,"ĠìĦŃ":7650,"arily":7651,"Ġì¶ľìĭľ":7652,"$-":7653,"ĠíķĺëĦ¤ìļĶ":7654,"itute":7655,"Acc":7656,"quad":7657,"ìĨĮíķľ":7658,"íı´":7659,"Ġut":7660,"Ġì¼Ģ":7661,"lier":7662,"ìĹ°êµ¬":7663,"Ġaware":7664,"ĠĠĠĠĠĠĠĠĠĠĠĠĠĠĠĠĠĠĠĠĠĠĠĠĠĠĠĠĠĠĠĠĠĠĠ":7665,"ĠRev":7666,"|\\":7667,"ì»´":7668,"Ġìķ¡":7669,"ĠPort":7670,"Ġplaces":7671,"ê°ĢëĿ½":7672,"Ġmoving":7673,"ëĤ´ëĬĶ":7674,"ributes":7675,"Ġtal":7676,"draw":7677,"ancy":7678,"CA":7679,"Ġquery":7680,"Ġpublished":7681,"íķłëķĮ":7682,"Ġinterface":7683,"########":7684,"Ġarriv":7685,"free":7686,"Ġfather":7687,"ìĦ¸ëĮĢ":7688,"').":7689,"GL":7690,"Ġconsum":7691,"ëŀĺëıĦ":7692,"Ġboy":7693,"sg":7694,"Ġpan":7695,"grad":7696,"ounds":7697,"Delta":7698,"Number":7699,"ovember":7700,"pol":7701,"Ġtick":7702,"íļĮê°Ģ":7703,"âĸ¼":7704,"ĠAre":7705,"ìļ°ëĬĶ":7706,"ë´Ĳìķ¼":7707,"ê°ľìĿ¸":7708,"ê²Ĳ":7709,"ĠíĮĢ":7710,"ëĸ¼":7711,"Ġproced":7712,"iant":7713,"ë¦¬ìĿĺ":7714,"ê²łëĭ¤ëĬĶ":7715,"Ġì¤ĳìĹĲ":7716,"Ġcarry":7717,"PA":7718,"Ġfields":7719,"Ġë¹Ħíķ´":7720,"ĠAugust":7721,"ê±°ëŀĺ":7722,"ĠìĿ¸ìĥĿ":7723,"ĠCons":7724,"Ġê·ĢìĹ¬":7725,"ĠìĹĲìĸ´":7726,"(&":7727,"Ġbirth":7728,"ĠAlso":7729,"Style":7730,"UI":7731,"ulations":7732,"ao":7733,"Ġsites":7734,"Ġfinally":7735,"ĠëĤĺë¬´":7736,"element":7737,"Ġmis":7738,"Ë·}.":7739,"Ġcompos":7740,"format":7741,"ê°ľìĿĺ":7742,"ords":7743,"ìĿ¼ìĹĲ":7744,"ĠìĥĿê°ģìĿĦ":7745,"Ġíķĺë©°":7746,"Attribute":7747,"Ġplayer":7748,"Ġblood":7749,"ë©ĶëĿ¼":7750,"Ġcommerc":7751,"Ġíıīê°Ģ":7752,"Ġê³łëł¤":7753,"Ġfurn":7754,"ìĺĢìĸ´ìļĶ":7755,"lying":7756,"Ġplanning":7757,"Ġê·¸ëĬĶ":7758,"ëĮĢíĳľ":7759,"Ġdatabase":7760,"ĠìĽĲíķĺëĬĶ":7761,"Null":7762,"Ġë§İìķĦìĦľ":7763,"Ġroot":7764,"ABLE":7765,"ìĿ´ëĿ¼ìĦľ":7766,"Ġstage":7767,"Ġselection":7768,"ëĵľë¦¬ê³ł":7769,"ëĴ¤":7770,"ëıĦëĬĶ":7771,"ĠìŀĪëĭ¤ë©´":7772,"Ġuna":7773,"ste":7774,"rial":7775,"Ġê³Ħìķ½":7776,"Ġbasic":7777,"Ass":7778,"Ġsleep":7779,"ĠíĻĪíİĺìĿ´ì§Ģ":7780,"Ġeffects":7781,"ê³µê°Ħ":7782,"ĠHealth":7783,"Ġë°ĶëĢ":7784,"Ġë§İìķĦ":7785,"ëĮĢìłĦ":7786,"Ġbasis":7787,"Ġë°ĸìĹĲ":7788,"ĠRuss":7789,"ĠìĹ¬ëŁ¬ë¶Ħ":7790,"íİľ":7791,"Ġinterested":7792,"icip":7793,"ê³¼ëĬĶ":7794,"IO":7795,"Ġaccur":7796,"Ġseg":7797,"Ġadvant":7798,"ë²¼":7799,"ĠëıĦìĻĢ":7800,"ê³µìĽĲ":7801,"Ġfirm":7802,"ivery":7803,"Ġscale":7804,"mitted":7805,"Ġpurpose":7806,"Part":7807,"Ġframe":7808,"Ġalign":7809,"Ġë°ĽëĬĶ":7810,"ÐµÐ´":7811,"ĠìķĬìķĺëĭ¤":7812,"ìľ¼ëŁ¬":7813,"íŀĪëł¤":7814,"ëģĪ":7815,"ĠFig":7816,"ìŀĸìķĦìļĶ":7817,"ëĲĺìĹĪëĭ¤":7818,"bon":7819,"ĠGroup":7820,"orem":7821,"cember":7822,"Ġdream":7823,"isions":7824,"ìĤ¬ìĹĲ":7825,"ĠAssoci":7826,"ĠNone":7827,"Ġíģ´ë¦Ń":7828,"ĠChina":7829,"adata":7830,"FO":7831,"Row":7832,"ê´ĳìĹŃìĭľ":7833,"jav":7834,"Ġoperation":7835,"ĠìĪ¨":7836,"ĠÐĴ":7837,"iny":7838,"ĠìĻ¸êµŃ":7839,"ĠIndia":7840,"ĠíĸĪìĬµëĭĪëĭ¤":7841,"ĠìĦłìĥĿ":7842,"pc":7843,"ìĦŃ":7844,"ĠëĮĢêµ¬":7845,"Ġíı¬ìŀ¥":7846,"Ġconduct":7847,"Ġprices":7848,"Em":7849,"Ġê¸°ìŀĲ":7850,"attr":7851,"ĠíĮĲëĭ¨":7852,"iences":7853,"Ġmodule":7854,"ĠìŀĪìĹĪìĸ´ìļĶ":7855,"Ġvac":7856,"ttp":7857,"ĠJanuary":7858,"íĭ´":7859,"Ġdry":7860,"Ġgrand":7861,"ë¨¹ëĬĶ":7862,"Ġpolitical":7863,"iture":7864,"ĠSeptember":7865,"exp":7866,"Ġtrip":7867,"signed":7868,"Ġpaint":7869,"Per":7870,"KE":7871,"Sup":7872,"ĠëĮĢíķĻ":7873,"show":7874,"dl":7875,"Ġìļ°ë¦¬ê°Ģ":7876,"ione":7877,"Us":7878,"ĠíĥĢìĿ´":7879,"Ġë¬»":7880,"Ġì£¼ê³ł":7881,"Ġpackage":7882,"apped":7883,"å®":7884,"ened":7885,"Ġdegree":7886,"Ġëª¨ìĸĳ":7887,"riter":7888,"Ġunderstanding":7889,"âĢĿ.":7890,"True":7891,"pg":7892,"ĠHT":7893,"ĠPre":7894,"Ġdead":7895,"Ġacqu":7896,"Ġeye":7897,"Ġallowed":7898,"Ġëĭ¤ë¥´":7899,"Ġfeet":7900,"âĸ¶":7901,"known":7902,"ìª½ìĹĲ":7903,"ì¡°ê¸Ī":7904,"===":7905,"Ġjud":7906,"house":7907,"Ġê°ķì¡°":7908,"undle":7909,"ìĥģëĭ´":7910,"ĠëĤĺê°Ģ":7911,"ëĤ´ê³ł":7912,"icate":7913,"ëĨĢìĿ´":7914,"=\"../../../../":7915,"menu":7916,"ĠìĬĪ":7917,"Ġpages":7918,"Ġforce":7919,"Ġconsult":7920,"xx":7921,"ìĿ¸ì²ľ":7922,"Ġlinks":7923,"ager":7924,"ĠíĽ¨ìĶ¬":7925,"ĠìĿ´ë£¨ìĸ´":7926,"endif":7927,"Ġvert":7928,"ĠëĮĢìĭł":7929,"IB":7930,"ald":7931,"dule":7932,"{\"":7933,"ĠëĤĺëĪ":7934,"ette":7935,"Ġphotos":7936,"Ġaim":7937,"ĠìħĢ":7938,"Ġdemon":7939,"Ġwoman":7940,"}{\\":7941,"iforn":7942,"Ġnav":7943,"Ġstra":7944,"ìķĦì¹¨":7945,"Ġcharge":7946,"vider":7947,"ĠìľĦíĹĺ":7948,"ĠIT":7949,"ĠJuly":7950,"ĠíĽĦë³´":7951,"ê°Ĵ":7952,"Ġinnov":7953,"ria":7954,"ĠìķĬëĬĶëĭ¤":7955,"ìķĦê°Ģ":7956,"ĠíĿĺ":7957,"AAAA":7958,"Ġum":7959,"ini":7960,"ĠÑĩ":7961,"ìķĦì§ģ":7962,"Ġoccur":7963,"Ð¼Ð¸":7964,"tilde":7965,"amples":7966,"Pre":7967,"ĠêµŃìłľ":7968,"ìŀĪê³ł":7969,"Last":7970,"Ġparameter":7971,"Ġclub":7972,"Ġì§§":7973,"Options":7974,"Ġwhose":7975,"Net":7976,"gest":7977,"olve":7978,"Load":7979,"long":7980,"Ġìĺ¤ëĬĺìĿĢ":7981,"capt":7982,"private":7983,"container":7984,"ĠNOT":7985,"Ġìķŀìľ¼ë¡ľ":7986,"»¿":7987,"ìŀ¥ìľ¼ë¡ľ":7988,"kit":7989,"obj":7990,"asks":7991,"zen":7992,"Ġdrug":7993,"ais":7994,"Ġ[]":7995,"ĠìĹħë¬´":7996,"ertain":7997,"Ġswitch":7998,"ë³ĳìĽĲ":7999,"RL":8000,"Ġê°ķëĤ¨":8001,"(?)":8002,"overn":8003,"Ġboolean":8004,"Ġpool":8005,"ĠíĺĪ":8006,"ĲëŁ¬ëĵľ":8007,"ìĦľë¹ĦìĬ¤":8008,"Ġê´Ģê³ĦìŀĲëĬĶ":8009,"ëĳĲê³ł":8010,"ìĿ´ëĭĪ":8011,"SD":8012,"Ġíĺķíĥľ":8013,"ĠìķĦëĭĪëĭ¤":8014,"Ġexception":8015,"Ġë³´ìĿ¸ëĭ¤":8016,"ĠëĤ¨íİ¸":8017,"Ġëĵł":8018,"Ġë¶Ģíĥģ":8019,"ëıĦìĿĺ":8020,"ë´Ħ":8021,"Ë·))":8022,"Ġbrought":8023,"ÑĢÑĥ":8024,"Ġì¤ĳê°Ħ":8025,"''":8026,"yond":8027,"Ġdeliver":8028,"ë²ħ":8029,"xff":8030,"Ġseek":8031,"Ġhous":8032,"ville":8033,"Ġcomponent":8034,"ì»µ":8035,"Ġë§Ĳê³ł":8036,"Ġë¸ĶëŀĻ":8037,"Ġë¨¸ë¦¬":8038,"ë¡¤":8039,"ĠFace":8040,"ì°¨ë¥¼":8041,"uint":8042,"Ġê°ģê°ģ":8043,"ĠâĻ":8044,"ĠìĻĦë£Į":8045,"Ġhop":8046,"Ġlarger":8047,"ëł¤ìļĶ":8048,"Ġje":8049,"ë§ĽìĿ´":8050,"Ġdecor":8051,"ê¸°ìĻĢ":8052,"ÄĻ":8053,"Ġpassed":8054,"ìĤ¬ë¡ľ":8055,"Ġfill":8056,"ĠìĤ¬ëŀĮìĿĢ":8057,"ĠìļĶêµ¬":8058,"ìķĺëįĺ":8059,"update":8060,"bed":8061,"Ġíĺľ":8062,"ê²½ê¸°ëıĦ":8063,"ĠEX":8064,"Ġíģ¬ë¦¼":8065,"Ġëĺĳ":8066,"olf":8067,"ĠíĸĪìĸ´ìļĶ":8068,"ëŁīìĿ´":8069,"Ġì¹ĺì¦Ī":8070,"}^{":8071,"inn":8072,"Page":8073,"Here":8074,"Ë·,\\":8075,"ë³Ħë¡ľ":8076,"ĠJapan":8077,"Ġë°©íĸ¥":8078,"ìĬ¤ìĿĺ":8079,"Ġsteps":8080,"ï»¿":8081,"Äį":8082,"ĠMich":8083,"Ġgar":8084,"Link":8085,"can":8086,"ëĥī":8087,"Ġë¨¹ê¸°":8088,"Ġcommercial":8089,"Ġdirection":8090,"Ġpromot":8091,"Ġdress":8092,"Ġorigin":8093,"ëł¤ëĬĶ":8094,"Ġscript":8095,"raphics":8096,"acement":8097,"ensity":8098,"Äħ":8099,")(":8100,"si":8101,"iced":8102,"ì¹ĺì¦Ī":8103,"Ġê¾¸ì¤Ģ":8104,"Ġíİ¸ìķĪ":8105,"Ġmiddle":8106,"ê²łëĭ¤ê³ł":8107,"ĠÐŁ":8108,"Ġë¯¸ëŀĺ":8109,"men":8110,"Ġê°Ģì§Ħ":8111,"ìķĦëŀĺ":8112,"ì§ĵ":8113,"idents":8114,"ĠCour":8115,"Buffer":8116,"ĠìķŀìĹĲ":8117,"hol":8118,"rd":8119,"ìĿ´ëĤł":8120,"ĠOctober":8121,"íĸĪìĿĦ":8122,"Ġshape":8123,"layout":8124,"ìª½ìľ¼ë¡ľ":8125,"Ġpow":8126,"ê´ĢìĿ´":8127,"ĠëĶ°ë¥¸":8128,"ĠHome":8129,"Ġë°Ķëĭ¤":8130,"Ġbeginning":8131,"ĠEvery":8132,"Ġnotice":8133,"Ġstuff":8134,"Ġâĺ":8135,"Ġestim":8136,"Ġflex":8137,"ĠìĨĮê°ľíķ´":8138,"ìłĦíŀĪ":8139,"ÑģÑı":8140,"ERR":8141,"pet":8142,"ĠPresident":8143,"itation":8144,"ĠëĦĺìĸ´":8145,"Ġìłķìĥģ":8146,"XX":8147,"íĬ¹ë³Ħìĭľ":8148,"itution":8149,"Ġstrateg":8150,"ìŀĲë§ĪìŀĲ":8151,"Ġìłķì±ħ":8152,"Ġcampaign":8153,"Ġtransport":8154,"stract":8155,"ìĶ¨ëĬĶ":8156,"semb":8157,"BU":8158,"Ġdistance":8159,"ãħłãħłãħłãħł":8160,"Listener":8161,"Ġcontain":8162,"ĠÐļ":8163,"ì¹´ìĺ¤":8164,"ëĵľë¡ľ":8165,"Ġir":8166,"ìĬ¤ìĹĲ":8167,"ê¸°ìĪł":8168,"ìħĶëıĦ":8169,"ĠëĤĻ":8170,"Ġstress":8171,"Ġmeaning":8172,"Ġdynam":8173,"number":8174,"ëĵ±íķĻêµĲ":8175,"ë¶Ģë¥¼":8176,"<!--":8177,"ëĵ¤ë¡ľ":8178,"Ġrandom":8179,"Ġæ":8180,"ëĵľìĭľ":8181,"FT":8182,"iation":8183,"Ġbeyond":8184,"////////////////":8185,"ìĥģíĴĪ":8186,"Ġearn":8187,"ë§Īë£¨":8188,"ê²½ìłľ":8189,"Ġaspect":8190,"íĥĳ":8191,"Ġclasses":8192,"ĠRead":8193,"ìĸ´ì£¼":8194,"Ġtransfer":8195,"ìłĲìĿĢ":8196,"ìĸ´ë³´":8197,"åĪ":8198,"CP":8199,"ĠìĺģìĹħ":8200,"ypes":8201,"Ġexerc":8202,"rie":8203,"ja":8204,"Ġìĺ¨ëĿ¼ìĿ¸":8205,"property":8206,"Ġindividuals":8207,"ìĽ¨":8208,"ĠBook":8209,"Ġë¶Ħìĸĳ":8210,"Factory":8211,"background":8212,"illa":8213,"ĠìĿ´ê±°":8214,"which":8215,"Ġì£¼ìļĶ":8216,"Ġfab":8217,"Ġë¶Ħìķ¼":8218,"ĠSince":8219,"ëĭ¤ìĸĳ":8220,"ĠìĻĢìĦľ":8221,"force":8222,"ì²«":8223,"ĠêµĲì²´":8224,"sets":8225,"Ġreturns":8226,"ifornia":8227,"Ġincreasing":8228,"~^^":8229,"ê³Ħë¥¼":8230,"aled":8231,"Ġreleased":8232,"undred":8233,"ë©ĺ":8234,"ìĤ¬íķŃ":8235,"ĠìĿ´ìģĺ":8236,"Ġìŀĺëª»":8237,"ãħİãħİãħİ":8238,"Ġreturned":8239,"Ġsupply":8240,"icated":8241,"Ġmechan":8242,"íĪ¬ìŀĲ":8243,"Ġimmediately":8244,"Ġdescription":8245,"Ġpressure":8246,"Ġinfo":8247,"Ġì¡¸":8248,"Ġì§Ģíķĺ":8249,"íķľë²Ī":8250,"Ð¸Ð½":8251,"ĠìĬ¤ìĬ¤ë¡ľ":8252,"}(\\":8253,"atively":8254,"izations":8255,"âĢĺ":8256,"Ġspend":8257,"ĠíķĺìĹ¬":8258,"Ġreduce":8259,"Ġì½ľ":8260,"ìĤ¬ìĻĢ":8261,"ĠìĿ¸ì²ľ":8262,"Block":8263,"Ġreported":8264,"ì¦ĿìĿĦ":8265,"Ġtherefore":8266,"Ġëĵ±ë¡Ŀ":8267,"useum":8268,"./":8269,"iki":8270,"ëģĿ":8271,"Ġstraight":8272,"Ġrules":8273,"Ab":8274,"=\"../":8275,"document":8276,"Ġfilter":8277,"Ġanaly":8278,"Ġdistribution":8279,"Hel":8280,"Ġfeeling":8281,"ĠAny":8282,"ris":8283,"tag":8284,"Ġuint":8285,"Ġgrowing":8286,"íĶĦíĬ¸":8287,"duc":8288,"Ġê±·":8289,"Are":8290,"ì¤Ģëĭ¤":8291,"ë§¤ìĿ¼":8292,"Ġstar":8293,"ĠìĤ¬ëĿ¼":8294,"product":8295,"ê¼Ń":8296,"Ġang":8297,"ë¶ĦìĿĦ":8298,"Ġthus":8299,"oms":8300,"istory":8301,"uce":8302,"Ġíİ¼":8303,"PL":8304,"Ġdemand":8305,"ë§Īì§Ģë§ī":8306,"Function":8307,"NE":8308,"ëįĶêµ°ìļĶ":8309,"Ġvehicle":8310,"ëĭĮ":8311,"ĠíĬĢ":8312,"chi":8313,"ĠíĭĢ":8314,"ĠAnt":8315,"Ġnov":8316,"ìł¤":8317,"ì£¼ë¡ľ":8318,"Ġeat":8319,")</":8320,"ä½":8321,"......":8322,"zer":8323,"Ġìłģëĭ¹":8324,"Ġrequires":8325,"{{":8326,"Ġbuff":8327,"Ġserve":8328,"ĠíĢ":8329,"Ë·];":8330,"ĠCO":8331,"ĠMac":8332,"term":8333,"Ġassum":8334,"Ġplayed":8335,":)":8336,"åĲ":8337,"service":8338,"ðŁĳ":8339,"mes":8340,"ĠìķĪìłķ":8341,"ĠNovember":8342,"Ġëĵ±ìĹĲ":8343,"ìľ¼ìĭł":8344,"Ġê¼¼ê¼¼":8345,"Ġë¬¼ê±´":8346,"Ġassess":8347,"^*":8348,"cdot":8349,"Ġë²łìĿ´":8350,"ì§ĳìĹĲ":8351,"Ġì§ģìĽĲ":8352,"ĠRef":8353,"phone":8354,"GB":8355,"Ġsets":8356,"close":8357,"reement":8358,"ĠFree":8359,"ê¶ĮìĿĦ":8360,"dec":8361,"Ġfloat":8362,"Ġadjust":8363,"Ġdevices":8364,"ì°ľ":8365,"then":8366,"íķ´ì§Ģ":8367,"ĠìĤ¬ëĬĶ":8368,"Ġguide":8369,"alle":8370,"ë°Į":8371,"eqn":8372,"oday":8373,"Ġmit":8374,"Ġ::":8375,"Ġspent":8376,"Ġreve":8377,"Ġextrem":8378,"Ġextends":8379,"Ġlib":8380,"pite":8381,"Ġlas":8382,"Ġpartners":8383,"ìĿ´ëĿ¼ë©°":8384,"ÑĹ":8385,"'.":8386,"Equal":8387,"Bl":8388,"Ġë¬´ìĬ¨":8389,"${":8390,"íŀĲ":8391,"Resource":8392,"Ġê´Ģê´ĳ":8393,"Ġê°Ķëĭ¤":8394,"ĠìĤ¬ìļ©íķĺëĬĶ":8395,"Ġìĭľì¼ľ":8396,"ìľĦì¹ĺ":8397,"Child":8398,"Ġbudget":8399,"Ġappreci":8400,"Ġëª»íķľ":8401,"enses":8402,"íĥĢë¯¼":8403,"lections":8404,"Ġê²ģ":8405,"Ġë²Īì§¸":8406,"Ġproduce":8407,"ì¶ľì²ĺ":8408,"Ńī":8409,"ORT":8410,"ë¹¨":8411,"acters":8412,"ĠìłĦìĭľ":8413,"Ġê³µìĹ°":8414,"Ġhab":8415,"ederal":8416,"Ġeasier":8417,"Label":8418,"heet":8419,"Ġcup":8420,"Ġì°¬":8421,"Ġfight":8422,"Ġë³´íĨµ":8423,"Ġë§ĪìĿĮìĿĦ":8424,"ĠDesign":8425,"Ġenh":8426,"PRO":8427,"ĠLog":8428,"Ġê·¸ëħĢ":8429,"ĠMost":8430,"Oper":8431,"ĠìŀĪìĹĪëĬĶëį°":8432,"ĠëĳĲê³ł":8433,"Ġë°Ķëĭ¥":8434,"ĠìŀĬ":8435,"ĠCheck":8436,"Ġdou":8437,"ben":8438,"ĠOpen":8439,"Ġreflect":8440,"Ġìĭ¶ëĭ¤":8441,"ëª½":8442,"ĠíĻķëĮĢ":8443,"Ġdescribed":8444,"ë¦¬ì¦Ī":8445,"RI":8446,"ĠTw":8447,"Ġfixed":8448,"ë£©":8449,"Det":8450,"Ġì²¨":8451,"ìĪĺìĿĺ":8452,"ĠGreat":8453,"atever":8454,"remove":8455,"Ġdemonstr":8456,"Ġìŀ¬ë£Į":8457,"ĠPal":8458,"ĠCommun":8459,"ĠEven":8460,"member":8461,"Ġsurround":8462,"Ġlack":8463,"Ë·ãİ¡":8464,"ì§ĢìĿĺ":8465,"ATION":8466,"ky":8467,"Back":8468,"ìĥ·":8469,"ĠFile":8470,"ĠìĦŀ":8471,"ìĺ·":8472,"ospital":8473,"Ġë§¤ì¶ľ":8474,"fil":8475,"ê°Ģêµ¬":8476,"ëŀ©":8477,"Ġvirtual":8478,"ĠìķĬìĬµëĭĪëĭ¤":8479,"Ġemployees":8480,"Ġbur":8481,"NA":8482,"Can":8483,"ìķĦìķ¼":8484,"Rem":8485,"ì°¾":8486,"column":8487,"ifying":8488,"Click":8489,"omb":8490,"filter":8491,"ìµľê·¼":8492,"ronic":8493,"ĠëĿ¼ìĿ´":8494,"Ġì¡°ìĤ¬":8495,"ĠAPI":8496,"íĿ¡":8497,"ìŀİ":8498,"Ë·%;":8499,"ĠChristmas":8500,"íķĺëĦ¤ìļĶ":8501,"ĠÐ¿ÑĢ":8502,"Ġappropriate":8503,"ĠìĥģëĮĢ":8504,"ĠJes":8505,"ĠDecember":8506,"Ġwonderful":8507,"porary":8508,"Ð¾Ð±":8509,"Ġvoice":8510,"PT":8511,"inger":8512,"Ġphoto":8513,"<?":8514,"Ġcandid":8515,"ĠTechn":8516,"Ġì§ĳìĹĲìĦľ":8517,"ĠìķĦëĭĲ":8518,"Ġobjects":8519,"ìĭľê³µ":8520,"Ġguarant":8521,"ìĭĿëĭ¹":8522,"Ġmoved":8523,"Ã©e":8524,"ìĨĮìĹĲ":8525,"ĠìķĦê¸°":8526,"Pol":8527,"///":8528,"ê°Ģì¡±":8529,"Ġthous":8530,"Ġstatement":8531,"pers":8532,"ëĵ¬":8533,"íķłìĪĺ":8534,"ĠìĤ°ìĹħ":8535,"ĠìľĦì¹ĺíķľ":8536,"Ġbusinesses":8537,"Ġìŀĩ":8538,"Ġrespond":8539,"Ġì²´íģ¬":8540,"Om":8541,"Ġgreater":8542,"Ë·+Ë·":8543,"Ġspirit":8544,"ë¨¸ë¦¬":8545,"QU":8546,"Ġì¹ľìłĪ":8547,"ìĤ¬íļĮ":8548,"ĠKe":8549,"Ġrates":8550,"Ġcompared":8551,"ĠëĭĪ":8552,"Ġletter":8553,"íľĺ":8554,"tee":8555,"ìĺģíĻĶ":8556,"Ġdrop":8557,"','":8558,"dr":8559,"ĠSund":8560,"ĠëıĦìĽĢìĿĦ":8561,"MO":8562,"ĠëĤĺë¥¼":8563,"olds":8564,"ĠëŁ¬":8565,"Ġcertainly":8566,"Ġedge":8567,"íĵ¨íĦ°":8568,"ë¤Ħ":8569,"process":8570,"Ġthread":8571,"agon":8572,"Ġculture":8573,"Ġê·¸ìĿĺ":8574,"meta":8575,"ounced":8576,"Ġê°ģì¢ħ":8577,"Ġìļ°ìĦł":8578,"ĠìłľìĻ¸":8579,"ĠìĦ¬":8580,"ivil":8581,"ĠìķĦëĭĪê³ł":8582,"mult":8583,"Ġmaybe":8584,"íķ´ì£¼ìĦ¸ìļĶ":8585,"ìĮĢ":8586,"Ġìĭłê¸°":8587,"ìłĢëıĦ":8588,"Filter":8589,"response":8590,"Ġalone":8591,"ĠPhil":8592,"kt":8593,"ë°į":8594,"Ġalthough":8595,"Version":8596,"output":8597,"Ġnamed":8598,"Ġcop":8599,"ĠAND":8600,"ael":8601,"Ġmilit":8602,"AND":8603,"Ġì±ħìĿĦ":8604,"Ġfollowed":8605,"Ġcast":8606,"ĠëĲĲ":8607,"Ġë§ĪìĿĮìĿ´":8608,"ĠìĿ´ìķ¼ê¸°ë¥¼":8609,"ìĥģìĿĢ":8610,"efined":8611,"ìĿĮìĿ´":8612,"Ġë°ĶìĿ´":8613,"Ġtemplate":8614,"ĠíķĺëĿ½":8615,"Ġign":8616,"ĠíĺĦìĭ¤":8617,"igen":8618,"ĠìłľíĴĪìĿĦ":8619,"Ġë¶ģíķľ":8620,"âĪ":8621,"ìĤ¬ê³ł":8622,"Ġcompleted":8623,"Ġìłķì¹ĺ":8624,"Ġcab":8625,"ĠOther":8626,"Ġëĭ¬ë¦¬":8627,"íĻĶìŀ¥":8628,"Ġë¹Ħë¡¯":8629,"sa":8630,"ĠìĿ´ìľłëĬĶ":8631,"Ġfamilies":8632,"ĠII":8633,"estern":8634,"vest":8635,"Ġexpand":8636,"ĠëĲĺì§Ģ":8637,"Ġspecified":8638,"utive":8639,"ĠCalifornia":8640,"Ġhealthy":8641,"ë©´ìĿĦ":8642,"ech":8643,"ì£¼ë¬¸":8644,"sv":8645,"border":8646,"ìĿ´ê±´":8647,"SH":8648,"ëª¨ëĵł":8649,"Ġëª»íķĺê³ł":8650,"Ġdefinitely":8651,"ln":8652,"clos":8653,"Ġotherwise":8654,"Ġìĺģìĸĳ":8655,"hedul":8656,"Ġë§ĲìĿ´":8657,"lor":8658,"Ġcourt":8659,"Ġìŀħìŀ¥":8660,"wrap":8661,"dep":8662,"ala":8663,"Ġê³§":8664,"cor":8665,"Ġstri":8666,"ìĿ´ìĻĢ":8667,"ĠStreet":8668,"ëĵ¤ìĹĲ":8669,"ìĿ¸ê³µ":8670,"weight":8671,"Ġdamage":8672,"Ġmaster":8673,"ĠìĨĮìŀ¬":8674,"ĠëĳĺëŁ¬":8675,"Ġë¶ĦìľĦê¸°":8676,"ffee":8677,"Ġoverall":8678,"Spec":8679,"ĠíĿ¥":8680,"ìĽħ":8681,"etch":8682,"ĠVer":8683,"ru":8684,"ĠìĹ¬ìľł":8685,"ashion":8686,"Ġwind":8687,"Ġau":8688,"ascript":8689,"ĠëĤĺëĿ¼":8690,"ëĭ¨ì§Ģ":8691,"cks":8692,"Ġfigure":8693,"Ġbenefit":8694,"ulated":8695,"Ġhotel":8696,"ota":8697,"ĠPaul":8698,"Ġopportunities":8699,"ìºł":8700,"iling":8701,"Tem":8702,"Ġrepe":8703,"ëĤ¼":8704,"ë¦ŃíĦ°":8705,"ìłľëĬĶ":8706,"Ġrock":8707,"ÑģÑĮ":8708,"igger":8709,"íı¼":8710,"Ġgoals":8711,"Ġpair":8712,"ĠìĽĲëŀĺ":8713,"ëĭ¨ê³Ħ":8714,"Ġpaid":8715,"click":8716,"Column":8717,"ĠìĿ´ëŁ¬íķľ":8718,"ĠìĭĿëĭ¹":8719,"URL":8720,"ĠReturn":8721,"works":8722,"ìĭľê¸°":8723,"Ġmo":8724,"bruary":8725,"ë¶Ģê°Ģ":8726,"ìħ¨ìĸ´ìļĶ":8727,"ìĦ¬":8728,"Ġíıīê·ł":8729,"Ġprimary":8730,"Ġparticularly":8731,"ëĵłì§Ģ":8732,"ìłĦíĻĶ":8733,"ë´ħëĭĪëĭ¤":8734,"Rep":8735,"ÂłĠ":8736,"Ġhar":8737,"ê¸°ë³¸":8738,"Ġcapital":8739,"Ġpictures":8740,"Ġnut":8741,"ses":8742,"ìĿ´ê²Į":8743,"Ġpet":8744,"ãģĦ":8745,"ĠìĸĳëħĲ":8746,"asure":8747,"Ë·,\"":8748,"ĠUse":8749,"Ġposted":8750,"Ġìĩ¼íķĳ":8751,"ĠëģĬ":8752,"Ġë³ĢíĻĶ":8753,"Ġstrategy":8754,"sche":8755,"Ġoffered":8756,"ĠEast":8757,"ëĭ¬ëŁ¬":8758,"Ġmaximum":8759,"SA":8760,"ulate":8761,"ĠDepartment":8762,"Ġê²½ìļ°ìĹĲëĬĶ":8763,"Ġterr":8764,"ĠìĦłìłķ":8765,"Ġremain":8766,"Ġcounter":8767,"ĠìķĬê²Į":8768,"ì£¼ê°Ģ":8769,"Ġborn":8770,"Web":8771,"Ġinterview":8772,"Ġshared":8773,"rote":8774,"ëĨĢ":8775,"ĠSpec":8776,"Ġideal":8777,"ieved":8778,"íĿĲ":8779,"ê°Ģê¸°":8780,"Ġsmart":8781,"ë²łìĿ´":8782,"Ġcash":8783,"Ġtrade":8784,"Ġstudies":8785,"ĠëĤłìĶ¨":8786,"ĠíĬ¹ì§ķ":8787,"inated":8788,"Ġcouldn":8789,"ĠCompany":8790,"Ġrestr":8791,"Ġloved":8792,"ansp":8793,"Ġë³´íĹĺ":8794,"Layout":8795,"float":8796,"ican":8797,"ĠìĤ¬ë¬´":8798,"Ġpriv":8799,"ìĿ¼ë°ĺ":8800,"íķ´ì§Ħ":8801,"Ġslight":8802,"Ġfollows":8803,"Ġsample":8804,"ĠBel":8805,"isation":8806,"ê°ĢìĿĺ":8807,"Ġrout":8808,"Ġoptim":8809,"Ġbaby":8810,"ëĭ¤ë³´ëĭĪ":8811,"ERT":8812,"Ġëķħ":8813,"ĠType":8814,"look":8815,"Ġgift":8816,"Ġrat":8817,"Desc":8818,"Ġê³µìĭĿ":8819,"connect":8820,"ìĿ¼ìĿĢ":8821,"Ġou":8822,"Ġinvestment":8823,"Ġê³¡":8824,"Ġprop":8825,"ĠMat":8826,"Ġê´ĳê³ł":8827,"ëŁ¬ìļ´":8828,"ëłģ":8829,"Ġtrain":8830,"ìĿ¼ê¹Įì§Ģ":8831,"Ë·}}":8832,"Ġsaying":8833,"Ġvariable":8834,"Ġvict":8835,"ê¹ĥ":8836,"ìĿį":8837,"sd":8838,"ART":8839,"ìĦľìļ¸íĬ¹ë³Ħìĭľ":8840,"ìļ°ê³ł":8841,"BO":8842,"ĠâĨ":8843,"ĠFacebook":8844,"Ġempty":8845,"Ġhundred":8846,"ĠMor":8847,"ircle":8848,"only":8849,"ê´ĢìĿĦ":8850,"ìŀĪìĬµëĭĪëĭ¤":8851,"Command":8852,"Ġê³µëıĻ":8853,"Ġvot":8854,"gu":8855,"Ġemot":8856,"Ġclosed":8857,"ĠSol":8858,"project":8859,"Ġhighest":8860,"vo":8861,"Ġcold":8862,"ĠìĹĨìĹĪëĭ¤":8863,"ying":8864,"ìĿ¼ë¶ĢíĦ°":8865,"break":8866,"Ġinternet":8867,"sembly":8868,"ĠMag":8869,"rics":8870,"root":8871,"Ġappoint":8872,"bm":8873,"ĠÑĢÐ°":8874,"Ġaward":8875,"Ġefficient":8876,"íĬ¸ê°Ģ":8877,"Ġrot":8878,"ĠëĶ°ëĿ¼ìĦľ":8879,"ĠPost":8880,"Ġmill":8881,"Ġìļ°ë¦¬ëĬĶ":8882,"Char":8883,"bin":8884,"ĠÐľ":8885,"Ġonto":8886,"âĳ":8887,"Ġreli":8888,"Ë·\\Ë·":8889,"Ġìĭľíĸī":8890,"gorithm":8891,"ë¦¬ëıĦ":8892,"ì½Ķë¡ľëĤĺ":8893,"ìĿ´ìĹĪ":8894,"ìĦłë¬¼":8895,"Ġspot":8896,"ĠëıĻìĭľìĹĲ":8897,"###":8898,"Ġincreased":8899,"Format":8900,"Ġregarding":8901,"porate":8902,"sqrt":8903,"Ġsch":8904,"ë¯¸êµŃ":8905,"Ġoffering":8906,"ĠCollege":8907,"ĠManag":8908,"ëıĦìĹĲ":8909,"lands":8910,"ools":8911,"Ġadult":8912,"Ob":8913,"ì¹ĺë£Į":8914,"Ġlargest":8915,"caption":8916,"Ġê°ĢìĿĦ":8917,"Ġìłģê·¹":8918,"DD":8919,"Ġë°ĸ":8920,"ĠServices":8921,"Fe":8922,"Ġìĵ°ëĬĶ":8923,"istered":8924,"card":8925,"ìĭ¼":8926,"ribe":8927,"va":8928,"ëĵ¯ìĿ´":8929,"Ġcompar":8930,"Ġdetermine":8931,"Ġowners":8932,"Ġì£¼ìĿĺ":8933,"ĠĠĠĠĠĠĠĠĠĠĠĠĠĠĠĠĠĠĠĠĠ":8934,"Ġëĭ¤ëĵ¤":8935,"MM":8936,"êµ¬ê°Ģ":8937,"ago":8938,"icial":8939,"ĠìķĦë§Ī":8940,"rey":8941,"Ġíĺ¹ìĿĢ":8942,"Ġestablished":8943,"ìĹ¬ë¦Ħ":8944,"othing":8945,"Ġê²½ì°°":8946,"description":8947,"Ġêµ¬ìĽĮ":8948,"Ġìľ¼":8949,"inct":8950,"vision":8951,"Ġfinish":8952,"ë¨¼ìłĢ":8953,"fill":8954,"Ġbul":8955,"=\"/":8956,"opyright":8957,"ë¶Ħëĵ¤":8958,"ĠDel":8959,"Ġstories":8960,"Ġadvice":8961,"ĠThanks":8962,"epsilon":8963,"Ġì£¼ìŀ¥":8964,"ĠíĸĪì§Ģë§Į":8965,"ĠSpr":8966,"ìĿĦê¹Į":8967,"Ġì¤ĳìķĻ":8968,"ëĤĺìĦľ":8969,"Ġdrink":8970,"Ġì¶©ë¶ĦíŀĪ":8971,"ĠFrench":8972,"Ġë»":8973,"Ã¼r":8974,"ncy":8975,"Ġìĸĺê¸°":8976,"iger":8977,"Ġeight":8978,"Ġbow":8979,"ìĭľê¸¸":8980,"cr":8981,"Ġprinc":8982,"ëĮĢëĬĶ":8983,"ett":8984,"Ġeconomic":8985,"Ġcore":8986,"ĠìĺĪë°©":8987,"ĠGreen":8988,"íļĮìĤ¬":8989,"íķĺëĭ¤ê°Ģ":8990,"token":8991,"ĠForm":8992,"ĠìĿĺê²¬":8993,"Ġnearly":8994,"ICAg":8995,"scale":8996,"Ġstrength":8997,"Ġíķ´ë³´":8998,"Ġê°Ģë©´":8999,"Ãº":9000,"Ġë¦¬ë·°":9001,"ĠìķĮê²Į":9002,"Ġvill":9003,"NO":9004,"Ġpatient":9005,"ĠíĸĪëįĺ":9006,"íĺ¸íħĶ":9007,"FL":9008,"Ġcat":9009,"ĠFound":9010,"ìĤ°ìĿĦ":9011,">,":9012,"ki":9013,"ĠìĻĦë²½":9014,"Ġearlier":9015,"iler":9016,"unit":9017,"Ġconv":9018,"Ġíķľëĭ¤ëĬĶ":9019,"Ġreasons":9020,"Ġì£¼ìĦ¸ìļĶ":9021,"Ġê³µê²©":9022,"}$.":9023,"Ġsi":9024,"Ġì§Ģê¸ī":9025,"ëĭĺê»ĺìĦľ":9026,"ë¯¼êµŃ":9027,"ìŀĩ":9028,"ĠEuropean":9029,"Ġscen":9030,"ĠíĿĳ":9031,"control":9032,"ĠëĥĦìĥĪ":9033,"Ġoperations":9034,"Ġì½ĶìĬ¤":9035,"ìĽĲìĹĲìĦľ":9036,"edia":9037,"âĿ":9038,"Ġresponsible":9039,"proof":9040,"ìĿ´ëıĦ":9041,"Ġsmooth":9042,"Ġcomponents":9043,"Ġìĺ®":9044,"ĠìĹĺ":9045,"'),":9046,"Ġce":9047,"Å¡":9048,"ĠíĶĮëłĪìĿ´ìĸ´":9049,"ìŀĲìĻĢ":9050,"ĠPlay":9051,"Ġë§¨":9052,"range":9053,"Ġschools":9054,"ì§ĪìĿĦ":9055,"ìĿ´ë¯¸":9056,"Mode":9057,"Ġìĸ´ëł¤ìļ´":9058,"ðŁĴ":9059,"Ġarchitect":9060,"CR":9061,"IST":9062,"Â©":9063,"Ġê¸Īìķ¡":9064,"istance":9065,"Ġalbum":9066,"Ġë¹łë¥´ê²Į":9067,"ALL":9068,"Ġevidence":9069,"Ġpopulation":9070,"Ġtemperature":9071,"Ġthank":9072,"Ġfinished":9073,"ĠìłĪëĮĢ":9074,"ĠDavid":9075,"These":9076,"ë±":9077,"Ġafford":9078,"ëªĩ":9079,"ìĩ¼":9080,"fit":9081,"ìĨĮê°Ģ":9082,"Ġmicro":9083,"ĠDE":9084,"ĠCam":9085,"template":9086,"ĠBen":9087,"They":9088,"ensor":9089,"Ġë³Ģê²½":9090,"ĠCap":9091,"Ġexperienced":9092,"Ġcharacters":9093,"ĠÑģÑĤ":9094,"ĠIP":9095,"ĠìķĦë¹ł":9096,"Ġìĵ°ê³ł":9097,"ê°Ģìŀ¥":9098,"ĠCall":9099,"Ġsen":9100,"Ø§":9101,"}$,":9102,"Ġthrows":9103,"lear":9104,"ura":9105,"Ġperhaps":9106,"Ġpara":9107,"Ġpush":9108,"ĠTime":9109,"Ġëĭ¤ëħĢìĻĶ":9110,"ĠìĿ¼ìĸ´ëĤĺ":9111,"Vis":9112,"params":9113,"oes":9114,"ĠBritish":9115,"ĠEach":9116,"tw":9117,"Ð½Ñı":9118,"Ġjour":9119,"ìŀĳìĹħ":9120,"ÄĽ":9121,"ì£¼ë¥¼":9122,"Ġì¡°íķ©":9123,"Ġforms":9124,"Ë·%Ë·":9125,"iled":9126,"Ð°Ð²":9127,"ĠìĿ¼ìłķ":9128,"rows":9129,"psi":9130,"Ġfarm":9131,"Ġê°Ģê³ł":9132,"ëª¨ëĳĲ":9133,"ëłĢ":9134,"íĮ¬":9135,"Address":9136,"ologies":9137,"Ġserved":9138,"ëĦĪì§Ģ":9139,"late":9140,"Ġë¨¹ìĹĪ":9141,"Ġlock":9142,"Ġcoord":9143,"íķĺê¸°ë¡ľ":9144,"Ġì°©ìļ©":9145,"anged":9146,"Next":9147,"Ġapproxim":9148,"Me":9149,"bi":9150,"Update":9151,"Ġchurch":9152,"Ġoccas":9153,"ìĦ¸íĬ¸":9154,"Ġì§Ģì¼ľ":9155,"Ġê¿Ģ":9156,"íķľëį°":9157,"Ġwild":9158,"parse":9159,"Ġmenu":9160,"SL":9161,"Output":9162,"ĠGeneral":9163,"ëĲĺìĹĪ":9164,"ĠLaw":9165,"rees":9166,"tn":9167,"Ġesc":9168,"Ġsett":9169,"eds":9170,"Ġsettings":9171,"Ġcentral":9172,"Ġíİ¸ë¦¬":9173,"arp":9174,"ê°ĲìĤ¬":9175,"Ġê²©":9176,"Length":9177,"Ġlibrary":9178,"Ġê°ĳìŀĲê¸°":9179,"ë¦¬ë©´":9180,"ora":9181,"ĠìĦŃì·¨":9182,"plicit":9183,"that":9184,"Ġì¶ľë°ľ":9185,"æĸ":9186,"ë§İìĿ´":9187,"Ġë§ģ":9188,"ìłģìĿĦ":9189,"Ġlots":9190,"Ġê·¸ëŁ°ëį°":9191,"ëį°ìĿ´":9192,"entry":9193,"ë§ĮìĿĦ":9194,"ĠBer":9195,"Mat":9196,"Ġstation":9197,"ĠWork":9198,"ĠìĪĺìĪł":9199,"Ġadvert":9200,"ê²ĮìŀĦ":9201,"ĠìĥĿê¸°":9202,"íĶĮëłĪìĿ´":9203,"Ext":9204,"ĠìķĬìķĦìĦľ":9205,"ĠFriday":9206,"ëĤĺëıĦ":9207,"inder":9208,"Ġtesting":9209,"íĮ¡":9210,"Ġspread":9211,"ĠëĤ¨ìķĦ":9212,"ÐµÐ¹":9213,"Ë·\"><":9214,"hi":9215,"expected":9216,"Ġtruly":9217,"ACK":9218,"Ġëĵ±ìľ¼ë¡ľ":9219,"ìĿ¼ë³¸":9220,"£Ë·":9221,"ils":9222,"ĠProgram":9223,"Ġconnected":9224,"ĠWash":9225,"ĠOver":9226,"ĠInternet":9227,"eft":9228,"ì§ĳëĭĪëĭ¤":9229,"Ġpredict":9230,"REF":9231,"icht":9232,"Ġë°Ķê¿":9233,"âĢĭ":9234,"ĠìŀĪìĿĮ":9235,"Ġíķľëĭ¤ê³ł":9236,"Ġê³µìľł":9237,"Ġì£¼ë¯¼":9238,"ĠFebruary":9239,"INE":9240,"ĠíĨµíķ´ìĦľ":9241,"ĠëĵľëŁ¬":9242,"Ġgenerally":9243,"Ġcamera":9244,"ê¹Ģì¹ĺ":9245,"Ġattract":9246,"ëĵľê°Ģ":9247,"pop":9248,"ë®¤":9249,"Ġapplied":9250,"Ġìĭ¶ìĸ´":9251,"Ġbehavior":9252,"ĠCanada":9253,"Ġexpression":9254,"small":9255,"ĠìłĢëıĦ":9256,"Ġnation":9257,"Ġecho":9258,"IA":9259,"Ġelectric":9260,"Ġcritical":9261,"exec":9262,"Ġìŀ¬ë°Į":9263,"fast":9264,"Ġìŀłìĭľ":9265,"Įĵê¸Ģ":9266,"¼Ī":9267,"Ġ<!--":9268,"ando":9269,"Ġê¸ĢìĿĦ":9270,"íķĺìĭľê³ł":9271,"yout":9272,"ĠMet":9273,"Ġgone":9274,"ëĭ¤ìĸĳíķľ":9275,"ìŀ¥ê³¼":9276,"Ġcalls":9277,"ë¬µ":9278,"ÑģÐºÐ¸":9279,"ĠĠĠĠĠĠĠĠĠĠĠĠĊ":9280,"ìĵ":9281,"Br":9282,"Ġê¸°ë¶ĦìĿ´":9283,"ita":9284,"Ġwife":9285,"Ġgirl":9286,"Ġscient":9287,"Ġsmaller":9288,"Ġìŀĥ":9289,"ĠĠĠĠĠĠĠĠĠĠĠĠĠĠĠĠĠĠĠĠĠĠĠĠĠĠĠĠĠĠĠĠĠĠĠĠĠĠĠĠĠĠĠĠĠĠĠĠĠĠĠĠĠĠĠĠĠĠĠĠĠĠĠĠ":9290,"Ġdelivery":9291,"hens":9292,"Ġdriver":9293,"Ġcoffee":9294,"ĠTH":9295,"Ġê¹Ģì¹ĺ":9296,"ëĭĪìĬ¤":9297,"Ġrule":9298,"ĠëĬĲëĤĦ":9299,"Comp":9300,"Ġíĥĳ":9301,"Ġchem":9302,"ìłĢëħģ":9303,"ì§ĪìĿ´":9304,"Ġê´Ģíķľ":9305,"tml":9306,"aturday":9307,"Ð¡":9308,"ìľĦìĽĲíļĮ":9309,"ĠìĥĿê°ģë³´ëĭ¤":9310,"ì§Ģë°©":9311,"ĠIndian":9312,"ĠíĽĦìĹĲ":9313,"Ġë³´ìľł":9314,"Ġëĭ´ìķĦ":9315,"ĠMal":9316,"news":9317,"cat":9318,"Ġbecomes":9319,"Ġpresented":9320,"ĠLoc":9321,"================================":9322,"ìĭľì£ł":9323,"usion":9324,"cos":9325,"Valid":9326,"ĠGold":9327,")]":9328,"ĠdÃ©":9329,"ìŀĪìĸ´":9330,"author":9331,"aughter":9332,"ìľ¼ëĭĪê¹Į":9333,"ëģĮ":9334,"ÐµÐº":9335,"Ġweather":9336,"ëĭ¨ìĿĦ":9337,"Ġpayment":9338,"Ġhy":9339,"ì§Ģêµ¬":9340,"~!!":9341,"Ġviews":9342,"ìĿ´ëĦ¤ìļĶ":9343,"Ġsweet":9344,"Ġincor":9345,"Ġthanks":9346,"Ġfailed":9347,"ëłĽ":9348,"Ġadding":9349,"Ġpowerful":9350,"ëŁīìĿĦ":9351,"Ġê°ĢìĬ´":9352,"Ġíı¬ìĿ¸íĬ¸":9353,"OK":9354,"ĠìĿ´ìłĦ":9355,"ëĳĶ":9356,"esome":9357,"ëĭ¤ë¦¬":9358,"ĠìŀĲê·¹":9359,"íĪ":9360,"Ġdisease":9361,"íķĺëıĦë¡Ŀ":9362,"Ġpour":9363,"Ġdefine":9364,"ĠCD":9365,"Ġìĺ¥":9366,"Ġtrend":9367,"ĠëĵľëĿ¼ë§Ī":9368,"Ġëĵ±ëĵ±":9369,"Ġsymbol":9370,"Ġrelig":9371,"Ġkept":9372,"}[":9373,"Ġscience":9374,"Ġcollege":9375,"Ġpieces":9376,"ounter":9377,"Ġconvers":9378,"ë©´ìĹĲ":9379,"Ġpen":9380,"Ġtheory":9381,"ìĿ´ìŀĲ":9382,"ĠIr":9383,"Please":9384,"Ġê°ĻìĿĢëį°":9385,"Ġhomes":9386,"íĴĪìĿĦ":9387,"ctors":9388,"Ġconven":9389,"Ġrelax":9390,"Ġë¶Ģë¶ĦìĿ´":9391,"ìĦ±ê³¼":9392,"ìĿ´ê±°":9393,"'>":9394,"Ġmovie":9395,"Ġowner":9396,"Ġìĺģíĸ¥ìĿĦ":9397,"ĠJesus":9398,"ÃŃa":9399,"Ġë§¤ëł¥":9400,"ê²¹ìĤ´":9401,"Ġê°ĻìķĦ":9402,"idential":9403,"ìĭľê°Ģ":9404,"Ġproduced":9405,"icious":9406,"Server":9407,"ìĭ¬ìĿĦ":9408,"fs":9409,"Ð»Ñı":9410,"Ġìĺ¤íŀĪëł¤":9411,"ĠíĻķë³´":9412,"âĺħâĺħ":9413,"ĠìĭĿìĤ¬":9414,"Ġfear":9415,"how":9416,"offset":9417,"ni":9418,"ë³¶ìĿĮ":9419,"Ġwww":9420,"ìĽĲìľ¼ë¡ľ":9421,"Ġìĥģëĭ¹íŀĪ":9422,"ĠHot":9423,"frame":9424,"ĠMem":9425,"ĠìłĲìłĲ":9426,"Ġcomfortable":9427,"Ġìĭ¤ìĭľ":9428,"Ġê¸°ëħĲ":9429,"ilk":9430,"ëŀĢëĭ¤":9431,"dim":9432,"Ã±":9433,"???":9434,"Ġcentury":9435,"Ġexhib":9436,"ĠMany":9437,"ìı":9438,"ìŀĲëĵ¤ìĿ´":9439,"Ġcollabor":9440,"Ġ^":9441,"Ð»ÑĮ":9442,"ĠëĤĺëĪĦ":9443,"Ġconvert":9444,"cles":9445,"Äĥ":9446,"Return":9447,"Ġextremely":9448,"win":9449,"Ġsitu":9450,"udio":9451,"Ġdetail":9452,"Ġsupported":9453,"ê°Ģë¡ľ":9454,"ëĬĲëĥĲ":9455,"Ġheavy":9456,"ìĿ´ë¡ľ":9457,"ĠNA":9458,"Ġequal":9459,"Width":9460,"Ġsurv":9461,"Ġpadding":9462,"Met":9463,"íķľíİ¸":9464,"ëĵľëł¸":9465,"ĠWell":9466,"Ġì½©":9467,"osen":9468,"vas":9469,"Big":9470,"ĠHel":9471,"El":9472,"ë¦¬íĭ°":9473,"ĠBest":9474,"ëħĦê°Ħ":9475,"ĠDec":9476,"ĠBusiness":9477,"Ġdomain":9478,"ê³µìĤ¬":9479,"under":9480,"images":9481,"ê·¸ëłĩê²Į":9482,"hether":9483,"Ġë½ĳ":9484,"Ġchannel":9485,"ĠGood":9486,"Ġindependent":9487,"Ġíİ¸íķĺê²Į":9488,"PR":9489,"cons":9490,"Any":9491,"berg":9492,"rier":9493,"ĠJack":9494,"Ġì¦Ĳê¸¸":9495,"ì¦ĿìĿ´":9496,"ĠWhite":9497,"ĠëıĦìłĦ":9498,"ê³łê°Ŀ":9499,"ìĺĢëįĺ":9500,"ĠìĻĶëĭ¤":9501,"asy":9502,"ĠÑĢ":9503,"Ġì¡°ìłĪ":9504,"Ġtraff":9505,"angle":9506,"CS":9507,"Ġattend":9508,"ìĿĮìĭĿ":9509,"astr":9510,"orrow":9511,"UB":9512,"care":9513,"door":9514,"ĠìĿ´ê²Į":9515,"Ġprotection":9516,"Ġpoor":9517,"anging":9518,"Ġtoward":9519,"ì¤ĳêµŃ":9520,"itial":9521,"ZE":9522,"Ġmiles":9523,"xf":9524,"Ġfactor":9525,"iber":9526,"ìĺĢëĬĶëį°":9527,",'":9528,"Ġseparate":9529,"Nav":9530,"Top":9531,"Ġcovered":9532,"Ġë§Įëĵ¤ê¸°":9533,"Ġê²ª":9534,"car":9535,"cf":9536,"ĠSunday":9537,"ULT":9538,"Ġì²ĺë¦¬":9539,"ìĸ´ì§Ħ":9540,"ë°ķìĬ¤":9541,"Ġìļ°ë¦¬ëĤĺëĿ¼":9542,"Ġíķ«":9543,"ëķĮëĬĶ":9544,"Ġchallenge":9545,"rome":9546,"íĮĮíģ¬":9547,"Ġê¸¸ìĿ´ëĬĶ":9548,"Ġë§ĽìŀĪëĭ¤":9549,"íĹĮ":9550,"íĬĢ":9551,"Ġëĭ¤ê°Ģ":9552,"HO":9553,"ĠìŀĪëĦ¤ìļĶ":9554,"sych":9555,"Ġfem":9556,"ìĽĲëŀĺ":9557,"ëĶ¸":9558,"Ġmanufacture":9559,"ji":9560,"ĠCounc":9561,"ĠBuild":9562,"och":9563,"Ġwat":9564,"ĬìĿĢ":9565,"ĠìĥĿê²¼":9566,"Ġê±´ì¡°":9567,"ìŀĲëıĻì°¨":9568,"ĠìŀĪìĹĪìĬµëĭĪëĭ¤":9569,"Ġhelped":9570,"ady":9571,"Ġscore":9572,"MD":9573,"Ġtend":9574,"inet":9575,"Ġì°¨ì§Ģ":9576,"ĠìłĦê¸°":9577,"ads":9578,"Ġadvantage":9579,"Ġìļ°ëł¤":9580,"Ġpod":9581,"Ġâĸ²":9582,"Ġlayer":9583,"ê²½ê¸°":9584,"Ġëĭ¤ìĿ´ìĸ´íĬ¸":9585,"ê·¸ëĬĶ":9586,"Ġwants":9587,"ë¡ľë²Į":9588,"Ġcommunication":9589,"ê³±":9590,"Ġmanage":9591,"][":9592,"ĠëĪĦêµ¬":9593,"Ġwedding":9594,"Ð¾ÑģÑĤ":9595,"ĠìĺĪìłķìĿ´ëĭ¤":9596,"Ġë°ľìłĦ":9597,"Ġdans":9598,"âľ":9599,"ena":9600,"Ġflav":9601,"Ġì¢ĭìķĺìĸ´ìļĶ":9602,"ĠìĥĪë¡ľ":9603,"uz":9604,"ìĭľê°ĦìĿ´":9605,"Ġwrote":9606,"Ġì¡°ê±´":9607,"íħį":9608,"&#Ë·":9609,"Ġê·¼ëį°":9610,"Omega":9611,"ĠìķĮìķĦë³´":9612,"ĠìŀĲìĭłìĿ´":9613,"Ġë§İëĭ¤":9614,"des":9615,"Ġahead":9616,"Ġclin":9617,"ì»·":9618,"While":9619,"ìļ°ìĦł":9620,"âĨĵ":9621,"Ġcells":9622,"Ġsecure":9623,"Ġìĵ´":9624,"ĠìĤ¬ìĿ´íĬ¸":9625,"Ġdistr":9626,"ani":9627,"Ġíŀĺëĵł":9628,"ãĢģ":9629,"ĠëĤ©":9630,"allow":9631,"Ġrepair":9632,"ĉĠĠĠ":9633,"Ë·\",\"":9634,"ìĥģíĥľ":9635,"ĠìŀĪìĹĪëįĺ":9636,"ĠìĿ¸ìĤ¬":9637,"ownload":9638,"íı¬ì¸ł":9639,"ĠUs":9640,"while":9641,"ì¤Ģë¹Ħ":9642,"cp":9643,"Ġmonitor":9644,"Ġrap":9645,"Ġhus":9646,"Ġbatter":9647,"Ġcit":9648,"ìĸ¸ìłľ":9649,"ĠëĤĺëıĦ":9650,"fol":9651,"]{":9652,"Ġë§İê³ł":9653,"ĠVis":9654,"Ġreports":9655,"Ġteams":9656,"Ġlen":9657,"ĠìķĪëĲĺ":9658,"ĠìŀĲê²©":9659,"FC":9660,"MC":9661,"aints":9662,"Ġì³":9663,"before":9664,"ìłĲìĹĲìĦľ":9665,"Ġìľłë¦¬":9666,"ì¦Ĳ":9667,"icing":9668,"ĠìĮĢ":9669,"ìłĿ":9670,"Ġëĵ¤ìĸ´ê°Ħ":9671,"Ġpal":9672,"lis":9673,"}_Ë·":9674,"ì§ĢìĻĢ":9675,"Ġrace":9676,"Ġrelevant":9677,"ìĸ´ëĸ¤":9678,"ĠHam":9679,"Ġìłķë³´ë¥¼":9680,"ĠOnce":9681,"ê³Ħíļį":9682,"Ġëĭ¬ëł¤":9683,"Open":9684,"Ġê°Ĳëıħ":9685,"Ġobj":9686,"Ġìĸ´ë¦°ìĿ´":9687,"íķľëĭ¤ë©´":9688,"ì¤ĺìķ¼":9689,"Ġëª¨ìĬµìĿ´":9690,"etime":9691,"êµ¬ë§¤":9692,"Ġìłľì¡°":9693,"ê´ĢìĿĢ":9694,"Max":9695,"ĠìĿ´ëĬĶ":9696,"Ġìŀħê³ł":9697,"Ġthreat":9698,"Ġìĭ¤ìłľ":9699,"ĠSen":9700,"Ġarm":9701,"textbf":9702,"inese":9703,"ìķĪìłĦ":9704,"IV":9705,"Ġplaced":9706,"eqnarray":9707,"ë³į":9708,"abilities":9709,"Ġrank":9710,"Ġhelping":9711,"pective":9712,"Ġvisual":9713,"Ġsources":9714,"Ġconfiguration":9715,"Ġok":9716,"Ġfol":9717,"ĠìĥĿê¸´":9718,"ĠìĿĦ":9719,"oma":9720,"Url":9721,"Ġpolice":9722,"conf":9723,"ĠAS":9724,"Ġregister":9725,"Ġì§Ģìłģ":9726,"Ġfinding":9727,"endar":9728,"Ġjo":9729,"ya":9730,"ĠìĿ´ìĽĥ":9731,"ĠìļĶë¦¬":9732,"Ġopened":9733,"ĠAustralia":9734,"Ġsust":9735,"ìį¹":9736,"home":9737,"well":9738,"Ġsand":9739,"Å¾":9740,"Ġfant":9741,"Ġpeace":9742,"Ġë§ĪìĬ¤íģ¬":9743,"ĠìĭľìĦ¤":9744,"ìĤ¬ë¬´":9745,"ĠìºĲë¦ŃíĦ°":9746,"Ġdoll":9747,"ÐŁ":9748,"ĠíļĮë³µ":9749,"íĬ¸ëĬĶ":9750,"front":9751,"Ġnom":9752,"ĠìĹ¬ê¸°ìĦľ":9753,"ITY":9754,"ĠMake":9755,"ìĿ¼ë¡ľ":9756,"Ġtalking":9757,"Ġestablish":9758,"Ġagree":9759,"ugg":9760,"Sim":9761,"Equals":9762,"psilon":9763,"ëĭ·":9764,"Ġë¶Ħëªħ":9765,"ĠìķĦë²Ħ":9766,"ĠìłĦëĭ¬":9767,"ê³¼ë¥¼":9768,"ì§ĳìĹĲìĦľ":9769,"Ġupdated":9770,"ĠëĪĮ":9771,"ê¸°ëĬ¥":9772,"ĠíĻĶìŀ¥ìĭ¤":9773,"ë´¤ëĬĶëį°":9774,"ME":9775,"ĠìķĦíĶĦ":9776,"Ġbag":9777,"nel":9778,"Ġannual":9779,"Ġêµ³":9780,"ĠWhy":9781,"ë²ĦìĬ¤":9782,"TA":9783,"Ġmovement":9784,"ìŀĲìĹ°":9785,"plete":9786,"Ġconsole":9787,"ĠÂ£Ë·":9788,"ython":9789,"µëĭĪëĭ¤":9790,"oyal":9791,"Ġê³³ìĹĲ":9792,"Ġìµľê³łìĿĺ":9793,"Ġinvestig":9794,"ëĭ¨ì²´":9795,"Ġê°Ģê²©ìĿ´":9796,"ĠDem":9797,"Ġweekend":9798,"Ġê°ĻìķĦìĦľ":9799,"Ġrob":9800,"ĠDevelop":9801,"Ġpanel":9802,"annot":9803,"ê·¸ë£¹":9804,"ë¯¸ìĹĦ":9805,"Ġraise":9806,"Ġë¨¼":9807,"ĠìĿ´ìĹĲ":9808,"Ġcards":9809,"Ġharm":9810,"drop":9811,"Go":9812,"ĠEnd":9813,"ĠìļĶì²Ń":9814,"\">Ë·":9815,"ĠIns":9816,"Ġfat":9817,"ê»ı":9818,"Ġê±°ë¦¬":9819,"tenance":9820,"TYPE":9821,"ë¶ĢëıĻìĤ°":9822,"ëįĺëį°":9823,"Ġì£¼ìĭĿ":9824,"Ãª":9825,"}{Ë·":9826,"ì«":9827,"Ġoperator":9828,"ĠSaturday":9829,"ĠíĻĶìĿ´íĬ¸":9830,"æĺ":9831,"ĠìĿĮë£Į":9832,"ëĬĲëĿ¼":9833,"ĠìĹŃíķłìĿĦ":9834,"Ġargument":9835,"Ġcolors":9836,"mut":9837,"ĠDan":9838,"Access":9839,"Ë·):":9840,"ĠëĮĢíĺķ":9841,"Ġopening":9842,"Ġìĸµ":9843,"ĠÐ³Ð¾Ð´":9844,"ê´Ģê³Ħ":9845,"pa":9846,"HP":9847,"ĠProf":9848,"Ġos":9849,"ker":9850,"Ġopin":9851,"Ġcomments":9852,"Frame":9853,"Ġìĭľì¦Į":9854,"cap":9855,"Ġobvious":9856,"ÐµÐ²":9857,"Ġwaiting":9858,"margin":9859,"anned":9860,"ĠëıĻìĺģìĥģìĿĺ":9861,"Ġcreative":9862,"Ġë°ĺìĿĳ":9863,"ĠVol":9864,"desc":9865,"ì£¼ë©´":9866,"ìĺģìĹħ":9867,"Entity":9868,"Gamma":9869,"vol":9870,"Ġdetect":9871,"Ġìŀ¡ìķĦ":9872,"Ġaren":9873,"Ġë¯¸ëĭĪ":9874,"ìľĦê°Ģ":9875,"Ġminimum":9876,"ê¸Īìľµ":9877,"ĠMond":9878,"Control":9879,"(_":9880,"Ġzero":9881,"Ġtruth":9882,"Ġfactors":9883,"estival":9884,"Ġmut":9885,"Ġvolume":9886,"}_{\\":9887,"ìľ¼ë¡ľìį¨":9888,"Ġlearned":9889,"íķĺìļ°ìĬ¤":9890,"Ë·})":9891,"Ġgarden":9892,"Ġëĭ¨ìĪľ":9893,"Ġhappened":9894,"ĠìĬ¤íĨł":9895,"Http":9896,"ĠCouncil":9897,"Ġë¨¹ìĿĢ":9898,"Ġobtained":9899,"Ġmatrix":9900,"Vert":9901,"ĠAssociation":9902,"Ġëį§":9903,"Des":9904,"ìĺģìĸ´":9905,"pret":9906,"ìĿ´ëĦĪ":9907,"ĠBre":9908,"ĠìľĦíķ´ìĦľëĬĶ":9909,"ĠìĿ¼ìĥģ":9910,"allery":9911,"Ġbalance":9912,"uis":9913,"Ġvs":9914,"Ġmissing":9915,"Ġì£¼ë¡ľ":9916,"íķĺìĺĢëĭ¤":9917,"Dev":9918,"ications":9919,"à®":9920,"Ġëĵ£ê³ł":9921,"Ġìĭłê³ł":9922,"Ġë¸Ķë£¨":9923,"Ġë§ĺìĹĲ":9924,"Ġshot":9925,"Ġhighlight":9926,"ìĬ¤íĭ°":9927,"Ġinstalled":9928,"ìŀ¬ìĥĿìĭľê°Ħ":9929,"Ġincome":9930,"ì£¼ë§Ĳ":9931,"ĠëĤ¨ê²¨":9932,"ÂŃ":9933,"acks":9934,"common":9935,"ĠíĺľíĥĿ":9936,"rael":9937,"apers":9938,"ĠìŀĲëŀĳ":9939,"Ġë°ĺë³µ":9940,"íħĲì¸ł":9941,"ĠArray":9942,"ĠTable":9943,"Ġì±ħìŀĦ":9944,"Ġbrother":9945,"Ġ['":9946,"íķĺìĺĢìĬµëĭĪëĭ¤":9947,"ĠëĿ¼ëĬĶ":9948,"ìłķìĿĺ":9949,"Ġë¶ĢíĦ°":9950,"Ġexperiment":9951,"\":Ë·":9952,"ãħĭãħĭãħĭãħĭãħĭ":9953,"Ġmentioned":9954,"ĠìĿ´ê±´":9955,"Task":9956,"Ġbedroom":9957,"ĠëĤĺë¦Ħ":9958,"Ġtests":9959,"ĠTO":9960,"ë°Ķëĭ¥":9961,"Ġtraffic":9962,"ëª¨ëį¸":9963,"ĠGovern":9964,"ìĭľíĹĺ":9965,"Ġgenerated":9966,"ìĹĲìĸ´":9967,"ìĿ¸íħĮë¦¬ìĸ´":9968,"Ġimpress":9969,"ëıĻìĿ´":9970,"ĠíķĻìĬµ":9971,"íĬľë¸Į":9972,"----------------------------------------------------------------":9973,"subsection":9974,"ONT":9975,"Note":9976,"ĠíļĮìĽĲ":9977,"Ġcategory":9978,"Ġë°°ìĨ¡":9979,"DO":9980,"arth":9981,"Ġseemed":9982,"íķ´ì£¼ëĬĶ":9983,"Ġì£Ħ":9984,"ĠChurch":9985,"Ġshoot":9986,"ë°ĺì°¬":9987,"Ġê³¼ê±°":9988,"ë§¹":9989,"Ġannounced":9990,"ĠSam":9991,"typ":9992,"vare":9993,"ĠDet":9994,"ello":9995,"Write":9996,"ë¸Ķë¡ľê·¸":9997,"Don":9998,"Ġê°Ģìķ¼":9999,"Ġphase":10000,"ĠClub":10001,"ĠíĥĲ":10002,"ëĶĶìŀĲìĿ¸":10003,"ìħľ":10004,"aine":10005,"Ġjobs":10006,"ĠMicrosoft":10007,"aming":10008,"ĠìĿ¸ê¸°":10009,"Ġë¡¯":10010,"ì¼Ģìĸ´":10011,"Ġcontainer":10012,"Ġexists":10013,"Ġmanager":10014,"ìĿ¸íĦ°":10015,"([":10016,"Ġsomew":10017,"ëĿ¼ë©°":10018,"Ġjourney":10019,"Ġdriving":10020,"ror":10021,"ĠìłĦìŀĲ":10022,"Ġì¹´ëĵľ":10023,"ounce":10024,"sign":10025,"ellig":10026,"Ġlic":10027,"ĠPublic":10028,"vere":10029,"clusive":10030,"ë¦¬ìĻĢ":10031,"lean":10032,"TER":10033,"ban":10034,"iform":10035,"ë§ĮìĿ´":10036,"ĠMart":10037,"Ġbrain":10038,"ĠìķĦëĬĶ":10039,"ĠìľłëŁ½":10040,"ŃĪ":10041,"Ġìĭ¤ëĤ´":10042,"ìłķìĹĲ":10043,"antic":10044,"ĠGL":10045,"Ġíľĺ":10046,"Ġìŀħêµ¬":10047,"ĠìĦłìĪĺ":10048,"Ġê·¸ëŁ¼":10049,"Ġprocesses":10050,"rum":10051,"ëİ":10052,"Ġíķĳ":10053,"Ġbright":10054,"ìłķìĿĢ":10055,"ë¹Ħìļ©":10056,"crete":10057,"Ġfurniture":10058,"ĠLife":10059,"Ġíķĺê²łìĬµëĭĪëĭ¤":10060,"ĠUser":10061,"Ġsecret":10062,"Ġruns":10063,"Ġargs":10064,"ë©į":10065,"ê¹Įì§ĢëĬĶ":10066,"Ġë¶Īêµ¬":10067,"ĠìłĦìļ©":10068,"ìŀĲê³ł":10069,"Ġê°ĲìĤ¬íķ©ëĭĪëĭ¤":10070,"īìŀ¥ê³ł":10071,"ĠëĿ¼ê³ł":10072,"ì§ĢíĦ¸":10073,"ë¦ĦìĿ´":10074,"Ġune":10075,"hy":10076,"ĠProject":10077,"Ġrich":10078,"Ġê³³ìĿĢ":10079,"Ġbes":10080,"Ġíı´":10081,"Ġëª»íķĺëĬĶ":10082,"Ġwine":10083,"ëĦī":10084,"Ġestate":10085,"Ġstick":10086,"ĠDate":10087,"ctx":10088,"unte":10089,"Ġì£¼ë°©":10090,"ë°©ìĨ¡":10091,"ĠìĿĢíĸī":10092,"Ġnorm":10093,"iciency":10094,"Ġë°ĶëĢĮ":10095,"íķĻëħĦ":10096,"Ġê°ĢëĬ¥ìĦ±ìĿ´":10097,"ìĸ´ë²Ħ":10098,"ĠArch":10099,"ĠRich":10100,"Ã¶r":10101,"ê°Ģê²Į":10102,"Then":10103,")'":10104,"ĠWashington":10105,"ë´ĲìļĶ":10106,"split":10107,"ĠìĬ¤íħĮ":10108,"ĠBay":10109,"Ġíĸĩ":10110,"Ġactions":10111,"javascript":10112,"(-Ë·":10113,"Ġsharing":10114,"instance":10115,"Ġprofile":10116,"ÃŁ":10117,"íķĢ":10118,"Ġê¾¸ì¤ĢíŀĪ":10119,"ĠëĲĺìĹĪìĬµëĭĪëĭ¤":10120,"Ġëĭ¤íĸī":10121,"ìĹĲìĦľìĿĺ":10122,"craft":10123,"Ġê°ĲìĨĮ":10124,"Ġproof":10125,"La":10126,"NAME":10127,"Ġë¹łìł¸":10128,"sf":10129,"Â®":10130,"Ġtechniques":10131,"Play":10132,"Ġseeing":10133,"holder":10134,"Ġnegative":10135,"ĠìķĦë¦Ħëĭ¤ìļ´":10136,"Your":10137,"Ġlisted":10138,"íķĺëŁ¬":10139,"ĠCreate":10140,"Ġwire":10141,"Ġpresence":10142,"ĠíĮĮìķħ":10143,"ëĦ£":10144,"Ġefforts":10145,"ĠìĺĨìĹĲ":10146,"Ġguid":10147,"ĠìĶ»":10148,"ìŀĲìĹĲ":10149,"è¿":10150,"ë©´ìĿ´":10151,"ìľ¨ìĿ´":10152,"ì¹ĺíĤ¨":10153,"jection":10154,"Min":10155,"ìĭłìĿ´":10156,"ĩĮ":10157,"Ġcontinued":10158,"Ġì°¾ëĬĶ":10159,"hop":10160,"ĠìĤ°ì±ħ":10161,"anges":10162,"Ġgrant":10163,"Ġsea":10164,"ĠSal":10165,"Co":10166,"Ġur":10167,"ĠEr":10168,"standing":10169,"Ġtechnical":10170,"Ġperformed":10171,"Ġassign":10172,"ĠGl":10173,"ĠíĸīìĤ¬":10174,"jo":10175,"Ġìĺ¬ë¦¬":10176,"Ġadvance":10177,"ĠíĽĪ":10178,"Ġmeant":10179,"Ġautomatically":10180,"Ġëĭ¤ìļ´":10181,"ĠëĨĴìķĦ":10182,"Ġrecords":10183,"ì§Ģê¸°":10184,"Ġmetal":10185,"ws":10186,"ÑģÑĤÐ²":10187,"Ġmedium":10188,"lines":10189,"ĠSing":10190,"ê´´":10191,"ë¶Ħëĵ¤ìĿ´":10192,"âĢ»":10193,"Ġê±´ìĦ¤":10194,"ìĿ¸ê³¼":10195,"Ġíķ¸ëĵľ":10196,"Ġëĵ¤ìĸ´ìĦľ":10197,".$":10198,"Ġspring":10199,"Case":10200,"navbar":10201,"boot":10202,"cha":10203,"Ġìķ½ìĨį":10204,"Ġë¬¼ìĿĦ":10205,"anta":10206,"ê°Ģë©´":10207,"Ġrelative":10208,"ucture":10209,"Ġerrors":10210,"Ġschedule":10211,"scope":10212,"ì°¨ëŁī":10213,"ĠìĿ´ê²ĥ":10214,"unately":10215,"áĨ":10216,"poses":10217,"Ġë§Īì¹ĺ":10218,"ìĤ¼ìĦ±":10219,":</":10220,"ĠView":10221,"ìĽĲëıĦ":10222,"ante":10223,"Ġremoved":10224,"ìŀħêµ¬":10225,"itors":10226,"ĠResearch":10227,"Ġhappens":10228,"Ġprocessing":10229,"Ġmist":10230,"ìĸ¼ë§Ī":10231,"................":10232,"Ge":10233,"ĠPlan":10234,"ê·¸ëŀ¨":10235,"ĠAR":10236,"ìľĦë¡ľ":10237,"dy":10238,"ĠFlor":10239,"æĪ":10240,"ĠìłĦëŀµ":10241,"Ġcallback":10242,"%%":10243,"Ġseven":10244,"Ġìĭľë¯¼":10245,"ĠRun":10246,"Ġcapacity":10247,"ĠJames":10248,"Ġwear":10249,"ĠíĹ¤ìĸ´":10250,"ëĤĮ":10251,"ĠìķĬëĭ¤":10252,"ĠOffice":10253,"API":10254,"Dat":10255,"ì¼ĢíĮħ":10256,"Ġcombination":10257,"ĠìĪĺìŀħ":10258,"ĠYear":10259,"åľ":10260,"Ġë°ĺëĵľìĭľ":10261,"Sec":10262,"Ġì¹ĺíĤ¨":10263,"Ġunits":10264,"Ġiniti":10265,"Ġvector":10266,"ëıĻìĹĲ":10267,"Ġë©ĭì§Ħ":10268,"ìĩĦ":10269,"ìħĭ":10270,"ĠTem":10271,"Ġexplore":10272,"ĠêµĲíĨµ":10273,"íĸĪëĭ¤ëĬĶ":10274,"Work":10275,"clusion":10276,"ĠBoard":10277,"ìĽłëĭ¤":10278,"Ð¾Ð·":10279,"Ġtra":10280,"Ġshowing":10281,"ë¹Ķ":10282,"ìĹĲê²ĮëĬĶ":10283,"Ġ{}":10284,"Ġflat":10285,"ìĩ¼íķĳ":10286,"ìĺ¤ê³ł":10287,"ĠLou":10288,"CTION":10289,"Ġguess":10290,"ë¦¬ìĬ¤ë§Ī":10291,"Bo":10292,"ĠëĨĢìĿ´":10293,"ĠìĥĢ":10294,"Ġillust":10295,"ĠCustom":10296,"ê´ĳì£¼":10297,"cur":10298,"ì¶°":10299,"íĮĲë§¤":10300,"Ġmission":10301,"Ġë¶ĢëĵľëŁ½":10302,"ĠíķĺìĭľëĬĶ":10303,"Ġremains":10304,"RAN":10305,"ĠRiver":10306,"Ġê±¸ìĸ´":10307,"ê¹Ŀ":10308,"Ġë°ĺì°¬":10309,"window":10310,"ìĪĺíķľ":10311,"Ġhaven":10312,"ãħ¡ãħ¡":10313,"ìĭłìĿĺ":10314,"Ġdas":10315,"Ġpartner":10316,"Ġcapt":10317,"ëħ¼":10318,"ì¹¸":10319,"Types":10320,"ë¡ľëĵľ":10321,"ê²łëĦ¤ìļĶ":10322,"Ġburn":10323,"Ġarrang":10324,"íĢ´":10325,"Ġprepared":10326,"ìĺ¤ëĬĺëıĦ":10327,"venue":10328,"ë£¡":10329,"íĺĦëĮĢ":10330,"MT":10331,"ĠìŀĳìĹħìĿĦ":10332,"Ġchanging":10333,"bool":10334,"íĶĦë¦¬":10335,"eting":10336,"Ġë·°":10337,"ë¬¸ìĿ´":10338,"Ġìŀ¥ìĨĮ":10339,"ĠAtt":10340,"Ġevening":10341,"Ġë²Įìį¨":10342,"Ġëį°ìĿ´íĦ°":10343,"ĠTop":10344,"Ġë§ĽìĿĦ":10345,"ì¦Ŀê¶Į":10346,"Ġmilitary":10347,"ì°¬ê°Ģì§Ģ":10348,"Ġunless":10349,"Ġpassword":10350,"Ġseconds":10351,"Ġupper":10352,"Ġprepar":10353,"Ġìłľíķľ":10354,"ĠOb":10355,"Ġtheme":10356,"allet":10357,"Ġax":10358,"ìĤ¬ìĿ´ì¦Ī":10359,"ĠëĤ´ìļ©ìĿĦ":10360,"ĠìĿ´ë¤Ħ":10361,"Each":10362,"Ġwhatever":10363,"êµĲíĨµ":10364,"âĢĿ,":10365,"oration":10366,"Provider":10367,"ì§Ģë©´":10368,"kind":10369,"ëĥĪ":10370,"Ġì§Ĳ":10371,"ìĭľëĭ¤":10372,"ìĦ¸ê°Ģ":10373,"Ġcraft":10374,"Ġforget":10375,"ideos":10376,"LASS":10377,"styles":10378,"íŀĪëĬĶ":10379,"Å¼":10380,"require":10381,"Ġadvanced":10382,"ĠRoad":10383,"åŃ":10384,"Ġë¨¹ìĸ´ëıĦ":10385,"ìĸ´ëĬĲ":10386,"Ġearth":10387,"ê·ľëª¨":10388,"ĠëĮĢì¶ľ":10389,"Ġfaith":10390,"Ġë¡¯ëį°":10391,"ëĥĲê³ł":10392,"ĠëıĻìĿ¼":10393,"sey":10394,"Ġhusband":10395,"ĠAma":10396,"Ġpros":10397,"Ġincred":10398,"ìŀĳìĿĢ":10399,"you":10400,"Ð°Ð½Ð¸":10401,"ìĭŃëĭĪëĭ¤":10402,"Ġê·¸ëŀ¬":10403,"agement":10404,"ĠâĢ¦":10405,"ìĭłì²Ń":10406,"Ġsports":10407,"chers":10408,"ĉĉĉĉĉĉĉ":10409,"Ġha":10410,"tim":10411,"Ġfish":10412,"ìĸ¸ëĭĪ":10413,"ROM":10414,"ĠDi":10415,"vari":10416,"msg":10417,"Ġdirectory":10418,"ĠìĿ¸ì¦Ŀ":10419,"ĠëĤĺìĺ¬":10420,"ìĭłìĿĦ":10421,"íķĺì£ł":10422,"ĠìķīìķĦ":10423,"Ġdefinition":10424,"Ġfre":10425,"Ġolder":10426,"ND":10427,"Ë·));":10428,"ĠManagement":10429,"ë°ĶëŀĮ":10430,"ëĥĪëĭ¤":10431,"Ġë¹ĦìĬ·íķľ":10432,"ĠìŀĪì§Ģ":10433,"ê³³ìĹĲ":10434,"Ġíķµìĭ¬":10435,"exas":10436,"ĠConf":10437,"ĠìŀĲê¾¸":10438,"AGE":10439,"Ġreviews":10440,"Ġentre":10441,"Ġappears":10442,"Ġë°ľëĿ¼":10443,"Ġìł¤":10444,"ĠNote":10445,"Ġkeeping":10446,"ê»ĺìļĶ":10447,"Ġicon":10448,"Ġbathroom":10449,"Ġimplementation":10450,"Pack":10451,"âĸ²":10452,"Mem":10453,"ÅĻ":10454,"Fig":10455,"íĶĦëĿ¼":10456,"ìĪĺë¡ľ":10457,"Ġthick":10458,"Ġwouldn":10459,"ìĬ¤ìĻĢ":10460,"íķĺìĿ´":10461,"LC":10462,"Thread":10463,")$.":10464,"Ġgenerate":10465,"Ġexperiences":10466,"agment":10467,"ander":10468,"Ġ{@":10469,"Ġíļ¨ê³¼ê°Ģ":10470,"íĸ¥ìĿ´":10471,"ìĤ¬ì§Ģ":10472,"Ġoffset":10473,"ursor":10474,"ì°¨ê°Ģ":10475,"Ġstreet":10476,"ë½ķ":10477,"Ġìŀ¥ëĤľ":10478,"ì°¸ê³ł":10479,"gin":10480,"Ġë¹łë¥¸":10481,"Ġìĸ¸ëĭĪ":10482,"ãģ«":10483,"essor":10484,"Ġidentify":10485,"Ġê°Ģê¹Įìļ´":10486,"VAL":10487,"ì°Įê°ľ":10488,"empty":10489,"Ã¢":10490,"reme":10491,"ĠBank":10492,"ì¢ĭìķĦ":10493,"ë´¤ìĸ´ìļĶ":10494,"Ġë¶ĪëŁ¬":10495,"Ġpray":10496,"Ġë³´ê´Ģ":10497,"ì¨":10498,"Ġë°Ķê¾¸":10499,"Ġice":10500,"utely":10501,"Ġì¤ĳê³ł":10502,"ĠëıĪìĿĦ":10503,"Ġìłľìĭľ":10504,"íĿĳ":10505,"SO":10506,"Ġdied":10507,"Ġíķĺìħ¨":10508,"Ġë³¸ê²©":10509,"ìłĦê±°":10510,"ĠìŀĦëĮĢ":10511,"Container":10512,"ĠLO":10513,"ĠRel":10514,"Ġorganizations":10515,"Ġê²½ìĺģ":10516,"Ġcancer":10517,"\"))":10518,"varepsilon":10519,"Some":10520,"prop":10521,"Ġrain":10522,"ĠMary":10523,"ston":10524,"Ġdeveloping":10525,"Ġwinter":10526,"Tag":10527,"ê²łì§Ģ":10528,"ĠìķĬìĿĦê¹Į":10529,"ĠíķĺìĿ´":10530,"Ġ>=":10531,"bra":10532,"ĠAnn":10533,"values":10534,"transform":10535,"Ġsud":10536,"sql":10537,"rian":10538,"ê±°ê°Ļ":10539,"padding":10540,"Ġsquare":10541,"Ġíı¬ê¸°":10542,"ĻëĭĪëĭ¤":10543,"Ġparties":10544,"Ġiter":10545,"Ġrare":10546,"ĠPress":10547,"Post":10548,"Search":10549,"ĠÐ»":10550,"ĠEduc":10551,"van":10552,"Ġingred":10553,"Ġì¶Ķìĸµ":10554,"ĠÐĲ":10555,"ĠìĭľíĤ¤":10556,"Ġìķ¼ì±Ħ":10557,"Ġluck":10558,"Exec":10559,"ĠTom":10560,"Ġìŀ¥ì°©":10561,"Ġìµľì´Ī":10562,"Ġstandards":10563,"Ġgain":10564,"oded":10565,"Ã¡s":10566,"Dr":10567,"IE":10568,"Ġêµ´":10569,"ì£¼ëĭ¹":10570,"ĠBecause":10571,"ê½":10572,"Ġscope":10573,"di":10574,"ĠìĤ¬ëŀĮëĵ¤":10575,"ìľłìĿĺ":10576,"ĠÂ·":10577,"Ġreached":10578,"êµ¬ë§Ī":10579,"ĠìĦ¤ìłķ":10580,"ader":10581,"icies":10582,"Ġacadem":10583,"ÑģÐ¸":10584,".^^":10585,"ë°ĽìĿĢ":10586,"ìĭľë¥¼":10587,"acle":10588,"Ġì¡°ìĭ¬":10589,"ì¼ĢìĿ´íģ¬":10590,"Thanks":10591,"ĠLord":10592,"Ñĳ":10593,"âĺĨ":10594,"Ġsociety":10595,"ĠLG":10596,"MB":10597,"=>":10598,"íı¬ìĿ¸íĬ¸":10599,"Ġanti":10600,"ĠëłĮ":10601,"Ġtips":10602,"Header":10603,"Ġproperly":10604,"ĠëĮĢìĥģ":10605,"Module":10606,"ĠChristian":10607,"ĠìŀĪëĬĶì§Ģ":10608,"media":10609,"docs":10610,"íĥ±":10611,"ifications":10612,"}}\\":10613,"finished":10614,"ĠMount":10615,"ĠìĹ°ì¶ľ":10616,"Ġinsert":10617,"Configuration":10618,"ë³´íĨµ":10619,"Ġë¹Ħê°Ģ":10620,"ĠRober":10621,"ĠCourt":10622,"uman":10623,"ĠEngland":10624,"ĠìĿ¸íķľ":10625,"Ġë§ģíģ¬":10626,"Ġfashion":10627,"Ġmotor":10628,"íĬ¸ë¦¬":10629,"Ġrooms":10630,"structor":10631,"Ke":10632,"Ġëĭ¨ê³Ħ":10633,"ORD":10634,"Ġult":10635,"ĠìłĦíĨµ":10636,"eless":10637,"}^":10638,"Ġ*)":10639,"ĠìķĦìī½":10640,"Ġfra":10641,"Ġmort":10642,"Ġfriendly":10643,"friend":10644,"ĠJer":10645,"Ġì§ĢëıĦ":10646,"Ġroute":10647,"Ġê»":10648,"atalog":10649,"Ġ${\\":10650,"ë¶ĢìĿĺ":10651,"Ġroof":10652,"Ġdelete":10653,"night":10654,"ë¥´ê¸°":10655,"ĠëĤĺìĻĢìĦľ":10656,"ëĲĺìĹĪìĬµëĭĪëĭ¤":10657,"ìĬ¤íģ¬ë¦¼":10658,"Ġìĭ¤ìłľë¡ľ":10659,"Ġdiscover":10660,"structions":10661,"ëķĲ":10662,"ì§±":10663,"Sche":10664,"icine":10665,"Ġìĺ¤ëŀľë§ĮìĹĲ":10666,"essions":10667,"ĠíĺĲ":10668,"ìĨĮë¦¬":10669,"ë¶Ħê¸°":10670,"Ġtables":10671,"Ġcorresponding":10672,"Ġwindows":10673,"êµŃëĤ´":10674,"Process":10675,"vention":10676,"ëĵľëł¤ìļĶ":10677,"ê±¸ë¡ľ":10678,"ëį©":10679,"ĠìĿ´ìĥģìĿĺ":10680,"Ġë§Īê°Ĳ":10681,"Ġcaused":10682,"Height":10683,"ĠBig":10684,"support":10685,"alls":10686,"ĠëĲĲëĭ¤":10687,".\\":10688,"ponents":10689,"grade":10690,"STR":10691,"Ġdirector":10692,"ëĨĵìĿĢ":10693,"Ġclearly":10694,"Ġinstr":10695,"email":10696,"Ġsteel":10697,"ĠSy":10698,"Ġìĭ¤íĮ¨":10699,"Ä±":10700,"ìĿ´ìĿĺ":10701,"after":10702,"ìĹĲìĦł":10703,"Ġsouth":10704,"Ġtherap":10705,"bal":10706,"rightarrow":10707,"apes":10708,"Target":10709,"ĠìĤ¬íķŃ":10710,"Ġdedicated":10711,"umin":10712,"bind":10713,"ĠJew":10714,"ĠInstagram":10715,"Ġê¹ľ":10716,"ëĮĢíķĻ":10717,"buffer":10718,"Ġchallenges":10719,"Ġcorner":10720,"Ġbillion":10721,"Cache":10722,"ĠMA":10723,"bled":10724,"ìĺĨ":10725,"Ġexperts":10726,"ì½ĶìĬ¤":10727,"ĠChinese":10728,"ë¬¼ìĹĲ":10729,"Ġ})":10730,"Ġenable":10731,"webkit":10732,"ê²¨ìļ¸":10733,"ëĮĢíķĻêµĲ":10734,"ĠëĤ´ëħĦ":10735,"Ġconcent":10736,"ë¶Īìĸ´":10737,"Ġmanaged":10738,"ancing":10739,"Ġloop":10740,"roud":10741,"Ġstrict":10742,"ĠëĬĺìĸ´":10743,"ĠPower":10744,"ë°Ľê³ł":10745,"Mon":10746,"íķ¨ê»ĺ":10747,"ĠëĮĢìĥģìľ¼ë¡ľ":10748,"ìĺ¬íķ´":10749,"ĠëĮĢì²´":10750,"Change":10751,"gate":10752,"ĠìŀĪì£ł":10753,"Ġspecies":10754,"rangle":10755,"ìĸ´ë¦°":10756,"Ġì°¨ìĿ´ê°Ģ":10757,"Ġtrail":10758,"ĠÑĦ":10759,"Ġmir":10760,"Ġamb":10761,"Ġì¥":10762,"Ġforeign":10763,"Window":10764,"ĠÐ¾Ð±":10765,"ĠFranc":10766,"Ġdecre":10767,"Ġtransition":10768,"ĠFore":10769,"Ġë°©ìĭĿ":10770,"ĠURL":10771,"Ġ+Ë·":10772,"ĠëĨĵê³ł":10773,"ëįĶìļ±":10774,"Why":10775,"Ġtab":10776,"ãģĹ":10777,"ĠíŀĲ":10778,"Ġdeb":10779,"Ġwelcome":10780,"ĠDie":10781,"Ġcompre":10782,"join":10783,"example":10784,"()->":10785,"ĠìłģìĿ´":10786,"Ġbrowser":10787,"ÅĽ":10788,"ye":10789,"nab":10790,"pay":10791,"None":10792,"Ġteaching":10793,"Ġquarter":10794,"Ġpassion":10795,"ifact":10796,"ĠìŀĲëıĻ":10797,"ĠMonday":10798,"Ġalternative":10799,"Ġaudience":10800,"Ġíļ¨ê³¼ë¥¼":10801,"ìĦ±ìĹĲ":10802,"Ġquot":10803,"Ġë¬µ":10804,"Ġë¶ĪìķĪ":10805,"ë²ĪìĹĲ":10806,"iration":10807,"ĠFrance":10808,"Ġì¶ľìĹ°":10809,"ê¸ĪìĿ´":10810,"Ġdocuments":10811,"Ġsignal":10812,"Ġì¹´ë©ĶëĿ¼":10813,"ĠLin":10814,"bour":10815,"othes":10816,"Ġcars":10817,"Ġworkers":10818,"Ġshift":10819,"Ġê·¸ëķĮ":10820,"ĠíĻįë³´":10821,"Ġê¹Įì§Ģ":10822,"Ġsequence":10823,"Ġartist":10824,"|Ë·":10825,"Ġnorth":10826,"ĠìĤ¬ëŀĮëĵ¤ìĿĢ":10827,"ĠìĿĺíķ´":10828,"Ġê°ķëł¥":10829,"Dec":10830,"ìĭ¬ìĿ´":10831,"ĠName":10832,"Ġslightly":10833,"Ġauth":10834,"emph":10835,"Ġfootball":10836,"Current":10837,"Ġë§ĪìĿĦ":10838,"ĠIsrael":10839,"ĠAlthough":10840,"Ġproposed":10841,"riptor":10842,"Ġì¢ĭìķĦìĦľ":10843,"ĠìłĦë¬¸ê°Ģ":10844,"ëĭĺìĿĢ":10845,"Ġexamples":10846,"asp":10847,"Ġleader":10848,"ë¦ĦìĿĦ":10849,"ĠĠĠĠĠĠĠĠĠĠĠĠĠĠĠĠĠĠĠĠĠĠĠĠĠĠĠĠĠĠĠĠĠĠĠĠĠĠĠ":10850,"Offset":10851,"ìĿ´ê¸°ëıĦ":10852,"ìłĢíĿ¬ëĬĶ":10853,"Yes":10854,"Script":10855,"Ġshopping":10856,"Ġdiagn":10857,"Right":10858,"Ġê³ĦëŀĢ":10859,"hers":10860,"Ġstarts":10861,"ĠInstitute":10862,"Ġscene":10863,"ãĢį":10864,"ido":10865,"ê³µíķŃ":10866,"íķĺë©´ìĦľëıĦ":10867,"egraphics":10868,"ìķ½ìĿĦ":10869,"íĳ":10870,"ë©´ìĦľëıĦ":10871,"Ġlaws":10872,"ìłģìĿ´ê³ł":10873,"includegraphics":10874,"ë¡ľë¶ĢíĦ°":10875,"ê²ĥê°Ļ":10876,"ìĽĶìĹĲ":10877,"¬ìĬ¤":10878,"Ġtrees":10879,"ëĤĺìĿĺ":10880,"ë°ĽìķĦ":10881,"ëī´ìĬ¤":10882,"ĠìĿĺë£Į":10883,"Ġplants":10884,"íĦ°ë¦¬":10885,"ĠëĤ¨ìĿĢ":10886,"ë°©ë¬¸":10887,"ĠìĽ¨":10888,"ĠíĺĦìŀ¥":10889,"Ġbuffer":10890,"ä¹":10891,"Ġfilled":10892,"ĠThank":10893,"Ġdaughter":10894,"ĠìłĦë¶Ģ":10895,"ĠThom":10896,"ìĸĢ":10897,"arian":10898,"¼ìª½":10899,"ĠìĦ¤ëªħíĸĪëĭ¤":10900,"ãĤĭ":10901,"ĠëĵľëĬĶ":10902,"See":10903,"Am":10904,"actor":10905,"âĸł":10906,"ĠìĪĺì¶ľ":10907,"Ġreality":10908,"LS":10909,"ê²°êµŃ":10910,"ĠìĤ¬ë¡Ģ":10911,"Â°":10912,"Ġcalling":10913,"Ġexternal":10914,"Ġlaunch":10915,"Ġë§Īì°¬ê°Ģì§Ģ":10916,"ĠQue":10917,"ĠìķĦìĿ´íħľ":10918,"ìŀ¬ë£Į":10919,"entity":10920,"oder":10921,"ë©Ģ":10922,"Ġretail":10923,"Ġcrow":10924,"reek":10925,"ĠìĨįìĹĲ":10926,"match":10927,"Ġ(\"":10928,"jpg":10929,"ìĭľìĬ¤íħľ":10930,"Ġdiscount":10931,"Ġcheap":10932,"iliar":10933,"Ġë°ĺìĺģ":10934,"ìĦ±ìĿĢ":10935,"Entry":10936,"imary":10937,"Ġê±´ì¶ķ":10938,"ë¶Ħìĸĳ":10939,"ìĮĪ":10940,"Ġìĸ´ì°Į":10941,"Ġcart":10942,"Ġprofessionals":10943,"ificate":10944,"omic":10945,"ë¶Ģëª¨":10946,"ĠSun":10947,"ĠSur":10948,"ĠìĿ´íķĺ":10949,"Ġì¤Ħìĸ´":10950,"Ġagreement":10951,"vector":10952,"Ġpreviously":10953,"Ġëĵľë¦¬":10954,"[\\":10955,"(@":10956,"ë¡ľëıĦ":10957,"ìĥģìĦ¸":10958,"Ġleaves":10959,"ĠCong":10960,"Ġhidden":10961,"Ġ{Ë·":10962,"Ġminute":10963,"ì¤ĳê°Ħ":10964,"ĠÐµ":10965,"ìĿ¸ìľ¼ë¡ľ":10966,"Range":10967,"Sl":10968,"`,":10969,"han":10970,"Ġê²ĥì²ĺëŁ¼":10971,"Use":10972,"Connection":10973,"site":10974,"Ġdecide":10975,"Ġprovider":10976,"Enc":10977,"Level":10978,"Ġexercise":10979,"akers":10980,"ented":10981,"Ġmessages":10982,"Ġradio":10983,"Ġfee":10984,"ĠLong":10985,"Ġoperating":10986,"SET":10987,"ola":10988,"æĹ":10989,"????":10990,"ì¿¨":10991,"Ġì°¸ìĦĿ":10992,"Ġegg":10993,"Ġcleaning":10994,"íķĺëĿ¼":10995,"ĠíħĲ":10996,"Ġtopic":10997,"ĠAv":10998,"Ġ!==":10999,"Ñį":11000,"ĠëĿĦ":11001,"rot":11002,"Ġknows":11003,"Ġanc":11004,"ì¤ĳìķĻ":11005,"Ġpresident":11006,"'Ë·":11007,"Ġëĭ´ëĭ¹":11008,"ĠìĹ°ìĬµ":11009,"ĠÐ¾ÑĤ":11010,"Description":11011,"íķĺëł¤ê³ł":11012,"ĠìĿ¸ìĥģ":11013,"Ġsnow":11014,"ĠëıĻìĥĿ":11015,"vents":11016,"Ġ.Ë·":11017,"Ġë¶Īêµ¬íķĺê³ł":11018,"ĠíĴįë¶Ģ":11019,"ĠìĭľìĪł":11020,"Ġloan":11021,"ÑĸÐ²":11022,"ĠíĿ¬ë§Ŀ":11023,"Ġì¡°ê¸ĪìĶ©":11024,"ictionary":11025,"ìľĦëĬĶ":11026,"ĠíķĦìļĶê°Ģ":11027,"íİĮ":11028,"Ġarguments":11029,"Ġhelpful":11030,"ì½¤íķľ":11031,"Ġchair":11032,"Ġreplace":11033,"Ġì´īì´ī":11034,"ĠColor":11035,"Ġê²¸":11036,"command":11037,"________":11038,"ìĻĦìłĦ":11039,"Since":11040,"Ġvision":11041,"ë¿Į":11042,"pped":11043,"íĻĶìłĲ":11044,"Ġshowed":11045,"Ġì¡°ì§ģ":11046,"ampions":11047,"ĠAndroid":11048,"ĠĠĠĠĠĠĠĠĠĠĠĠĠĠĠĠĠĠĠĠ":11049,"Ġëĭ¦":11050,"Ġgeneration":11051,"scape":11052,"ë¬¼ìĿĢ":11053,"ĠFire":11054,"itz":11055,"Location":11056,"ĠSK":11057,"cb":11058,"admin":11059,"orig":11060,"raz":11061,"rical":11062,"Ġsector":11063,"aciÃ³n":11064,"Ġê³Ħìĭł":11065,"normal":11066,"Port":11067,"ìĸ´ìłľ":11068,"Ġë¬¸ìłľë¥¼":11069,"Ġul":11070,"xe":11071,"ì¾Į":11072,"cache":11073,"env":11074,"address":11075,"ĠKey":11076,"Ġì°Į":11077,"Ġinstallation":11078,"êµ¬ìĿ´":11079,"Ġë§ŀê²Į":11080,"Ġextension":11081,"Ġleaving":11082,"ĠLand":11083,"LECT":11084,"ĠNS":11085,"ĠìłĢëł´íķľ":11086,"imb":11087,"try":11088,"ervation":11089,"ìķĦë²Ħ":11090,"Ġfacilities":11091,"Ġfamous":11092,"Ġlisten":11093,"ĠÐ¿ÑĢÐ¸":11094,"ª¼":11095,"eder":11096,"ëķħ":11097,"Json":11098,"ategories":11099,"ë¡ľìļ°":11100,"Ġfan":11101,"bling":11102,"eler":11103,"Te":11104,"ito":11105,"Ġê´Ģìĭ¬ìĿ´":11106,"ĠRet":11107,"ĠìĹ¬ìłĦíŀĪ":11108,"uts":11109,"ĠíĻĢ":11110,"<Ë·":11111,"ĠìķĦìĿ´ëĵ¤ìĿ´":11112,"ulture":11113,":(":11114,"ìĻĢìĿĺ":11115,"Ġholds":11116,"ĠHand":11117,"ĠìĺĽ":11118,"Ġcommunities":11119,"Option":11120,"ĠëıĦìŀħ":11121,"Ġplenty":11122,"Ġdram":11123,"ĠìĿ¼ì°į":11124,"Ġë¬´ì¡°ê±´":11125,"Ġchart":11126,"ĉĉĊ":11127,"Ġë§¥ì£¼":11128,"FONT":11129,"?'":11130,"lam":11131,"Ġchain":11132,"Ġìĸ´ìłľ":11133,"ĠëĬĲëĤĮìĿĦ":11134,"ë¶ĦìĿĺ":11135,"ali":11136,"mo":11137,"ãģ¦":11138,"osis":11139,"Ġëįķë¶ĦìĹĲ":11140,"Ġì°°":11141,"ĠMiss":11142,"ĠStart":11143,"Ġë°Ľìľ¼":11144,"ums":11145,"Ġê°ĢëģĶ":11146,"ĠíĦ¸":11147,"ĠApple":11148,"ĠëĩĮ":11149,"clear":11150,"ĠGerman":11151,"DR":11152,"ĠCode":11153,"ëĿł":11154,"ĠÐĳ":11155,"ĠìŀĪìĸ´ìķ¼":11156,"ëŀį":11157,"IGN":11158,"ëĤŃ":11159,"Ġrestrict":11160,"Ġë§¤ìŀ¥":11161,"ĠLake":11162,"Ġdetailed":11163,"ë§ĪíĨł":11164,"ĠGrand":11165,"step":11166,"Ġbelong":11167,"delete":11168,"ëª©ìĿĦ":11169,"íħĮìĿ´ë¸Ķ":11170,"URE":11171,"del":11172,"Ġholiday":11173,"auth":11174,"ĠíŀĺìĿĦ":11175,"Ġìŀ¥ê¸°":11176,"Ġcloud":11177,"Ġnor":11178,"Ġdanger":11179,"Ġcream":11180,"ĠìĨĮë¦¬":11181,"ĠìĭľìłĪ":11182,"Ġ(*":11183,"Ġyield":11184,"ĠìĦ¸ìĥģ":11185,"ãĥ¼":11186,"ê°ĢìĹĲ":11187,"tree":11188,"ĠSuper":11189,"NULL":11190,"ë¸Ĳ":11191,"asic":11192,"Ġinstant":11193,"ICAgICAg":11194,"ĠëĮĢìłĦ":11195,"However":11196,"Ġdistributed":11197,"Ġê·¸ë¦°":11198,"ĠEngine":11199,"orph":11200,"Ġfo":11201,"ëĮĢì¶ľ":11202,"pub":11203,"ĠSoft":11204,"ìĿ´ë²ĪìĹĲ":11205,"Ġoch":11206,"Ġdoctor":11207,"ĠìĿ¼ìĸ´":11208,"Ġë¥¼":11209,"rolled":11210,"iner":11211,"Ġë¬¼ìĸ´":11212,"ë¨¹ìĿĦ":11213,"Ġleads":11214,"Ġì¦Ĳê¸°":11215,"TC":11216,"Ġjoint":11217,"ìĪĺë¦¬":11218,"Ġagent":11219,"ĠìŀĲë£Į":11220,"Ġ\"\\":11221,"Ġë°Ľìķĺ":11222,"Ġcolour":11223,"ìķĹ":11224,"ì£¼ìĸ¼":11225,"Ġcompetition":11226,"ìĬ¤ì½Ķ":11227,"important":11228,"Ġweak":11229,"poss":11230,"ĠZe":11231,"ĠScience":11232,"TI":11233,"DS":11234,"going":11235,"ĠFoundation":11236,"aset":11237,"æķ":11238,"Application":11239,"ëĲĺë©´ìĦľ":11240,"Ġmaintenance":11241,"ĠAfrica":11242,"Ġnumerous":11243,"burg":11244,"Ġrecip":11245,"ì¤ĳíķľ":11246,"Ð¾Ð¿":11247,"Ġraised":11248,"ynch":11249,"ĠOper":11250,"Ġequival":11251,"Ġ\\,":11252,"ìĭ¤ìĿĦ":11253,"ìĿ´ëŁ¬":11254,"Ë·\"></":11255,"ĠUSA":11256,"lig":11257,"mode":11258,"ÂłĠÂłĠ":11259,"Ġter":11260,"Ġë°©ë²ķìĿĦ":11261,"hs":11262,"ups":11263,"Ġtoken":11264,"Ð¾Ð¶":11265,"second":11266,"Ġcry":11267,"ĠSO":11268,"ĠìĿ´ë²ĪìĹĲ":11269,"´íĳ¸":11270,"Ġdesk":11271,"ona":11272,"ãģŁ":11273,"MI":11274,"ĠìĥĪë²½":11275,"Ġveget":11276,"ĠìĥĪìļ°":11277,"Ġê°Ģë³į":11278,";;;":11279,"Ġbott":11280,"hash":11281,"Ġtransp":11282,"Ġconstr":11283,"ĠìµľìĨĮ":11284,"íķĻê³¼":11285,"geq":11286,"ĠìĪĺìļĶ":11287,"icken":11288,"ìĦĿìĿ´":11289,"NG":11290,"ĠíĻķìĭ¤íŀĪ":11291,"system":11292,"ĠíĬ¹ë³Ħíķľ":11293,"Ġcoverage":11294,"pdf":11295,"strap":11296,"ĠâĢ¢":11297,"Ġì¡°ìĦ±":11298,"ĠìĭłìĦł":11299,"Ġì£¼ìĿ¸ê³µ":11300,"ifts":11301,"Ġë³´ë©´ìĦľ":11302,"Ġton":11303,"Ġoverride":11304,"Ġê¹ĶëģĶíķĺê²Į":11305,"tog":11306,"Position":11307,"iller":11308,"Ġê´Ģìĭ¬ìĿĦ":11309,"Pass":11310,"Ġdepending":11311,"reference":11312,"Ġaccommod":11313,"bound":11314,"Ġresolution":11315,"Ġvariables":11316,"ĠMap":11317,"urrency":11318,"ê¸¸ìĿĦ":11319,"ì£¼ìĿ¼":11320,"road":11321,"ĠìķĬìľ¼ë©´":11322,"ëŀĲëĭ¤":11323,"ðŁı":11324,"ìĭĿíĴĪ":11325,"ĠUN":11326,"ë°ĶìĿ¼":11327,"izont":11328,"amm":11329,"ĠFlorida":11330,"custom":11331,"ĠâĹ":11332,"ĠLED":11333,".(":11334,"ĠTexas":11335,"ĠÐ¿Ð¾":11336,"Ġì»´íĵ¨íĦ°":11337,"ĠAlex":11338,"Ġguests":11339,"íĹ¤ìĸ´":11340,"Ġcivil":11341,"Ġintroduced":11342,"!)":11343,"ĠìĻ¸ë¶Ģ":11344,"Ġrestaurant":11345,"ê¾":11346,"osing":11347,"ë²Ħê±°":11348,"âĹı":11349,"Ġê°Ģë°©":11350,"Ġë¹ĦíĥĢë¯¼":11351,"ë³µì§Ģ":11352,"Ġë³´ìĿ´ê³ł":11353,"Ġpractices":11354,"ĠëĤĺì¤ĳìĹĲ":11355,"ĠMichael":11356,"ëĭĪìķĦ":11357,"Ġdetermined":11358,"Ġ``":11359,"sol":11360,"ĠìĿ´ìĤ¬":11361,"Ġì§Ģìłķ":11362,"ensed":11363,"ĠJe":11364,"HER":11365,"ĠSil":11366,"Ġëĭ¤ìĿ´":11367,"ati":11368,"make":11369,"Ġbeach":11370,"ì¤ĳìĿ´":11371,"íķ´ì§ĢëĬĶ":11372,"ĠìĹĨëĭ¤ëĬĶ":11373,"ì¶Ķê°Ģ":11374,"ë³¶ìĿ´":11375,"ìĭľíĤ¤ëĬĶ":11376,"Ġinfr":11377,"stack":11378,"ĠëĮĢìĿĳ":11379,"Ġlicense":11380,"ìĦłìĿ´":11381,"Ġbecoming":11382,"FB":11383,"():":11384,"Ġlose":11385,"íķĺìļ°":11386,"&&(":11387,"Ġdistrict":11388,"mi":11389,"Ġtypically":11390,"ĠìĺģêµŃ":11391,"Ġì¢ħíķ©":11392,"ORM":11393,"ë¦¬ìĺ¤":11394,"Ġdiscussion":11395,"Ġfunds":11396,"Ġë¶Ħëĵ¤ëıĦ":11397,"ìĺ¤ëŀľë§ĮìĹĲ":11398,"Ġì§±":11399,"real":11400,"ĠOh":11401,"resource":11402,"Ġtow":11403,"ê¸°ë§Į":11404,">.":11405,"DC":11406,"Ġbill":11407,"ê²½ì°°":11408,"outhern":11409,"ĠText":11410,"varphi":11411,"Ġcontem":11412,"íĶĦëłĪ":11413,"Ġconference":11414,"Ġì¶©ìłĦ":11415,"íĮĲìĿĦ":11416,"Ġprefer":11417,"Ġê¸°ì´Ī":11418,"ĠLeg":11419,"ĠëĦĵìĿĢ":11420,"ĠëĤĺëĪł":11421,"Ġ}}":11422,"Ġextract":11423,"Ġring":11424,"Ġsubsc":11425,"ê°ľê°Ģ":11426,"ëĭ¤ë§Į":11427,"ĠëĪĮëŁ¬":11428,"ëįľ":11429,"Ġbeauty":11430,"ì²´íĹĺ":11431,"Fin":11432,"Ġeconomy":11433,"Ġmanner":11434,"íĮĮìĿ´":11435,"Ġapart":11436,"ëĤĺê°Ģ":11437,"íĸīìĿĦ":11438,"GE":11439,"Phone":11440,"clude":11441,"Ġë§Īìĭľ":11442,"Menu":11443,"ë¥¸ëĭ¤":11444,"ë§ĪìĿĮ":11445,"nam":11446,"ëį°ìĿ´íĬ¸":11447,"īìĿĢ":11448,"ĠRob":11449,"ĠìĦłë³´":11450,"ĠCorp":11451,":\\":11452,"Ġattribute":11453,"Ġì¹ł":11454,"send":11455,"ERROR":11456,"Mar":11457,"iders":11458,"ë¥łìĿ´":11459,"Ġbiggest":11460,"ìłĢíĬ¸":11461,"ĠSa":11462,"PORT":11463,"íħĲëį°":11464,"ë¡ľìĦľ":11465,"íĨ±":11466,"ìĦ±ë¹Ħ":11467,"files":11468,"ìĽĮíģ¬":11469,"Ġsugar":11470,"ìľĦìĿĺ":11471,"Ã½":11472,"ĠIsland":11473,"Ġworry":11474,"Ġadapt":11475,"ëĭ¤ëĵ¤":11476,"Ġtit":11477,"ĠRepublic":11478,"Ġêµ¿":11479,"vi":11480,"ëŀĳìĬ¤":11481,"Ġë§ŀì¶Ķ":11482,"Ġexchange":11483,"ìķĦë§Ī":11484,"ĠTrue":11485,"ĠìĪĺìĺģ":11486,"Ġdinner":11487,"Ġexpensive":11488,"ê¸°ì¤Ģ":11489,"\"},":11490,"Ġê·¼ìľ¡":11491,"Ġê²ĥìĹĲ":11492,"aws":11493,"Ġassume":11494,"ĠÎ":11495,"Ġê·ĢìĹ½":11496,"ìĿ´ìĿµ":11497,"device":11498,"ëªħíķľ":11499,"ì±ħìĿĦ":11500,"faces":11501,"ĠDev":11502,"ë¯¸ê°Ģ":11503,"Ġìĭľì¼°":11504,"Ġjump":11505,"returns":11506,"Parameter":11507,"Ġë®¤":11508,"ìŀĲëĵ¤ìĿĺ":11509,"Interface":11510,"ì¤ĳê³ł":11511,"ĠëıĦë¡ľ":11512,"ATA":11513,"ĠAngel":11514,"Ġwhom":11515,"Ġrub":11516,"ĠìĤ¬ëŀĮìĿĦ":11517,"hab":11518,"none":11519,"Ġregistered":11520,"Ġsounds":11521,"amin":11522,"ì§Ģìĸ´":11523,"rames":11524,"xb":11525,"Local":11526,"ìŀ¥ìĿ¸":11527,"ĠìĥĲëŁ¬ëĵľ":11528,"{}":11529,"azz":11530,"ëĤ¨ëıĦ":11531,"Ġfocused":11532,"ë¿Ĳë§Į":11533,"Ġê°Ģê¸°":11534,"ì£¼ìĭł":11535,"Ġoccup":11536,"Left":11537,"ĠTor":11538,"ĠìĦľë¹ĦìĬ¤ë¥¼":11539,"Ġìĩ¼":11540,"Utils":11541,"ĠIl":11542,"ko":11543,"final":11544,"ìłľìŀĳ":11545,"Ġeth":11546,"Ġbuying":11547,"ìĽ¨ìĿ´":11548,"ìłĢê¸°":11549,"Ġê°ķíķľ":11550,"Ġê´´":11551,"GET":11552,"Ġcombined":11553,"Ġ~~":11554,"Ġìłľì¶ľ":11555,"Ġheader":11556,"ĠMad":11557,"ĠMo":11558,"Ġadvent":11559,"Ġë¿Ĳë§Į":11560,"istrict":11561,"íķĺìħĶìĦľ":11562,"Ġdiet":11563,"Ġëĭ¨ì²´":11564,"igr":11565,"ìĨĮëĵĿ":11566,"ĠChild":11567,"ĠDiv":11568,"!!!!!!!!":11569,"refix":11570,"Ġìĭłê·ľ":11571,"Ã©n":11572,"Ë·?":11573,"ĠìķĬìķĦëıĦ":11574,"ëĵ±ë¡Ŀ":11575,"note":11576,"Ġlinear":11577,"Rel":11578,"Main":11579,"Ġtasks":11580,"ìĿ¼ê¹Į":11581,"Ġë§ĮìĹĲ":11582,"Ġgun":11583,"Ġneighbor":11584,"ëħĦìĿ´":11585,"HA":11586,"Ġíİ¸ìĿĺ":11587,"Ġê°Ħíİ¸":11588,"ĠëıĻëĦ¤":11589,"should":11590,"Ġì§ķ":11591,"Ġstone":11592,"Ġvisitors":11593,"ìĪĺìĽĲ":11594,"Ġë¹Ħìĭ¸":11595,"ëł¬":11596,"export":11597,"Ġrespectively":11598,"Ġclassic":11599,"Ġbrief":11600,"EB":11601,"ìĥĪìļ°":11602,"WA":11603,"replace":11604,"ĠíķĺëĬĶëį°ìļĶ":11605,"ĠLove":11606,"Ġç":11607,"ê¿Ī":11608,"missions":11609,"reedom":11610,"Ġìĭľì²Ń":11611,".~\\":11612,"ĠíĸīëıĻ":11613,"ĠÐĿ":11614,"Ġstack":11615,"typeof":11616,"ë²Īê¸¸":11617,"Ġdescribe":11618,"ĠNews":11619,"Ġdesigns":11620,"ĠíĨµíķľ":11621,"ĠìĹ´ë¦°":11622,"byte":11623,"Ġë§¤ìļ´":11624,"related":11625,"peed":11626,"Ġìĭ«ìĸ´":11627,"utils":11628,"ìļ°ë¦¬ëĬĶ":11629,"Ġê¸Ģë¡ľë²Į":11630,"Ġsuitable":11631,"Ġìŀ¡ê³ł":11632,"ê¸°ì¡´":11633,"ĠëĮĵê¸Ģ":11634,"Ġmail":11635,"Ġë°°ëĭ¬":11636,"ĠìķĦìĿ´ëĵ¤":11637,"Ġflag":11638,"Ġê³±":11639,"Ġê¸Īë°©":11640,"ĠFil":11641,"Ġíķ¨ìľł":11642,"Ġthousands":11643,"ntax":11644,"Ġëįĺ":11645,"ĠrÃ©":11646,"ĠWater":11647,"SU":11648,"Ġëļľ":11649,"ìĿĺìĽĲ":11650,"Ġìļ´ìłĦ":11651,"internal":11652,"ĠWed":11653,"ãģª":11654,"atin":11655,"ĠCare":11656,"ìĭľíĭ°":11657,"Ġboost":11658,"debug":11659,"ados":11660,"ê·¸ëłĪìĿ´":11661,"Ġemerg":11662,"Ġfailure":11663,"Ġintr":11664,"overline":11665,"ĠCamp":11666,"ĠMont":11667,"ige":11668,"ĠìĹŃìĤ¬":11669,"ĠMusic":11670,"·Ķ":11671,"âĦ":11672,"Ġtaste":11673,"ãħİãħİãħİãħİ":11674,"itness":11675,"Ġìĭ¶ìĸ´ìĦľ":11676,"ĠSl":11677,"Ġmajority":11678,"ĠëĶ°ëľ»íķľ":11679,"Ġì°įìĿĢ":11680,"Empty":11681,"high":11682,"Ġë´ĲëıĦ":11683,"ìĹĦì²Ń":11684,"Ġxml":11685,"Ġtro":11686,"ëĶľ":11687,"ĠìķŀìĦľ":11688,"Ġê¸°ë°ĺ":11689,"ê±´ì§Ģ":11690,"ëĭ¤ìĿ´ìĸ´íĬ¸":11691,"Ġauf":11692,"ê¸Īìķ¡":11693,"ifies":11694,"kl":11695,"ëĲĺë©°":11696,"ĠId":11697,"ê±´ìĦ¤":11698,",,,,":11699,"otic":11700,"íķŃìĥģ":11701,"DP":11702,"ĠëĪĪìĿ´":11703,"ìĸ´ë¡ľ":11704,"ĠÐł":11705,")$,":11706,"Ġì¦Ĳê±°ìļ´":11707,"ĠìĿĺìĽĲ":11708,"Const":11709,"ìķĦë¹ł":11710,"ìŀ¥ìĨĮ":11711,"Ġdump":11712,"hover":11713,"ìĹĲë§Į":11714,"ĠEnt":11715,"Ġproud":11716,"Ġconver":11717,"produ":11718,"Ġcos":11719,"ĠëĦĪë¬´ëĤĺ":11720,"ĠHall":11721,"bert":11722,"Ġconsequ":11723,"Ð´Ð°":11724,"ë¯¹":11725,"ë¬¼ìĿĺ":11726,"focus":11727,"ĠìķĦëĭĪì§Ģë§Į":11728,"ĠStar":11729,"ĠìĺĪìĪł":11730,"Ġproceed":11731,"ĠìłĦíĻĺ":11732,"ometry":11733,"dot":11734,"ìļ©ìľ¼ë¡ľ":11735,"Ġvideos":11736,"Ġexplain":11737,"ĠÐ½Ðµ":11738,"ĠÑĤÐ°":11739,"ĠBack":11740,"Red":11741,"Direct":11742,"ä¸Ģ":11743,"Ġë¨¹ìĸ´ìķ¼":11744,"Ġanimals":11745,"ìķĦê¸°":11746,"Ġscr":11747,"kin":11748,"imation":11749,"Ġãħľãħľ":11750,"ìŀ¥ëıĦ":11751,"ĠNO":11752,"Ġvolunte":11753,"Ë·!":11754,"ĠëĲĺëĬĶëį°":11755,"Ġstars":11756,"ĠíķľìŀĶ":11757,"Ġris":11758,"ëĪĪìį¹":11759,"ĠëĽ°ìĸ´":11760,"Ġjson":11761,"uty":11762,"ë³´íĺ¸":11763,"Tree":11764,"Ġlabor":11765,"Sw":11766,"Ġals":11767,"auto":11768,"Ġposts":11769,"Ġqui":11770,"wiki":11771,"Ġlocations":11772,"Ġallowing":11773,"Ġtun":11774,"Ġfabric":11775,"ycl":11776,"ĠëŃĺ":11777,"ishes":11778,"ĠON":11779,"olar":11780,"ĠDen":11781,"exports":11782,"ë¹ĮëĿ¼":11783,"ë²ķìĿĦ":11784,"Ġê²ĢìĤ¬":11785,"ĠLight":11786,"ë¬´ìĽĲ":11787,"Params":11788,"Ã¡n":11789,"ĠError":11790,"PU":11791,"Ġjournal":11792,"Ġspr":11793,"WS":11794,"gs":11795,"Document":11796,"Ġrecommended":11797,"Ġìµľì¢ħ":11798,"Ġwriter":11799,"txt":11800,"Just":11801,"Ġíĸīë³µíķľ":11802,"Ġaudio":11803,"prise":11804,"Ġremaining":11805,"ushed":11806,"Ġìĺ¤ëŀľ":11807,"ugh":11808,"COL":11809,"Ġdur":11810,"esh":11811,"ocation":11812,"Unit":11813,"Ġê°ĻëĦ¤ìļĶ":11814,"Ġthoughts":11815,"Ġsumm":11816,"vm":11817,"Ġfans":11818,"ìĽĮìļĶ":11819,"Ġdecisions":11820,"Ġspin":11821,"Ġê¸°íĥĢ":11822,"Ġê°Ģêµ¬":11823,"Ġelim":11824,"ĠìĤ´ê³ł":11825,"edge":11826,"ìłĦì²´":11827,"Ġboot":11828,"ĠìĨįìĹĲìĦľ":11829,"Ġê²Įìĭľ":11830,"Ġwalking":11831,"Ġprocedure":11832,"elle":11833,"ĠìĬ¤ë§ĪíĬ¸íı°":11834,"íĬľëĶĶìĺ¤":11835,"Ġëª¨ë¥´ëĬĶ":11836,"ì¸µìĹĲ":11837,"ĠìĤ¬ëŀĮìĿĺ":11838,"Ġê³ĦíļįìĿ´ëĭ¤":11839,"Ġë§ĳ":11840,"Ġcentre":11841,"Ġìĸĩ":11842,"Ġrend":11843,"*)":11844,"è¡":11845,"íļĮìĹĲ":11846,"star":11847,"ë°ĽëĬĶ":11848,"ìĿ¸ë¶Ħ":11849,"Ġê·¸ëıĻìķĪ":11850,"ë¬¸ìłľ":11851,"ĠëĤłìĿ´":11852,"OO":11853,"eries":11854,"ĠLook":11855,"Ġexcited":11856,"Ġchosen":11857,"Ġêµ¬ì¶ķ":11858,"dist":11859,"ĠShow":11860,"appro":11861,"ê±°ëĿ¼":11862,"arks":11863,"Ġbought":11864,"Ġjoined":11865,"Ġìļ°ë¦¬ìĿĺ":11866,"Ġwaste":11867,"Ġê°ľìµľ":11868,"Ġbreath":11869,"ĠStand":11870,"łì§Ģ":11871,"ë§Īë¦¬":11872,"Ġë§Įëĵ¤ê³ł":11873,"Ġì§ĢíĤ¤":11874,"Ġtransaction":11875,"ë¬ĺ":11876,"req":11877,"Ġlux":11878,"ĠMex":11879,"ĠëķĮë§Īëĭ¤":11880,"dest":11881,"Ġê°ķìĿĺ":11882,"Ð¸Ñģ":11883,"Ð°Ð»ÑĮ":11884,"Ġven":11885,"ĠMain":11886,"DI":11887,"Ġrecipe":11888,"ë¯¸ìļ©":11889,"ì¤ĢìĿ´":11890,"ĠPeople":11891,"ĠMax":11892,"outs":11893,"CI":11894,"Ġìħĭ":11895,"ìĦ±íĻĶ":11896,"ë§ĮëĳĲ":11897,"eller":11898,"ĠCommit":11899,"ëĭĺìĿĦ":11900,"alian":11901,"Ġê°Ģìłķ":11902,"Ġhospital":11903,"PP":11904,"Ġpure":11905,"ìħĺìĿĦ":11906,"ìĭ¶ìĿĢ":11907,"Ġnovel":11908,"ĠìĹĨì§Ģë§Į":11909,"ĠTur":11910,"cz":11911,"ê±°ìĹĲìļĶ":11912,"Ġhyd":11913,"ĠìĨĶì§ģ":11914,"Ġshut":11915,"Ġë°Ķíĥķ":11916,"overy":11917,"ĠëħĦ":11918,"íĥĢìŀĦ":11919,"Ġupload":11920,"Ġvent":11921,"Ġseat":11922,"Ġnotes":11923,"Ġri":11924,"ĠìķĬëıĦë¡Ŀ":11925,"ĠWord":11926,"Ġschedul":11927,"ĠGeorge":11928,"Ġhet":11929,"rend":11930,"handle":11931,"ĠParis":11932,"Ġsurg":11933,"ìļĶë¦¬":11934,"ÑĩÐµ":11935,"Ġcircum":11936,"ĠClick":11937,"ëĦ¤ìĿ¼":11938,"ê¹ĶëģĶ":11939,"ĠíĽĮ":11940,"Pe":11941,"Ġsimpl":11942,"inline":11943,"Ġíľ´ëĮĢ":11944,"Ġimportance":11945,"åĬ":11946,"Ġinfluence":11947,"Ġeditor":11948,"ĠTherefore":11949,"ĠìĤ¬ìļ©íķĺê³ł":11950,"ĠOnly":11951,"access":11952,"ì£¼ìĭľë©´":11953,"ĠìĿĮìĭĿìĿĦ":11954,"ĠìĦ±ê²©":11955,"Ġê·¸ëł¤":11956,"Ġta":11957,"ĠìĹĨëĭ¤ê³ł":11958,"uable":11959,"ĠWood":11960,"êµŃë¯¼":11961,"ĠëķĲ":11962,"Ġsalt":11963,"Ġìķ±":11964,"ista":11965,"ading":11966,"Op":11967,"ëĤĺë§Ī":11968,"ĠSection":11969,"estion":11970,"=\\\"":11971,"ĠCentral":11972,"roke":11973,"Ġë´ħëĭĪëĭ¤":11974,"è¯":11975,"ì¤Į":11976,"Ġdepth":11977,"ĠìĺĪë»Ĳ":11978,"ernel":11979,"ursday":11980,"ìĺµëĭĪëĭ¤":11981,"ĠìĸĳìĿ´":11982,"Ġessay":11983,"ĠìĪĺëĬĶ":11984,"resents":11985,"ìļ¸ìĤ°":11986,"Ġju":11987,"Ġâĸ³":11988,"Ġë§Īìĭľê³ł":11989,"ìĦ°":11990,"Ġê³³ìĹĲìĦľ":11991,"Ġabsolutely":11992,"Ġsusp":11993,"Look":11994,"Ġmostly":11995,"Ġapproximately":11996,"ĠGen":11997,"ìĦ±ìĿĺ":11998,"Ġìŀħì£¼":11999,"âĿ¤":12000,"ĠThus":12001,"azine":12002,"Ġplastic":12003,"aped":12004,"fn":12005,"Ġê²ĥìĿ´ëĿ¼ê³ł":12006,"Ġsetup":12007,"ĉĠ":12008,"ĠAmazon":12009,"Ġsustain":12010,"Ġrelationships":12011,"Eng":12012,"Ġì¤ĳìĹĲìĦľ":12013,"Ġìĭľë¦¬ì¦Ī":12014,"ĠâĨĴ":12015,"Ġ),":12016,"Ġclaims":12017,"orthern":12018,"íĸīë³µ":12019,"operator":12020,"orry":12021,"Ġìºłíķĳ":12022,"Impl":12023,"ĠIts":12024,"Ð½Ñĸ":12025,"ĠBlue":12026,"Ġê²ģëĭĪëĭ¤":12027,"Ġpolicies":12028,"Ġvel":12029,"ocker":12030,"ìĨįìĹĲ":12031,"elled":12032,"ĠìĦłíĺ¸":12033,"CODE":12034,"ĠMer":12035,"Ġinner":12036,"ĠRad":12037,"apos":12038,"ĠìµľëĮĢíķľ":12039,"Ġsuit":12040,"ĠëĮĢíķľë¯¼êµŃ":12041,"ĠìĿ´ìģľ":12042,"ÑĸÐ´":12043,"Ġê´ĳì£¼":12044,"Ġprove":12045,"Ġì§Ģê¸ĪìĿĢ":12046,"Ġì§ĵ":12047,"ĠëĮĢê¸°":12048,"ãĤĴ":12049,"unfinished":12050,"wa":12051,"Callback":12052,"íļĮëĬĶ":12053,"Ġë¶Ģë¶ĦìĿĦ":12054,"ãĦ±":12055,"ä¸Ń":12056,"ìĸ´ìļ©":12057,"ĠCA":12058,"Ġobserved":12059,"Ġresidents":12060,"Ġêº¼ëĤ´":12061,"ĠSE":12062,"life":12063,"Ġì¡°ìļ©":12064,"Ġsigned":12065,"ĠLear":12066,"Ġprin":12067,"istor":12068,"ĠRequ":12069,"ìŀĲìĹĲê²Į":12070,"Ġist":12071,"Ġstores":12072,"íĽĦê¸°":12073,"ĠVir":12074,"Ġremote":12075,"íķĺíķĺ":12076,"Ġë³´ìĭľë©´":12077,"ĠAL":12078,"Ġwur":12079,"Ġë°°ê²½":12080,"Ġê°Ģë¥´":12081,"êµ¬ì¡°":12082,"ĠKore":12083,"Settings":12084,"ĠíĴįê²½":12085,"category":12086,"íĺ¹ìĭľ":12087,"ĠìĹĨìĸ´ìļĶ":12088,"ĠìĽĮëĤĻ":12089,"ection":12090,"ìĥīìĿ´":12091,"ë¸ĶëŀĻ":12092,"ì²´ë¥¼":12093,"Ġreduced":12094,"Ġauthent":12095,"ĠìłĲìĿ´":12096,"ìĤ°ìĿ´":12097,"Core":12098,"ĠTheir":12099,"plet":12100,"Ġintegr":12101,"ìłĲìĹĲ":12102,"Ë·)$":12103,"Ġë°ĺëĮĢ":12104,"aked":12105,"framework":12106,"ðŁ¤":12107,"icker":12108,"ĠĠĠĠĠĠĠĠĠĠĠĠĠĠĠĠĠĠ":12109,"ìĦľë¡ľ":12110,"Ġì°¸ê°Ģ":12111,"Ġìłĳê·¼":12112,"ĠëĤ¬":12113,"types":12114,"å°":12115,"Ġëĭ¤ë¥´ê²Į":12116,"claim":12117,"Ë·=":12118,"Ġalgorithm":12119,"Ġê¸¸ìĿĦ":12120,"Ġsport":12121,"åį":12122,"ê°ĦìĿĺ":12123,"ëħ¹":12124,"Ġtor":12125,"ëĩ¨":12126,"Ġdoubt":12127,"annels":12128,"xa":12129,"Ġwa":12130,"Ġìĸ¸ê¸ī":12131,"'],":12132,"ÑģÑĤÐ¸":12133,"Ġwid":12134,"ĠHREF":12135,"udd":12136,"Ġepis":12137,"spring":12138,"Ġì¦Ĳê±°":12139,"íķĺê²łìĬµëĭĪëĭ¤":12140,"Åĳ":12141,"ĠìķĦëĭĪë©´":12142,"ëĵ¤ê³ł":12143,"Ġíķ©ê²©":12144,"izontal":12145,"estic":12146,"iments":12147,"erer":12148,"ĠìĤ¬ìĿ´ìĹĲ":12149,"lict":12150,"oles":12151,"Ġcompare":12152,"Ġkeys":12153,"xc":12154,"ĠìĬ¤íģ¬":12155,"ĠìĿ¸ê·¼":12156,"ë°Ń":12157,"Ġfaster":12158,"cean":12159,"Ġì¤ĳìĭ¬ìľ¼ë¡ľ":12160,"Ġfederal":12161,"double":12162,"Ġmotiv":12163,"ì£¼ìĨĮ":12164,"Ġ<=":12165,"ìĪ¨":12166,"Ġíĺ¹ìĭľ":12167,"ìĤ°ëıĻ":12168,"application":12169,"Ġshel":12170,"ĠTim":12171,"success":12172,"Ġpsych":12173,"ĠìķĦëĭĲê¹Į":12174,"PG":12175,"Ġprepare":12176,"ĠÃ¤":12177,"ĠSu":12178,"ĠíŀĺìĿ´":12179,"Ġcitiz":12180,"icians":12181,"Ġaccompl":12182,"scious":12183,"Ġeventually":12184,"Ġwilling":12185,"ĠìĿ´ìļ©íķ´":12186,"riev":12187,"ĠìķĦìĿ´ê°Ģ":12188,"ĠLike":12189,"Ġagreed":12190,"(!":12191,"ÐĴ":12192,"Ġì¹Ń":12193,"ëĵľë¦¬ê²łìĬµëĭĪëĭ¤":12194,"Store":12195,"Hash":12196,"pling":12197,"uesday":12198,"sear":12199,"Ġunivers":12200,"\\,":12201,"Ë·Â·":12202,"inations":12203,"Ġwatching":12204,"ÐµÐ»ÑĮ":12205,"Ġì°įê³ł":12206,"Ġmouth":12207,"aml":12208,"apse":12209,"Ġended":12210,"Custom":12211,"ĠìĥĿê²¨":12212,"ĠDirector":12213,"¬ë½ķ":12214,"stop":12215,"ĠëĤłìĶ¨ê°Ģ":12216,"Ġãħĭãħĭãħĭãħĭãħĭ":12217,"iro":12218,"ë°Ķëĭ¤":12219,"ë¯¸ë¦¬":12220,"ìĿ´íģ¬ìĹħ":12221,"Ġëĵ¤ìĸ´ìĺ¤":12222,"ĠEducation":12223,"ìħī":12224,"Ptr":12225,"=\"_":12226,"ëĤ¨ìŀĲ":12227,"Ġë¶Ħë¦¬":12228,"frak":12229,"ĠPM":12230,"toString":12231,"ĠìĤ¬ìĭ¤ìĿĦ":12232,"ë¶ĦìĿĢ":12233,"Ġquiet":12234,"ë¹ĦëĬĶ":12235,"Ġspaces":12236,"modal":12237,"rowser":12238,"patch":12239,"fortunately":12240,"Ġcontaining":12241,"íħĮíģ¬":12242,"ìłĲìĭ¬":12243,"ĠëĴ¤ìĹĲ":12244,"Ġartists":12245,"ĠFrank":12246,"Ġbon":12247,"Project":12248,"Ġidentity":12249,"Ġphil":12250,"NT":12251,"igration":12252,"uries":12253,"ĠìĥĿê°ģíķ´":12254,"ĠëĤĺìĿ´":12255,"Ġpurposes":12256,"session":12257,"alax":12258,"ãħĭãħĭãħĭãħĭãħĭãħĭãħĭãħĭãħĭãħĭãħĭãħĭãħĭãħĭãħĭãħĭ":12259,"Ġtrav":12260,"ìĭ¤ìĹĲ":12261,"ĠëĦī":12262,"Ġcontinues":12263,"Ġcourses":12264,"Ġthr":12265,"Ġcris":12266,"Ġnative":12267,"xd":12268,"Ġeen":12269,"ì¡°ìĤ¬":12270,"Ġhonest":12271,"Ġdeploy":12272,"Ġsurvey":12273,"items":12274,"ĠFind":12275,"ì¹ĺì§Ģ":12276,"irty":12277,"íĻĶëĲľ":12278,"Ġê°¤":12279,"Ġvary":12280,"ocolate":12281,"ìĭľíĶ¼":12282,"Ġlab":12283,"Ġemp":12284,"Ġpractical":12285,"Ġmal":12286,"ĠìĥĿê°ģíķĺëĬĶ":12287,"Po":12288,"Ġcities":12289,"Ġíľ":12290,"Ġputting":12291,"Ġdensity":12292,"Ġrapid":12293,"Serial":12294,"ĠJava":12295,"Cons":12296,"ipped":12297,"ipal":12298,"GR":12299,"ê°ķëĤ¨":12300,"Ġsuccessfully":12301,"Ġmac":12302,"ĠíĿ°":12303,"ACE":12304,"ĠëĤĺìĻĶëĭ¤":12305,"ĠPass":12306,"Ġë§¤ë§¤":12307,"ĠìĦ¸íĬ¸":12308,"Ġfavour":12309,"ĠìłľíĴĪìĿĢ":12310,"Ġëį®":12311,"Ġë§ŀì¶¤":12312,"Ð¸Ð»":12313,"bel":12314,"Ġìĸ´ëĸł":12315,"ima":12316,"ĠStep":12317,"anda":12318,"Ġrise":12319,"Thank":12320,"ìĿ´ê³³":12321,".}":12322,"Ġride":12323,"hline":12324,"íĨµìĭł":12325,"Ġì·¨íĸ¥":12326,"iche":12327,"Ġserving":12328,"PRE":12329,"ĠTwo":12330,"ĠInformation":12331,"Ġâĺħ":12332,"íıīê°Ģ":12333,"Ġselling":12334,"¤ë²Ħ":12335,"ëĤ´ìļ©":12336,"install":12337,"ìŀĪëĬĶëį°":12338,"ĠìľĦë¡ľ":12339,"Stat":12340,"Ġleadership":12341,"ëħĦë¶ĢíĦ°":12342,"ëĲĺê¸°":12343,"Ġinterpret":12344,"ĠEvent":12345,"Ġì¢ĭëĭ¤ê³ł":12346,"ICE":12347,"Ġmeasures":12348,"ĠìķĬì§Ģë§Į":12349,"hetic":12350,"oker":12351,"Ġpoly":12352,"ìŀĦëĮĢ":12353,"ĠìĤ¬ë§Ŀ":12354,"ĠìŀĲë¦¬ë¥¼":12355,"Ġfeedback":12356,"ë¶ĢìĹĲ":12357,"nections":12358,"ëļľ":12359,"ëĬĲëĤĮ":12360,"Ġì¡°ìĦł":12361,"ĠëķĮëıĦ":12362,"Ġê¸°ìĸµìĿ´":12363,"ju":12364,"ĠElect":12365,"Async":12366,"ĠPay":12367,"Ġstrategies":12368,"Ġpun":12369,"xFF":12370,"FR":12371,"ĠCommission":12372,"bu":12373,"Ġoutdoor":12374,"ĠëĤĺìĺ¨ëĭ¤":12375,"..?":12376,"ansion":12377,"Ġtail":12378,"Ġdepartment":12379,"Ġenjoyed":12380,"ĠĠĠĠĠĊ":12381,"ìļ°ë¦¬ê°Ģ":12382,"graph":12383,"Ġsin":12384,"ë°ĺê¸°":12385,"ìĹł":12386,"Ġíİľ":12387,"ĠFort":12388,"Ġfruit":12389,"Ġê²½ê¸°ëıĦ":12390,"Ġcreation":12391,"Ġchoices":12392,"Ġconcerns":12393,"arrant":12394,"ĠìĺĪìģĺê²Į":12395,"Ġpossibly":12396,"grid":12397,"Ġbusy":12398,"Ġspecifically":12399,"Ġëĭ¬ëŁ¬":12400,"Ġingredients":12401,"Ġíģ´ëŀĺ":12402,"Ġdestroy":12403,"PM":12404,"Ġëħ¸ëıĻ":12405,"Session":12406,"ĠDevelopment":12407,"ëŀŃ":12408,"aks":12409,"ë±ħ":12410,"ĠÐĶ":12411,"Ġê´ľì°®ìĿĢ":12412,"íļĮìĹĲìĦľ":12413,"Ġmarkets":12414,"Ġíĺģ":12415,"enter":12416,"ĠìĹī":12417,"ĠPet":12418,"ĠHTML":12419,"allel":12420,"Ġfamiliar":12421,"Ġgirls":12422,"ë©Ķë¦¬ì¹´":12423,"ĠRock":12424,"ugins":12425,"ìĺ¤ëĬĺìĿĺ":12426,"ku":12427,"Ġconfirm":12428,"ById":12429,"Ġeating":12430,"Ġrom":12431,"ì²ľìĽĲ":12432,"ĠëĳĶ":12433,"ìĤ´ìĿ´":12434,"ĠUnder":12435,"Ġupdates":12436,"Ġinterior":12437,"=&":12438,"Pat":12439,"]);":12440,"Bundle":12441,"ixel":12442,"ê°ĳëĭĪëĭ¤":12443,"Ġbrings":12444,"Ð¼Ð°":12445,"Ġaspects":12446,"íĻľëıĻ":12447,"Ġmotion":12448,"Order":12449,"Mark":12450,"ĠìŀĲì²´ê°Ģ":12451,"ĠìĹĨìĹĪ":12452,"¨ë²Ķ":12453,"task":12454,"Ġëĵľë¦½ëĭĪëĭ¤":12455,"Ġcomprehens":12456,"}),":12457,"Ġsou":12458,"appy":12459,"ëŃĶê°Ģ":12460,"ador":12461,"ĠëĲľëĭ¤ê³ł":12462,"ĠëłĪìĿ´":12463,"íĺķìĿĦ":12464,"romise":12465,"Ġparams":12466,"Body":12467,"Ġraw":12468,"$(":12469,"Ġteachers":12470,"Parser":12471,"widget":12472,"ë¥´ì§Ģ":12473,"ĠMel":12474,"ĠëĤĺìĺ¤ê³ł":12475,"posite":12476,"SQL":12477,"ìħ¨ëĭ¤":12478,"ĠSociety":12479,"Ġchemical":12480,"Before":12481,"Ġì·¨ëĵĿ":12482,"Ġë²¤":12483,"íĦ°ë¥¼":12484,"nesday":12485,"ì§ģìłĳ":12486,"ĠëĪĦê°Ģ":12487,"Ġê³¼íķĻ":12488,"ĠÐ¸Ð·":12489,"íļ¨ê³¼":12490,"Ġking":12491,"ëıĦìĻĢ":12492,"icago":12493,"rim":12494,"ĠìĤ¶ìĿĦ":12495,"More":12496,"onom":12497,"Ġsides":12498,"ĠìıŁ":12499,"END":12500,"Vari":12501,"ĠíĶĦë¦¬ë¯¸ìĹĦ":12502,"Ġê·ĢìĹ¬ìļ´":12503,"Ġfif":12504,"unched":12505,"Ġì¶ľì²ĺ":12506,"ëĭ¤ìĿ´":12507,"ìķĦíĬ¸":12508,"achine":12509,"Ġabsolute":12510,"ĠìĦłê±°":12511,"ê³łë¥¼":12512,"Ġê³¼ìłķìĹĲìĦľ":12513,"ĠìĤ¬ìłĦ":12514,"Ġminor":12515,"Ġcarried":12516,"ìĿ¼ë¦¬":12517,"Ġassistance":12518,"Ã©t":12519,"ĠíıīìĨĮ":12520,"ĠReal":12521,"greg":12522,"Ġforg":12523,"Ġìĸ´ë¨¸ëĭĪ":12524,"Ġì²Ļ":12525,"Ġíİ¼ì³Ĳ":12526,"Ġê²½ìļ°ëĬĶ":12527,"ĠíĶĦë¡ľìłĿ":12528,"ìĭĿìĿĢ":12529,"BR":12530,"Ġspending":12531,"Ġfacility":12532,"Ġrequests":12533,"ë©ľ":12534,"ITE":12535,"Ġstret":12536,"ĠëĤ®ìĿĢ":12537,"ldots":12538,"ĠTrump":12539,"lose":12540,"password":12541,"Sign":12542,"ì²´ê°Ģ":12543,"áĥ":12544,"Ġban":12545,"BM":12546,"Ë·%),":12547,"Windows":12548,"Ġment":12549,"Ġzu":12550,"raf":12551,"ĠìĤ¬ìļ©íķ´":12552,"Ġê°ľëħĲ":12553,"rid":12554,"Oh":12555,"ĠëĤĺë¨¸":12556,"Ġstored":12557,"Sm":12558,"Collection":12559,"Ġíĥģ":12560,"Ġcasino":12561,"}^Ë·":12562,"ĠAM":12563,"Ġpropos":12564,"ĠëıĻë¬¼":12565,"Ġcomo":12566,"Ġdining":12567,"Ġpa":12568,"Ã¨re":12569,"ĠSocial":12570,"reens":12571,"Ġdistinct":12572,"Ġì¢ĭìķĺëĭ¤":12573,"Su":12574,"isters":12575,"Ġkm":12576,"ĠSecurity":12577,"Ġliqu":12578,"ÑĤÐ¾":12579,"Title":12580,"ê³¼íķĻ":12581,"ĠReturns":12582,"ĠíķĺëĤĺìĶ©":12583,"Cal":12584,"ë¿į":12585,"ĠìķŀìĹĲìĦľ":12586,"ìŀĲëĵ¤ìĿĢ":12587,"Once":12588,"VD":12589,"cope":12590,"ìĪĺìĪĺ":12591,"ĠìĹĲìĦľ":12592,"ìĦ¸íķľ":12593,"onic":12594,"bolds":12595,"Ġaccident":12596,"Ġê¸°ì¤Ģìľ¼ë¡ľ":12597,"dict":12598,"full":12599,"Ġfort":12600,"Ġê¸°ìĤ¬":12601,"Ġë¨¹ìľ¼ëŁ¬":12602,"keys":12603,"ivered":12604,"Tim":12605,"insert":12606,"ĠHill":12607,"Ġasking":12608,"ĠHD":12609,"ì§ĳìĿĦ":12610,"Ġfees":12611,"Ħë¦¬íĭ°":12612,"nn":12613,"Ġë©Ģë¦¬":12614,"Ġvote":12615,"Ġsizes":12616,"Ġì§ĪíĻĺ":12617,"Ġconfidence":12618,"ĠUnion":12619,"Ġarticles":12620,"ê±´ì¶ķ":12621,"Ġë³´ìŀħëĭĪëĭ¤":12622,"Template":12623,"boldsymbol":12624,"íķľì§Ģ":12625,"ëį¤":12626,"Ġemer":12627,"ĠMot":12628,"ëĵ±ê¸ī":12629,"ischen":12630,"Ġëķ¡":12631,"ë¦¬ê²Į":12632,"Ġâĳ":12633,"ìłĲìľ¼ë¡ľ":12634,"olic":12635,"netic":12636,"ĠìłĦìŁģ":12637,"riage":12638,"ìĬ¤íĥĢê·¸ëŀ¨":12639,"ĠPRO":12640,"ĠìĹ¬ëŁ¬ê°Ģì§Ģ":12641,"ĠìŀĪìĿĦê¹Į":12642,"asket":12643,"Prot":12644,"Ġexciting":12645,"direct":12646,"ĠíħĮìĬ¤íĬ¸":12647,"ĠêµĲìĪĺ":12648,"Ð´Ð¸":12649,"ĠìĿ¼ìľ¼":12650,"FE":12651,"Ġholding":12652,"Ġjav":12653,"Ġtill":12654,"ìĦłìĥĿ":12655,"Ġbeat":12656,"ĠCH":12657,"olved":12658,"ë°°ìĨ¡":12659,"family":12660,"Ġourselves":12661,"ĠMaster":12662,"ĠëĵľëĿ¼ìĿ´":12663,"Ġawait":12664,"mid":12665,"ĠíĮĮìĬ¤íĥĢ":12666,"ĠBE":12667,"ĠìµľìłĢ":12668,"ìĭ¤ìĿ´":12669,"Ġwebsites":12670,"Ã§Ã£o":12671,"Ġsplit":12672,"Ġunc":12673,"Ġëª©ìĨĮ":12674,"Ġguys":12675,"ì£¼ìĹĲ":12676,"Ġodd":12677,"odies":12678,"à¥":12679,"eling":12680,"Ġsenior":12681,"Ġmine":12682,"Ġdimension":12683,"Num":12684,"Ġê²Ģì°°":12685,"skip":12686,"Ġtight":12687,"ĠëħĢ":12688,"ĠëĪĦêµ¬ëĤĺ":12689,"ìĸ´ìł¸":12690,"Ġresponsibility":12691,"ometimes":12692,"ifest":12693,"Ġisland":12694,"Ġresear":12695,"ĠOnline":12696,"ĠìłĬìĿĢ":12697,"ĠAcadem":12698,"Ġss":12699,"Ġopinion":12700,"íħĮìĿ¼":12701,"Ġenvironmental":12702,"Ġfantastic":12703,"Ġyes":12704,"Ġaccounts":12705,"Ġintended":12706,"Ġê³łìłķ":12707,"Ġìĸ´ê¹¨":12708,"íĥĲ":12709,"ĠìĪĺìĽĲ":12710,"Every":12711,"íĻķìĭ¤":12712,"Ġphotograph":12713,"Ġma":12714,"ĠíĨµíķ©":12715,"Ġíķĺëĭ¤ê°Ģ":12716,"Ġê³°":12717,"ĠJSON":12718,"Ġë©ĶìĿ¸":12719,"Ġ\"/":12720,"Ġdespite":12721,"ĠìłģìĿĢ":12722,"lets":12723,"ĠëĦīëĦī":12724,"ëĭ¨ìĿ´":12725,"Properties":12726,"Ġlovely":12727,"ì¦Ļ":12728,"langle":12729,"eper":12730,"Ġbroken":12731,"white":12732,"ĠìĦ¤ê³Ħ":12733,"Ë·<":12734,"Ġìĭłë°ľ":12735,"ĠWall":12736,"REE":12737,"Ġappeared":12738,"Ġê³Ħìĭľ":12739,"Ġë¶Ģë¶ĦìĿĢ":12740,"ĠDuring":12741,"legal":12742,"Ġê¸°ê´Ģ":12743,"ĠDistrict":12744,"Ġëĵ¤ìĹĪëĭ¤":12745,"Ġëĵľë¦´":12746,"appa":12747,"ë°¥ìĿĦ":12748,"ÐºÐ¾":12749,"Ġanywhere":12750,"ih":12751,"ĠëĸłëĤĺ":12752,"Ġmental":12753,"Ġlived":12754,"Ġcorporate":12755,"SR":12756,"Ġtea":12757,"quare":12758,"ĠBet":12759,"Ġextended":12760,"ĠìķĦëĭĻëĭĪëĭ¤":12761,"ìĿ´ìļ©":12762,"Ġenhance":12763,"ĠThursday":12764,"Ġì²ľìĹ°":12765,"ĠìľłíĨµ":12766,"ìĺ¤ìĿ¼":12767,"Ġë°°ê°Ģ":12768,"ì©į":12769,"íķĦìļĶ":12770,"Ġcache":12771,"copy":12772,"ĠìķĦëĵ¤":12773,"Ġë§ĪëĬĺ":12774,"ìľĪ":12775,"Ġvillage":12776,"Ġë³´ìĿ´ì§Ģ":12777,"ffff":12778,"Ġdebt":12779,"ìĿ´ëŀįëĭĪëĭ¤":12780,"ì´¬ìĺģ":12781,"Ġfuel":12782,"ìŀĳìļ©":12783,"Ġparse":12784,"ials":12785,"Ġran":12786,"ira":12787,"Ġê¸°ë¦Ħ":12788,"ê´Ģëł¨":12789,"ĠfÃ¼r":12790,"ĠìĸĳíĮĮ":12791,"Ġê³łìĥĿ":12792,"Ġsitting":12793,"Ġìį°":12794,"Host":12795,"Ġvehicles":12796,"ĠMuseum":12797,"ĠíķĺëĤĺìĿĺ":12798,"ĠìĨĮìĬ¤":12799,"âĪ¼":12800,"usher":12801,"Ġë²ĦìĬ¤":12802,"Mult":12803,"inates":12804,"ëĵŃ":12805,"ĠProduct":12806,"Ġera":12807,"ì¡¸":12808,"Ġcultural":12809,"ê¸°ëĭ¤":12810,"Ġiron":12811,"Ġforces":12812,"Ġìŀ¥ìķł":12813,"Stack":12814,"CM":12815,"ĠGermany":12816,"uated":12817,"Ġëĵ¤ìĸ´ê°ĢëĬĶ":12818,"Ġhyp":12819,"ìĪĺìĹħ":12820,"âĨĵâĨĵ":12821,"Ġê±°ì³Ĳ":12822,"edy":12823,"cut":12824,"Ġì§Ģì§Ģ":12825,"Ġinjury":12826,"orter":12827,"Many":12828,"Lambda":12829,"DU":12830,"ê±°ìķ¼":12831,"nap":12832,"plements":12833,"ìľłë¦¬":12834,"Ġë§İìĬµëĭĪëĭ¤":12835,"ĠìłķëıĦìĿĺ":12836,"ĠÑĸ":12837,"Ġê°Ŀ":12838,"Ġì¤ĳìĨĮ":12839,"ĠíĥĢìŀħ":12840,"ìŀĲëıĦ":12841,"ëĿ¼íħĮ":12842,"Ġfle":12843,"ĠValue":12844,"Ġê¸°íļį":12845,"alysis":12846,"Ġê²ĥê³¼":12847,"False":12848,"ê³¼ìłķ":12849,"íķŃê³µ":12850,"odd":12851,"ĠEst":12852,"ensure":12853,"ì¶¤":12854,"ìķĦìķĦ":12855,"ĠìĻĢìĿ¸":12856,"Ġê¼½":12857,"Ġìĸ¸ìłľëĤĺ":12858,"Ġì¤ĳìĿ¸":12859,"Ġë³ĳìĽĲ":12860,"mathfrak":12861,"Ġsufficient":12862,"ĠìĨĲìĿĦ":12863,"âĢ¦âĢ¦":12864,"ï½":12865,"Ġbutter":12866,"éĢ":12867,"ëĭĺê»ĺ":12868,"ë¬´ìĹĩ":12869,"Ð¾Ð»ÑĮ":12870,"ĠìĥĮ":12871,"Ġë±":12872,"ĠìĬ¤íĭ°":12873,"ĠìľĦìĽĲ":12874,"Ġhtml":12875,"ĠHen":12876,"ograp":12877,"Ġequation":12878,"area":12879,"Ġvisible":12880,"Ġbrown":12881,"íĬ¸ëĤ¨":12882,"íķĺëįĶëĿ¼êµ¬ìļĶ":12883,"HR":12884,"Ġìŀĳê°Ģ":12885,"Well":12886,"Ġdepart":12887,"ĠPeter":12888,"(*":12889,"ĠMath":12890,"ĠWilliam":12891,"Ġwrap":12892,"ìłĪíķľ":12893,"ãĦ·ãĦ·":12894,"-)":12895,"ĠëĮĢëĭ¨":12896,"Ġìĭłë¢°":12897,"Ġë²ĦíĬ¼":12898,"ĠMa":12899,"Ġreader":12900,"ĠIll":12901,"ê°Ħëĭ¨":12902,"ë©¸":12903,"Ġcontrast":12904,"ĠíĿĺëŁ¬":12905,"Ġagency":12906,"Ë·])":12907,"ìĹ¬ê¸°ìĦľ":12908,"Ġë©Ī":12909,"Ġsongs":12910,"ê°Ħëĭ¤":12911,"Ġpip":12912,"Ġdiam":12913,"ìĨĮìĬ¤":12914,"Ġì¢ģ":12915,"Ġgro":12916,"Ġê³µê³µ":12917,"ëĵ±ìĿĦ":12918,"Gu":12919,"ĠìĿ´ìľłê°Ģ":12920,"Ġë¬¼ìĿ´":12921,"ĠPen":12922,"ĠCarol":12923,"Ġìŀłê¹Ĳ":12924,"Ġrepresents":12925,"BB":12926,"ë¦¬ìĬ¤ë§ĪìĬ¤":12927,"osh":12928,"weet":12929,"ĠëĮĢíķ´ìĦľëĬĶ":12930,"isco":12931,"even":12932,"Ġdelay":12933,"Ġê¹ĶëģĶíķľ":12934,"Ġë§ĽìŀĪìĸ´ìļĶ":12935,"Ġease":12936,"åĽ":12937,"ìĬ¤ì¹´":12938,"ĠCard":12939,"ĠPo":12940,"plates":12941,"Ġdoors":12942,"otten":12943,"Ġë°Ľìķĺëĭ¤":12944,"phas":12945,"elines":12946,"master":12947,"outer":12948,"Ġì¦Ĳê²ģ":12949,"sect":12950,"ĠCommittee":12951,"Ġíķĳíģ¬":12952,"estamp":12953,"ingu":12954,"ĠSQL":12955,"ĠPack":12956,"uting":12957,"Api":12958,"ĠêµĲíĻĺ":12959,"íķłìĿ¸":12960,"Ġindustrial":12961,"SM":12962,"ĠUsing":12963,"Ġframework":12964,"ĠâĢŀ":12965,"}/":12966,"ëª¨ìĬµ":12967,"Ġê°ľìĿ¸ìłģìľ¼ë¡ľ":12968,"Ġdepends":12969,"Ġoccasion":12970,"Ne":12971,"ë³´ëĵľ":12972,"erd":12973,"Ġmur":12974,"Ġbattle":12975,"ĠPoint":12976,"Ġsudden":12977,"Ġê³ĦìĤ°":12978,"Ġìŀħëł¥":12979,"orough":12980,"Ġdiscovered":12981,"ê³łì¶Ķ":12982,"ĠTuesday":12983,"plications":12984,"Ġanimal":12985,"Step":12986,"Ġíĳ":12987,"buf":12988,"ĠTeam":12989,"Ġ('":12990,"ĠìķĪìĭ¬":12991,"íķĺëĬĺ":12992,"Ġê·¼ë¬´":12993,"Ġhash":12994,"Ġhat":12995,"íĺ¼ìŀĲ":12996,"ëĨ¨":12997,"ë§¤ë§¤":12998,"Ð°Ñģ":12999,"Vector":13000,"Reference":13001,"Activity":13002,"ĠEqu":13003,"ìŀĲê²©":13004,"interface":13005,"ĠNetwork":13006,"SK":13007,"íİĢ":13008,"Ġresulting":13009,"ëĭĺê³¼":13010,"Ġìļ°ìľł":13011,"ĠìłĦíķ´":13012,"Ġëª°ëŀĲ":13013,"ê³Ħìķ½":13014,"ìĪĺìĪł":13015,"itionally":13016,"Ġinstructions":13017,"ëĵĢ":13018,"Ġsignificantly":13019,"Ġsolve":13020,"ëĭĪê¹ĮìļĶ":13021,"ĳ¥":13022,"Ġê¸°ëĭ¤ë¦¬":13023,"Ġdestination":13024,"Ġìĺ¤ë¹ł":13025,"Ġstopped":13026,"Draw":13027,"Ġcorre":13028,"Ġbond":13029,"astructure":13030,"ĠëĵľëĶĶìĸ´":13031,"ĠMass":13032,"Ġappearance":13033,"Ġorders":13034,"Ġaffordable":13035,"mal":13036,"king":13037,"Ġì¡¸ìĹħ":13038,"ĠGovernment":13039,"Ġstanding":13040,"uv":13041,"Ġflight":13042,"ìĩł":13043,"ê´Ģê´ĳ":13044,"Integer":13045,"íĴĪìĿ´":13046,"Ë·^Ë·":13047,"ëı¼ì§Ģ":13048,"ango":13049,"ĠOld":13050,"west":13051,"ĠParty":13052,"ĠìĿ´ëģĮ":13053,"ĠëĪĪìĿĦ":13054,"Ġnoise":13055,"ÑĬ":13056,"Ġawesome":13057,"rat":13058,"êµŃìĿĺ":13059,"Ġë§ĮëĤľ":13060,"sort":13061,"Ġë¹Ħë°Ģ":13062,"ĠíĺķìĦ±":13063,"models":13064,"Ġì°½ìĹħ":13065,"ëł¥ê³¼":13066,"hidden":13067,"ĠëıħìĿ¼":13068,"cknow":13069,"ĠYes":13070,"Ġê³ģ":13071,"ĠíķłìĪĺ":13072,"Ġsupports":13073,"lat":13074,"tool":13075,"}},":13076,"Ġì·¨ìĹħ":13077,"screen":13078,"ĠìĨĮìľł":13079,"zure":13080,"ìĥĺ":13081,"Ġidentified":13082,"Ġswim":13083,"ĠCas":13084,"ugs":13085,"possible":13086,"ĠìĹ°ìĨį":13087,"ĠĠĠĠĠĠĠĠĠĠĠĠĠĠĠĠĠĠĠĠĠĠĠĠĠ":13088,";\\":13089,"ìłĦìĿ´":13090,"ìĿ¼ìĥģ":13091,"UD":13092,"ĠëıĮëł¤":13093,"ĠìĪĺë°ĸìĹĲ":13094,"ictor":13095,"inds":13096,"ê·¸ë¦¼":13097,"ëĵľë¦´ê²ĮìļĶ":13098,"ternoon":13099,"Ġê³³ìĿĦ":13100,"ãģ¨":13101,"ĠìĪĺë¶Ħ":13102,"Ġê°ĢëĬ¥íķĺëĭ¤":13103,"ë¦¬íĬ¸":13104,"ĠëĦĲ":13105,"Ġìĥģê´Ģ":13106,"Reader":13107,"Ġadministr":13108,"Ġalle":13109,"IND":13110,"Ġreliable":13111,"abet":13112,"rior":13113,"ĺ¥":13114,"ĠSmith":13115,"ĠSpecial":13116,"Ġlunch":13117,"ician":13118,"Ġíĸīìłķ":13119,"ëĲ¨":13120,"êµŃìłľ":13121,"ëĦĽ":13122,"Ġëĭ¬ëĭ¬":13123,"ĠUSB":13124,"ĠìķĬìķĦìļĶ":13125,"ĠBoth":13126,"Ġbattery":13127,"ì»¬ëŁ¬":13128,"hell":13129,"ĠÑĢÐµ":13130,"LG":13131,"ĠAssert":13132,"íİĺìĿ¸":13133,"Book":13134,"ê¸ĭ":13135,"Ġsac":13136,"ãģ§":13137,"Ġíĳľìĭľ":13138,"ëģ¼ë¦¬":13139,"Ġëĭ«":13140,"Ġê²½ìļ°ëıĦ":13141,"thm":13142,"ĠBill":13143,"Ġgather":13144,"Ġê°Ĵ":13145,"TF":13146,"Ġrepresentation":13147,"Ġê³¨íĶĦ":13148,"Ġcauses":13149,"ĠLo":13150,"ĠBeach":13151,"ðŁı»":13152,"ëĵľëĶĶìĸ´":13153,"bur":13154,"Ġwalls":13155,"Ġëĭ¨ì§Ģ":13156,"Ġì¢ĭì§Ģ":13157,"íķµ":13158,"ëªħìĿĢ":13159,"ogy":13160,"BE":13161,"âĸ¼âĸ¼":13162,"įìłķ":13163,"ĠìĿ´ë¦ĦìĿĦ":13164,"ìĪŃ":13165,"Ġunsigned":13166,"Ġbyte":13167,"Ġtrial":13168,"ìºĶ":13169,"ĠNE":13170,"ĠìłĲìĿĦ":13171,"íĬĢê¹Ģ":13172,"ìĥģìĦ¸ë³´ê¸°":13173,"Ġdynamic":13174,"Ġrelation":13175,"Ð°Ðº":13176,"ĠìķĦëĭĮê°Ģ":13177,"lik":13178,"classes":13179,"Ġintellig":13180,"íĮĲìĿ´":13181,"Ġê·¸ëŁ´":13182,"mosp":13183,"Ġforest":13184,"WR":13185,"Ġìĸ´ì©Į":13186,"Ġspl":13187,"ĠEnter":13188,"inating":13189,"aux":13190,"Ġê²ĢíĨł":13191,"ĠëįĶë¶Īìĸ´":13192,"Ġêµ½":13193,"ighter":13194,"Long":13195,"Ġëª©ìłģ":13196,"Ġfunding":13197,"Ġcommitted":13198,"Ġyouth":13199,"Que":13200,"ĠëĮĢíĻĶ":13201,"ë¶ģëıĦ":13202,"arc":13203,"ĠìĪĺíĸī":13204,"cohol":13205,"Ġwave":13206,"Ġcoast":13207,"ffect":13208,"ĠìŀĲìĭłìĿĦ":13209,"Ġguarantee":13210,"Ġëĭ¹ìĹ°íŀĪ":13211,"ĠRobert":13212,"ĠìĥģíĻ©ìĿ´":13213,"ĠWhether":13214,"ë¡¬":13215,"Ġnuc":13216,"ATH":13217,"íķĺê²łëĭ¤":13218,"Ġmagn":13219,"uality":13220,"ìĿ¸íĦ°ëĦ·":13221,"rawn":13222,"Ġsheet":13223,"global":13224,"Ġlights":13225,"ëŁŃìĭľ":13226,"ìĿ´ìĤ¬":13227,"ëĨĴ":13228,"stat":13229,"ĠEarth":13230,"ëĶ°ëĿ¼":13231,"ë²łë¦¬":13232,"Ġgoods":13233,"íķ´ê°Ģ":13234,"Ġê·¸ë£¹":13235,"ĠAccording":13236,"Ġdesire":13237,"ĠëĮ":13238,"ĠJournal":13239,"Ġdesired":13240,"ìĭľíĤ¨":13241,"Ë·^":13242,"ĠCEO":13243,"âĶĢâĶĢâĶĢâĶĢ":13244,"ĠCLASS":13245,"Ë·}^{":13246,"ĠÐĵ":13247,"Ġê³¼ìłķìĿĦ":13248,"Record":13249,"Ġteach":13250,"ĠëĮĢë°ķ":13251,"Ġarrived":13252,"íķĺëł¤":13253,"ĠíĹĮ":13254,"Ġpatterns":13255,"Ġë¬ĺ":13256,"ĠLeague":13257,"ÂłÂłÂłÂłÂłÂłÂłÂł":13258,"Ġë¶ĦìĿ´":13259,"Ġê²°ê³¼ë¥¼":13260,"\"));":13261,"ĠÐŀ":13262,"Ġëĵ¬":13263,"Ħê¹ĥ":13264,"êµ¬ìĹŃ":13265,"Ġê°ĲìĹ¼":13266,"cup":13267,"Ġì£¼ëª©":13268,"ĠìĻĦìłĦíŀĪ":13269,"íģ¬ë¡ľ":13270,"Ġconsumer":13271,"Ġìıĺ":13272,"lie":13273,"ë§Įëĵ¤":13274,"ë³´ìŀĲ":13275,"íķĺê¸°ìĹĲ":13276,"Ġëª¸ìĿĦ":13277,"Ġcycle":13278,"ë¸Ķë£¨":13279,"ìĸ´ëĶĶ":13280,"ëĤĺë¬¼":13281,"ê»ĳ":13282,"LED":13283,"Ġbuildings":13284,"Ġvir":13285,"ĠìĬ¤íĬ¸ëłĪ":13286,"ĠPerson":13287,"smart":13288,"ìŀ¥ëĭĺìĿ´":13289,"ë¯¸ìĪł":13290,"words":13291,"ê°ĲìĤ¬íķ©ëĭĪëĭ¤":13292,"Helper":13293,"appe":13294,"Ġalert":13295,"ÑĤÑĮ":13296,"ĠìĨĮê¸Ī":13297,"eld":13298,"osoph":13299,"íĶĮëĿ¼":13300,"Ġê³µê°ĦìĿ´":13301,"Ð½Ð¾Ð³Ð¾":13302,"Ġê³łì¶Ķ":13303,"Ġtotally":13304,"Ġê·ł":13305,"ë°ĳ":13306,"ĠSoftware":13307,"Ġíķĺìĭ¤":13308,"Ġtechnologies":13309,"ĠWednesday":13310,"Ġê±´ê°ķíķľ":13311,"ĠÐ¿ÐµÑĢ":13312,"cloud":13313,"Device":13314,"Ġapps":13315,"Ġbytes":13316,"ĠLos":13317,"ĠException":13318,"Ġsky":13319,"ëĿ¼ìļ°":13320,"lements":13321,"Ġmixed":13322,"coin":13323,"Ġneck":13324,"Ġìĺ¬ëĿ¼ê°Ģ":13325,"Ġìĭľê°ĦìĹĲ":13326,"Ġë¨¹ìĹĪëĭ¤":13327,"Ġimproved":13328,"Ë·âĢĻ":13329,"ìķŀìľ¼ë¡ľ":13330,"ĠíĻĶëł¤":13331,"Ġë°Ķê¿Ķ":13332,"ì°¨ëĬĶ":13333,"ĠìŀĲìĦ¸íŀĪ":13334,"Phi":13335,"ĠëģĿëĤĺ":13336,"ãħĭãħĭãħĭãħĭãħĭãħĭ":13337,"ĠìĻĢìĿ´":13338,"Ġë¯¿ê³ł":13339,"Ġê´Ģëł¨ëĲľ":13340,"Ġëĸ¨":13341,"Ġexpertise":13342,"Ġlap":13343,"iano":13344,"Ġpromote":13345,"Ġê·Ģì°®":13346,"ĠValley":13347,"ë¯¸ë¥¼":13348,"Ġkid":13349,"Ġglad":13350,"ĠNov":13351,"Ġboat":13352,"Ġconsidering":13353,"ĠExec":13354,"Ġcircumst":13355,"rich":13356,"tons":13357,"ĠNor":13358,"íķ´ë³´ìĦ¸ìļĶ":13359,"shot":13360,"Dom":13361,">();":13362,"íģ´ëŀĺ":13363,"MENT":13364,"comment":13365,"Ġtrading":13366,"stylesheet":13367,"Ġfly":13368,"ĠìĭľëıĦ":13369,"ĠCreat":13370,"ìĹĪìĿĦ":13371,"Ġì¶ľê·¼":13372,"ìĹ¬ìŀĲ":13373,"ÐµÐ·":13374,"ãģĻ":13375,"Ġíļ¨ìľ¨":13376,"ìķ¼ì§Ģ":13377,"ìĺ´":13378,"ĠìŀĪëįĶëĿ¼êµ¬ìļĶ":13379,"Ġaccepted":13380,"ëĵ¯íķľ":13381,"ingly":13382,"ĠJul":13383,"Ġdiscussed":13384,"ìķĦëħ¸":13385,"Ġdire":13386,",.":13387,"icons":13388,"ë¶Ħëĵ¤ìĿĢ":13389,"iest":13390,"Ġè":13391,"ì§ĳìĿ´":13392,"Ġperfectly":13393,"KEY":13394,"Ġefficiency":13395,"Ġversions":13396,"ë¬¼ë¡ľ":13397,"Ġë¹Ħíĸī":13398,"Ġê³łíĨµ":13399,"foo":13400,"Ġdelicious":13401,"ynchron":13402,"ê¸°ë¦Ħ":13403,"Ġrelatively":13404,"ĠíĴĢìĸ´":13405,"ĠíĺĦì§Ģ":13406,"ĠMethod":13407,"Ġì²ĺìĿĮìľ¼ë¡ľ":13408,"Ġnodes":13409,"oga":13410,"Ġsympt":13411,"ĠìĤ¬ìŀ¥ëĭĺ":13412,"Ġparticipants":13413,"Ġadopt":13414,"Ġnamespace":13415,"aren":13416,"ĠëĪĦêµ°":13417,"ĠCopyright":13418,"Ġtip":13419,"ëĭ¨ìĹĲ":13420,"ĠGlobal":13421,"Ġëĵ¯íķľ":13422,"ë³¼ê¹Į":13423,"ĠìĹ´ìĸ´":13424,"Ver":13425,"iveness":13426,"ĠTake":13427,"Man":13428,"ĠìĤ¬ì§ĦìĿ´":13429,"Ġreserved":13430,"ĠìľłìĿ¼":13431,"ëĭ¬ëĿ¼ê³ł":13432,"urban":13433,"Ġ],":13434,"Ġmarried":13435,"Ġbelie":13436,"íĸĪìľ¼ë©°":13437,"Ġëĸ¼":13438,"ìłķì±ħ":13439,"acc":13440,"ĠëķĮê°Ģ":13441,"Ġretain":13442,"Ġacademic":13443,"ĠìĿ¸ëıĦ":13444,"Ġlie":13445,"Ġlegis":13446,"Ġshipping":13447,"ĠíķŃê³µ":13448,"ĠModel":13449,"ĠìĦ±ëĬ¥":13450,"ĠìŀĲëħĢ":13451,"Ġbehavi":13452,"Ġë³´ìĦ¸ìļĶ":13453,"nic":13454,"ê³°":13455,"ipl":13456,"ìĿ´ì¦Ī":13457,"Ġ++":13458,"gi":13459,"Ġindeed":13460,"Ġê³¼ìĿ¼":13461,"Ġaccurate":13462,"Ġusual":13463,"ï¿½ï¿½":13464,"igital":13465,"ìĺ¤ë¹ł":13466,"Ġclimate":13467,"åº":13468,"íĻķìĿ¸":13469,"Ġscan":13470,"------------":13471,"Ġlayout":13472,"ĠìłĲê²Ģ":13473,"Ġreput":13474,"ìķĦëıĦ":13475,"ĠEU":13476,"ê¾¼":13477,"Ġexport":13478,"Ġdelivered":13479,"Ġeffectively":13480,"Ġë³´ìĭ¤":13481,"Ġparking":13482,"ãģ¯":13483,"Ġê¸°ëĬ¥ìĿĦ":13484,"ĠØ":13485,"ìĭľìĽĲ":13486,"ìŀ¥ìķł":13487,"ĠServer":13488,"Ġê¼¼ê¼¼íķĺê²Į":13489,"Ġbtn":13490,"ìĽłëįĺ":13491,"ĠYO":13492,"AV":13493,"ìłķìľ¼ë¡ľ":13494,"Ġnetworks":13495,"ë¯¸ëĭĪ":13496,"lg":13497,"ìĹī":13498,"Ġsam":13499,"nabla":13500,"ears":13501,"Ġentr":13502,"ÑĨÑĸ":13503,"íĶĮëŁ¬ìĬ¤":13504,"Ġê¸¸ìĿ´":13505,"adian":13506,"ê³Ħê°Ģ":13507,"uri":13508,"Ġends":13509,"Ġtrained":13510,"ìķĦìĽĥ":13511,"Ġê¹ĬìĿĢ":13512,"Font":13513,"Ac":13514,"HTML":13515,"Ġpositions":13516,"Dep":13517,")=":13518,"Ġsuppl":13519,"Ġblocks":13520,"ê¸ĪìĿĢ":13521,"Ġë§Īì¼ĢíĮħ":13522,"ĠëĤ´ëĤ´":13523,"pool":13524,"ĠìĤ¬ëŀĳìĿĦ":13525,"ĠìĤ¬ì§ĦìĿĢ":13526,"Dir":13527,"Ġflowers":13528,"cript":13529,"Ġequivalent":13530,"Ġconversation":13531,"umes":13532,"ĠìĥĿê°ģíķĺê³ł":13533,"Ġfellow":13534,"footer":13535,"Ġinline":13536,"ĠìĪ²":13537,"Car":13538,"ĠCommunity":13539,"ĠìķłíĶĮ":13540,"Ġíķľëĭ¬":13541,"ëĭĺëĵ¤ìĿ´":13542,"ì¢ħë¥ĺ":13543,"ĠToday":13544,"ë¡ľë¥¼":13545,"ìĸ´ëĬĶ":13546,"erent":13547,"ê³łê°Ģ":13548,"ĠRest":13549,"ĠíĨ¡":13550,"ĠìĪĺìĥģ":13551,"subset":13552,"Ġsaved":13553,"Ġtwice":13554,"Ġìŀħë§Ľ":13555,"Ġfolder":13556,"agen":13557,"ì§ģìĽĲ":13558,"Ġdb":13559,"Values":13560,"Ġstyles":13561,"Ġì¦Ĳê²¨":13562,"Ġanswers":13563,"ĠMult":13564,"ĠìłĦíĸĪëĭ¤":13565,"Ġdocumentation":13566,"}^{\\":13567,"Ġconsistent":13568,"atural":13569,"Ë·}(":13570,"ì¡ĮìĬµëĭĪëĭ¤":13571,"ĠTwitter":13572,"íĶ¼ìĬ¤íħĶ":13573,"ĠAtl":13574,"Ġë³¶ìĿĮ":13575,"ìĭľìŀĳ":13576,"ëĮĢìĥģ":13577,"radius":13578,"ĠìŃī":13579,"ÑĶ":13580,"yr":13581,"Ġìĭłìļ©":13582,"Ġìĭ¶ìĸ´ìļĶ":13583,"DL":13584,"ĠWestern":13585,"Ġê°ĲìŀĲ":13586,"person":13587,"ìĿ¸ëĵ¤ìĿ´":13588,"ĠMedia":13589,"water":13590,"ĠíķĺëįĶëĿ¼êµ¬ìļĶ":13591,"ĠField":13592,"Ġinstit":13593,"Ġriver":13594,"ĠÐ¢":13595,"ì¦ī":13596,"ìľĦíķ´":13597,"ONE":13598,"ìĭ¤ìĹĲìĦľ":13599,"ĠëĨĢëŁ¬":13600,"ĠìĿ´ëĤ´":13601,"osa":13602,"ìľ¼ìĭľ":13603,"INFO":13604,"ĠControl":13605,"ì§ĦìĿĦ":13606,"Ġkinds":13607,"Ġkilled":13608,"ĠAdmin":13609,"Args":13610,"ëŀĺìļĶ":13611,"ĠëķĮë¬¸ìŀħëĭĪëĭ¤":13612,"Ġplate":13613,"uzz":13614,"Ġdepos":13615,"FAULT":13616,"ë¦¬ëĿ¼":13617,"Ġinspired":13618,"ĠHa":13619,"ê°ĢìĬ¤":13620,"ĠìķĪëħķ":13621,"_,":13622,"MAX":13623,"modules":13624,"Ġìĸ´ìļ¸ë¦¬ëĬĶ":13625,"onym":13626,"ëħĦëĮĢ":13627,"Ġê°ĸì¶Ķ":13628,"ims":13629,"tv":13630,"Ġundefined":13631,"Ġê·¸ê²Į":13632,"Ġencourage":13633,"atre":13634,"Ġìĥģì²ĺ":13635,"Parameters":13636,"Ġë¶Ģìłķ":13637,"hal":13638,"Ġsupposed":13639,"Ġëĭ¤ë§Į":13640,"ĠChicago":13641,"ìĻĶìĸ´ìļĶ":13642,"Ġì§Ģê¸Īê¹Įì§Ģ":13643,"mbox":13644,"Ġentity":13645,"ìĹ°íķ©":13646,"ê²ĢìĤ¬":13647,"Ġdance":13648,"Ġformed":13649,"Ġìłľê¸°":13650,"izz":13651,"hl":13652,"Ġë³´ëıĦ":13653,"Ġcaught":13654,"mg":13655,"Ġprompt":13656,"Ġscheme":13657,"Ġ${":13658,"ĠNAVER":13659,"oun":13660,"ìĽĶë¶ĢíĦ°":13661,"Ġguy":13662,"Ġemployee":13663,"children":13664,"istent":13665,"ĠTown":13666,"ĠBur":13667,"Found":13668,"ìķĪìĿ´":13669,"Ins":13670,"bles":13671,"ìĥģê°Ģ":13672,"istant":13673,"ĠImage":13674,"ĠJose":13675,"Ġwinning":13676,"Ġrid":13677,"ë°ĽìĿĦ":13678,"Ġrail":13679,"circ":13680,"Ġsamples":13681,"obs":13682,"ĠìĦ¸íĥģ":13683,"Ð°Ð»Ð¸":13684,"save":13685,"Ġê²°ìłľ":13686,"Ġrealize":13687,"fd":13688,"ìĪĺêµ¬":13689,"ĠëĦĪë¬´ëĦĪë¬´":13690,"ĠĠĠĠĠĠĊ":13691,"Ġsty":13692,"Ġì±ĦìĽĮ":13693,"Ġmeal":13694,"ê¶ģê¸Ī":13695,"ìłľê±°":13696,"ĠìłľíĴĪìĿ´":13697,"equal":13698,"uer":13699,"disabled":13700,"component":13701,"NN":13702,"Ġnoted":13703,"ĠOp":13704,"}).":13705,"ĠìĺĪìłĦ":13706,"ĠBase":13707,"nergy":13708,"ëĤ¨íİ¸":13709,"Ġmilk":13710,"çĶ¨":13711,"toggle":13712,"ĠëĮĢì¤ĳ":13713,"IX":13714,"Ġcomparison":13715,"Ġì§ĢìĭĿ":13716,"Ġbread":13717,"Ġê°Ģê¹ĮìĿ´":13718,"Ġì¼ĢìĿ´íģ¬":13719,"Ġpul":13720,"Ġdeals":13721,"Ġperman":13722,"ëįĶë³´ê¸°":13723,"Ġperspective":13724,"Ġê³µê¸°":13725,"Ġod":13726,"PER":13727,".*":13728,"Ġtrouble":13729,"Ġà¤":13730,"Ġì¤įëĭĪëĭ¤":13731,"ìĤ°ë¬¼":13732,"Var":13733,"Ġtreated":13734,"Ġë³´ìŀ¥":13735,"Ġëº":13736,"ê°ĲëıĦ":13737,"Ġê°Ģë²¼":13738,"Ġextensive":13739,"Ġbreakfast":13740,"Ġgreatest":13741,"Ġì¡°ìłķ":13742,"Handle":13743,"ĠìĦ¤ë¦½":13744,"Ġdegrees":13745,"ĠOrgan":13746,"ì£¼ë°©":13747,"ĠSecond":13748,"mond":13749,"ìĦ¤ì¹ĺ":13750,"Ġìĸ¸ë¡ł":13751,"Ġê³³ìľ¼ë¡ľ":13752,"Ġì¶©ê²©":13753,"Ġìį¼":13754,"ì²ĺë¦¬":13755,"Ġvoc":13756,"Ġcovers":13757,"Ġcro":13758,"poration":13759,"ĠDownload":13760,"Ġsigns":13761,"Ġinterests":13762,"ĠLim":13763,"Ġafternoon":13764,"svg":13765,"ĠProv":13766,"ĠìĹ°ê¸°":13767,"Ġpublish":13768,"ĠThomas":13769,"ti":13770,"Ġherself":13771,"ĠRo":13772,"ëħĦìĿĦ":13773,"ĠWhere":13774,"Only":13775,"ìĿ¼ëŁ¬":13776,"ampionship":13777,"anz":13778,"ĠëĤ¨ìĦ±":13779,"ĠFood":13780,"ëĵľìĿĺ":13781,"panel":13782,"Ġì°¨ëĭ¨":13783,"Ġreaders":13784,"Ë·|":13785,"Ġturns":13786,"Ġtransl":13787,"ìļ©íĴĪ":13788,"NC":13789,"ested":13790,"íĻĶë¡ľ":13791,"Ġproviders":13792,"ĠScott":13793,"Ġarms":13794,"Ġë¶Īê°ĢëĬ¥":13795,"May":13796,"ìĪĺìĹĲ":13797,"Ġfeels":13798,"Expression":13799,"ĠìĺĢ":13800,"ĠHave":13801,"Ġsex":13802,"ëł¥ìĿĢ":13803,"íķ´ë¥¼":13804,"ê±´ëį°":13805,"ìĽ¨ëĶ©":13806,"ipp":13807,"Ġëª¨ì§ĳ":13808,"Ġvaluable":13809,"GO":13810,"ëĤĺìĿ´":13811,"Ġmanual":13812,"Ġë¶Ļìĸ´":13813,"Ġjoy":13814,"Ġê°ķì¡°íĸĪëĭ¤":13815,"Iter":13816,"ëļĿ":13817,"ĠëŁ°":13818,"PECT":13819,"Ġê°Ģì¹ĺ":13820,"ĠìĪĺìłķ":13821,"Operation":13822,"Non":13823,"ĠìĭľìĽĲíķľ":13824,"NOT":13825,"ìĽ¨ìĸ´":13826,"Ġfell":13827,"Ġconvenient":13828,"íı¬ìŀ¥":13829,"Ġë§İìķĺ":13830,"Ġvisiting":13831,"Ġëĭ¤ìĨĮ":13832,"Ġë¶Īê°Ģ":13833,"Ġëıĭ":13834,"Ġrefer":13835,"ëĬĶê²Į":13836,"textit":13837,"Ġaus":13838,"Ġfro":13839,"ê¸°ì§Ģ":13840,"Ã³n":13841,"ĠìľłíĬľë¸Į":13842,"Ġìī¬ìļ´":13843,"ìīĲ":13844,"coll":13845,"ĠANY":13846,"ëıĻìĥĿ":13847,"Ġì¹ľêµ¬ê°Ģ":13848,"Ġcompat":13849,"ìĪ²":13850,"Ġemphas":13851,"Ġìľłì¹ĺ":13852,"ÐµÑģ":13853,"ëį´":13854,"ìłĦê¸°":13855,"Ġë§ĪìĿĮìľ¼ë¡ľ":13856,"Ġìĭłëŀĳ":13857,"ëĭµê²Į":13858,"ibilities":13859,"ìłľëıĦ":13860,"ĠìĨĮëĵĿ":13861,"ĠAT":13862,"ĠëĤĺìĹĲê²Į":13863,"æĿ":13864,"Ġgrid":13865,"Ġpump":13866,"oice":13867,"ĠíŀĲë§ģ":13868,"Ġcreates":13869,"ĠReview":13870,"ĠëĬĶ":13871,"Ġdella":13872,"Ġapplicable":13873,"ĠëĶĶì§ĢíĦ¸":13874,"ĠìŀĲìłĦê±°":13875,"Ġë§ĽëıĦ":13876,"Ġneighborhood":13877,"Ġìļ´ëıĻìĿĦ":13878,"Ġlawy":13879,"ê³łëĬĶ":13880,"ì³¤ëĭ¤":13881,"âĢĻ,":13882,"ĠìĽ¹":13883,"Ġêµ¬ë¶Ħ":13884,"íĥĢìļ´":13885,"inem":13886,"Parent":13887,"Ġhouses":13888,"aved":13889,"ìĹŃìĿĦ":13890,"Ġattor":13891,"Ġìĭ¬ê°ģ":13892,"aste":13893,"total":13894,"ĠLouis":13895,"itar":13896,"Ġê°Ģê²©ìĿĢ":13897,"anna":13898,"Ġëħ¸ì¶ľ":13899,"ĠWho":13900,"Ġwarrant":13901,"Ġcontroller":13902,"printf":13903,"Ġê±°ì£¼":13904,"citep":13905,"Ġhearing":13906,"Ġratio":13907,"Ġê³µê°Ĳ":13908,"êµŃìĿ´":13909,"Ġportion":13910,"Ġtypical":13911,"Ġowned":13912,"ë°ĸ":13913,"ìłľíķľ":13914,"íĺ¸ê°Ģ":13915,"Ġrough":13916,"Ġê³łìĨĮ":13917,"Ġcomprehensive":13918,"ĠMil":13919,"Ġvit":13920,"Ġatmosp":13921,"tip":13922,"ĠìķĦë¬´ë¦¬":13923,"ìĵ¸":13924,"Ġëľ¯":13925,"ĠLine":13926,":{":13927,"ĠìŀĪìĹĪê³ł":13928,"una":13929,"ĠìĿ´ë¯¸ì§Ģ":13930,"ìĨĮê°ľ":13931,"ĠìķĦì§ģëıĦ":13932,"ĠTechnology":13933,"IGHT":13934,"iem":13935,"ĠAccess":13936,"alloc":13937,"ìľ¼ë¡ľìĦľ":13938,"pu":13939,"ãĢĭ":13940,"ë¹¼":13941,"ëĤ®":13942,"Ġexpos":13943,"ĠCentre":13944,"ÑĢÐ¾Ð²":13945,"Ġelectronic":13946,"Ġcere":13947,"Ġíı¬íĨł":13948,"Ġserial":13949,"ëĮĢìĹĲìĦľ":13950,"erves":13951,"Press":13952,"Where":13953,"íĺ¸ìĤ¬":13954,"Art":13955,"ĠFOR":13956,"ìłľìĿ¼":13957,"Ġmeat":13958,"ê±±":13959,"endor":13960,"Mr":13961,"irmed":13962,"Ġì§Īë¬¸":13963,"Ġapparent":13964,"Ġê·¸ë¦ĩ":13965,"covery":13966,"ĠWal":13967,"gb":13968,"ìĻĢëĬĶ":13969,"ected":13970,"Ġadults":13971,"Ġfundament":13972,"ĠìĿ´ìłľëĬĶ":13973,"ĠíĿĶëĵ¤":13974,"wr":13975,"ĠìĥĿê°ģíķ©ëĭĪëĭ¤":13976,"Ġentered":13977,"Ġspons":13978,"Ġinnovative":13979,"plus":13980,"íĳ¼":13981,"ìĭľê¹Įì§Ģ":13982,"ëĲľëĭ¤ê³ł":13983,"Ġneut":13984,"Ġì¹´ì¹´ìĺ¤":13985,"Ġprotocol":13986,"Ġë³´ìĹ¬ì£¼":13987,"Ġplot":13988,"tmp":13989,"Ġyellow":13990,"istan":13991,"erry":13992,"Ġë§ĲíķĺëĬĶ":13993,"Ġcarefully":13994,"Ġpin":13995,"Ġë¬´ìĦľ":13996,")))":13997,"Ġíı¬ìĬ¤íĮħìĿĦ":13998,"ìĸ¼êµ´":13999,"ìī½ê²Į":14000,"ìľ¼ë¡ľë¶ĢíĦ°":14001,"Ġcheese":14002,"ĠAD":14003,"Ġstructures":14004,"ì²ľíŀĪ":14005,"Ġwheel":14006,"ĠWil":14007,"íĺķìĿ´":14008,"Ġdish":14009,"Ġ'/":14010,"ìĿ´ìĽĥ":14011,"Ġê´ĢëŀĮ":14012,"ãħħ":14013,"ĠAfrican":14014,"Ġì¢ĭëįĶëĿ¼êµ¬ìļĶ":14015,"ê°ĢìĬ´":14016,"!!!!!":14017,"ĠTry":14018,"ĠìķĦìĿ´ìĬ¤íģ¬ë¦¼":14019,"êµ¿":14020,"ĠìĿĺìĤ¬":14021,"ĠAward":14022,"Ġëĭ¤ìĸĳíķĺê²Į":14023,"Ġplays":14024,"ë¥Ń":14025,"ĠìĹ¬íĸīìĿĦ":14026,"ì§Ģë©´ìĦľ":14027,"ĠIde":14028,"ÑĪÐ¸":14029,"ĠDom":14030,"Ġë°ĶëĶĶ":14031,"BI":14032,"Product":14033,"Ġë¶ĢëĵľëŁ¬ìļ´":14034,"dem":14035,"ĠìłķíĻķíķľ":14036,"ë¬¼ê´Ģ":14037,"Ġrender":14038,"ĠðŁĺ":14039,"Ġreplaced":14040,"Ġëĵľë¦¬ê³ł":14041,"ê³ĦìĨį":14042,"zt":14043,"Names":14044,"ĠìĤŃ":14045,"Ġaffected":14046,"leep":14047,"íĸĩ":14048,"ĠEv":14049,"JSON":14050,"Ġfrequency":14051,"ependency":14052,"Ġë¯¸ìĪł":14053,"ì¤ĳìĿ¸":14054,"ĠíĿ¡ìĪĺ":14055,"Ġcrowd":14056,"Ġëħ¸íĬ¸":14057,"Ġtickets":14058,"ĠìĤ¬ê³¼":14059,"Ġë¹Ħìĭ¼":14060,"íĽĦìĹĲ":14061,"Ġregions":14062,"Ġmatches":14063,"Ġappreciate":14064,"Ã²":14065,"Ġìĸ´ë¥¸":14066,"ÑĤÑĥ":14067,"Ġstated":14068,"Ġreplacement":14069,"Err":14070,"Ġincreases":14071,"ì¢ĭìķĦìļĶ":14072,"ë§ĽìŀĪëĬĶ":14073,"Sk":14074,"idx":14075,"Ð²Ð¸":14076,"ìĥĿê°ģë³´ëĭ¤":14077,"Ġsubmit":14078,"ĠTR":14079,"Ġsurrounding":14080,"ëĤĺëĭ¤":14081,"ĠìĿ¼ìĿĢ":14082,"ĠìłĢëłĩê²Į":14083,"ĠInstead":14084,"ĠíĮ¨ìħĺ":14085,"ìĭľìĺ¤":14086,"ĠSand":14087,"ĠìĿ½ê³ł":14088,"Ġzone":14089,"Ġexcess":14090,"Ġbranch":14091,"Ġë§ĽìĿĢ":14092,"ë§Īì¼ĵ":14093,"Ġëª¸ìĹĲ":14094,"Ġcooking":14095,"HS":14096,"ë¶ķ":14097,"ĠJapanese":14098,"Ġdos":14099,"################":14100,"Ã¨s":14101,"Ġemergency":14102,"ëĨĪ":14103,"ì¡°ì°¨":14104,"ìŀ¬ë¥¼":14105,"Has":14106,"Av":14107,"ì§ķìĸ´":14108,"Ġassets":14109,"Ġentirely":14110,"âĨĴ":14111,"Ġì»¤íĶĮ":14112,"Ġë°°ì¹ĺ":14113,"ìķĦë¦¬":14114,"ë³¸ëĭ¤":14115,"Ġíķ´ì£¼ëĬĶ":14116,"ĠìŀĺëĿ¼":14117,"Ġêµ¬ì²´":14118,"Ë·-\\":14119,"Ġê²ī":14120,"Ġknowing":14121,"ulous":14122,"apply":14123,"ĠFurther":14124,"Ġfreedom":14125,"Ġcloser":14126,"ela":14127,"ĠCa":14128,"Ġmere":14129,"Ġbrands":14130,"Ġrecorded":14131,"Ġê°ľë´ī":14132,"ĠìĿ´ìľłë¡ľ":14133,"pute":14134,"Ġom":14135,"ĠíĺĲìĿĺ":14136,"Ġë³´ëŁ¬":14137,"ëıĮìķĦ":14138,"Ġpp":14139,"ë¬´ë£Į":14140,"ìĤ¬ìĿ´íĬ¸":14141,"ê²½ìļ°":14142,"Ë·}{\\":14143,"ĠíĨµê³¼":14144,"Ġë°©ë²ķìĿĢ":14145,"ĠRoman":14146,"ëłĪìĿ´íģ¬":14147,"Ġapproved":14148,"ĠVersion":14149,"=(":14150,"å¯":14151,"Ġhousing":14152,"íĤ¤ì§Ģ":14153,"fc":14154,"anish":14155,"tics":14156,"ê¹ĮìĬ¤":14157,"Obj":14158,"Ġë°©ì§Ģ":14159,"íķłê¹Į":14160,"Ġaid":14161,"ìĹ¬ìĦ±":14162,"Ġsaving":14163,"Definition":14164,"Ġtou":14165,"folio":14166,"Äĩ":14167,"isc":14168,"Ġsubstant":14169,"íĮĲìĹĲ":14170,"Ġhardware":14171,"ĠìĦ±ë¶Ħ":14172,"Ġlaugh":14173,"orders":14174,"Ġì£¼ìĭł":14175,"names":14176,"hem":14177,"oti":14178,"Ġkick":14179,"ĠAP":14180,"Ġì§§ìĿĢ":14181,"imately":14182,"Ġê³¤":14183,"Ġìī½ì§Ģ":14184,"Ġfold":14185,"Ġbringing":14186,"ether":14187,"Rev":14188,"Ġped":14189,"unning":14190,"ê°ĢìĿĦ":14191,"points":14192,"Ġfunc":14193,"war":14194,"ĠNY":14195,"Ġsubsequ":14196,"ila":14197,"ëĤľëĭ¤":14198,"ë²Ħë¦°":14199,"ëĶĶìħĺ":14200,"Ġguest":14201,"ìĿĮìķħ":14202,"Ġëļ«":14203,"ĠâĻ¥":14204,"Ġê±°ìĺĪìļĶ":14205,"ĠëĤĺë©´":14206,"isms":14207,"Ġë°©ë²ķìĿ´":14208,"ê¸¸ìĿ´":14209,"track":14210,"tre":14211,"Ġdivers":14212,"ummer":14213,"Ġê°Ħëĭ¨íķĺê²Į":14214,"Ġstudio":14215,"fields":14216,"ĠìĬ¤íĶ¼":14217,"pan":14218,"ìĸ´ëĸ»ê²Į":14219,"Ġsolar":14220,"bg":14221,"ë¶ĦìľĦ":14222,"Ġíĸ¥ìĿ´":14223,"eren":14224,"ĠCongress":14225,"ĠGame":14226,"Ġreceiving":14227,"ĠOS":14228,"Ġpartnership":14229,"ê·¸ë¦¬":14230,"Ġíĳ¸ì§Ĳ":14231,"ë©Ķë¦¬ì¹´ëħ¸":14232,"å¼":14233,"thread":14234,"ë´ĩ":14235,"Ġtom":14236,"Ġdogs":14237,"Ġìŀ¥ìłĲ":14238,"Ġì§Ħíĸīíķĺê³ł":14239,"dated":14240,"ĠìĹĦë§Īê°Ģ":14241,"Ġì¢ħëª©":14242,"ë¦¼íĶ½":14243,"GM":14244,"ĠìĿ½ìĸ´":14245,"Ġexplicit":14246,"Ġshower":14247,"FILE":14248,"Ġë¶ĻìĹ¬":14249,"ë§Įì¡±":14250,"ĠìķĦìĭľ":14251,"ĠìĻĶìĸ´ìļĶ":14252,"æī":14253,"Ġìŀĳìļ©":14254,"ëĭ¨ìĿĺ":14255,"Ë·\":":14256,"Ġadministration":14257,"íķ´ìł¸":14258,"Ġëĵ¤ìĸ´ê°ĢìĦľ":14259,"ë§Ĳë¡ľ":14260,"Ġë°Ķíĥķìľ¼ë¡ľ":14261,"Ġhundreds":14262,"Ġë¹ħ":14263,"Ġlaunched":14264,"short":14265,"Ġtechnique":14266,"ĠVAL":14267,"equals":14268,"ĠíķĺëĤĺíķĺëĤĺ":14269,"Ġëĸłìĺ¤":14270,"Ġì§ĳìĿĦ":14271,"olec":14272,"ì¤ĺìĦľ":14273,"Ġformal":14274,"Storage":14275,"ê²°íĺ¼":14276,"uple":14277,"Ġsan":14278,"-->":14279,"\",\"\",\"":14280,"íķı":14281,"Ġexit":14282,"Ġsegment":14283,"kappa":14284,"Ġteeth":14285,"Ġì±ĦëĦĲ":14286,"rep":14287,"ĠìĹĦì²ŃëĤľ":14288,"ìłĢê²ĥ":14289,"Ġsauce":14290,"Ġadvertising":14291,"Ë·Â°":14292,"Ġmassive":14293,"clip":14294,"Ġpresentation":14295,"Ġwurde":14296,"Ġfilms":14297,"Ġsupporting":14298,"Make":14299,"Ġìĭ¤íĸī":14300,"Ġusage":14301,"ĠSpring":14302,".__":14303,"íķľê²Į":14304,"YPE":14305,"Ġë§ŀìĿ´":14306,"ĠCast":14307,"Ġê½ī":14308,"ĠìĬ¤íĬ¸ëłĪìĬ¤":14309,"ëł¸ìĬµëĭĪëĭ¤":14310,"Ġì¡±":14311,"ĠìĨĮìĨį":14312,"Ġ{\"":14313,"Ġapi":14314,"Another":14315,"Ġbegins":14316,"ĠKar":14317,"Ġë¬´ê²Į":14318,"Ġhistorical":14319,"Ġstrugg":14320,"Ġrecovery":14321,"ogen":14322,"Ġëį§ë¶Ļ":14323,"Items":14324,"ìĸĳëħĲ":14325,"ë´¤ëĭ¤":14326,"Ġeducational":14327,"ĠìķĦë¬´ëŀĺëıĦ":14328,"Ġíķľì°¸":14329,"ĠFigure":14330,"Ã¤r":14331,"Ġëĥīìŀ¥ê³ł":14332,"Ġì£¼ìĨĮ":14333,")/":14334,"ĠMaybe":14335,"ìħ¨ìĬµëĭĪëĭ¤":14336,"íĺ¸ìĦł":14337,"Ġê³łìļ©":14338,"Ġfeat":14339,"elcome":14340,"ìĽĶëĵľ":14341,"encing":14342,"Ġbigger":14343,"Ġconcerned":14344,"ë¦¬ìĬ¤íĬ¸":14345,"ëĿ¼ëĸ¼":14346,"Exp":14347,"born":14348,"Ġë¿Įëł¤":14349,"uan":14350,"Ġpil":14351,"Ġbowl":14352,"íĳľë¥¼":14353,"ìĹĪëĭ¤ê³ł":14354,"ĠHotel":14355,"ocity":14356,"CF":14357,"Ġcapture":14358,"ĠPage":14359,"rent":14360,"ìĦľê´Ģ":14361,"ĠArg":14362,"ows":14363,"(\"Ë·":14364,"Ġinval":14365,"ê²°ê³¼":14366,"Ġentertain":14367,"Ġcrim":14368,"Ġlift":14369,"ìľ¼ìĭ¤":14370,"ëĮĢë¬¸":14371,"ĠíĶ¼ìŀĲ":14372,"Ġuniversity":14373,"Ġsuggested":14374,"ĠSign":14375,"Ġcharges":14376,"Ġregistration":14377,"ê¿Ģ":14378,"gers":14379,"Ġwest":14380,"Ġalloc":14381,"ĠìĬĪíį¼":14382,"ĠìĭĿíĴĪ":14383,"íĶĶ":14384,"wid":14385,"ĠìĬ¤íı¬ì¸ł":14386,"Ġê³µíķŃ":14387,"Ġë¬´íķľ":14388,"Ðł":14389,"ceived":14390,"ĠVirgin":14391,"Ġìĸ´ëĶĶìĦľ":14392,"Ġtherapy":14393,"live":14394,"Ġconsumers":14395,"ì§ĦìĿ´":14396,"Ġaccomp":14397,"Ġsister":14398,"ĠìķĪëĤĺ":14399,"Ġìº¡":14400,"ìĹĳ":14401,"Ġreasonable":14402,"ĠPR":14403,"ische":14404,"Ġëĵ¤ìĸ´ê°Ķ":14405,"hus":14406,"otimes":14407,"Ġenem":14408,"settings":14409,"ĠëĿ¼ìĿ¸":14410,"bridge":14411,"Ġpaying":14412,"Ġgrade":14413,"ĠìĹĲìĸ´ì»¨":14414,"Account":14415,"ĠLast":14416,"Ġextr":14417,"ÐºÑĥ":14418,"ĠIndust":14419,"Ġë©¤ë²Ħ":14420,"Ġcluster":14421,"ĠíĻľëıĻìĿĦ":14422,"ĠìĤ¬ëŀĳíķĺëĬĶ":14423,"ipt":14424,"Ġìĥģìĥģ":14425,"Ġrestaurants":14426,"Ġìĺ¤ë©´":14427,"âĪ¼Ë·":14428,"Ġprotein":14429,"ìŀĸìķĦ":14430,"ĠDO":14431,"Ġì²ĺëŁ¼":14432,"ĠConst":14433,"ë¦İ":14434,"esterday":14435,"Ġì§Ħì¶ľ":14436,"Edit":14437,"Ġê·¼ë¡ľ":14438,"Ġfourth":14439,"ìķĦë¬´ëŀĺëıĦ":14440,"ì¡Įìĸ´ìļĶ":14441,"Ġtopics":14442,"ìľ¼ëł¤ê³ł":14443,"Ġexplained":14444,"ìļ´ìłĦ":14445,"Ġcompetitive":14446,"ĠJo":14447,"Ġcompr":14448,"icol":14449,"Ġì¹ĺìķĦ":14450,"igan":14451,"ìµľê³ł":14452,"Ġìĥģê°Ģ":14453,"plugin":14454,"ĠìłĢìĿĺ":14455,"Ġìłĸ":14456,"umps":14457,"Schema":14458,"Ġcutting":14459,"Ġengineering":14460,"ëĦĮ":14461,"ĠKit":14462,"...)":14463,"ë³´ìĿ´ëĬĶ":14464,"article":14465,"Ġpromise":14466,"ĠìŀĳëħĦ":14467,"Ġdiagram":14468,"Ġcruc":14469,"Ġtherm":14470,"ë§¤ìŀ¥":14471,"Ġattached":14472,"}}$":14473,"Ġï»¿":14474,"ĠëĲĺê¸°":14475,"ĠìĹĲëĦĪì§Ģ":14476,"Ġauthors":14477,"Ġweap":14478,"ìĺ¤ëŀĺ":14479,"Ġë¯¸ìļ©":14480,"ĠíĮĮëĬĶ":14481,"Ġdrivers":14482,"Ġdies":14483,"Ġmatters":14484,"Ġê°ķìķĦì§Ģ":14485,"month":14486,"Ġcorrectly":14487,"Ġë¬´ìĹĩë³´ëĭ¤":14488,"ê°ľìĿ¸ìłģìľ¼ë¡ľ":14489,"Ġê²ĥë§Į":14490,"íķĺê³łìŀĲ":14491,"Ġëĭµë³Ģ":14492,"êµ¬ëĬĶ":14493,"Ġrecon":14494,"reshold":14495,"LI":14496,"ãģĮ":14497,"ëĩĮ":14498,"Ġpremium":14499,"Ġhorse":14500,"report":14501,"ìĭľë¡ľ":14502,"ĠCOM":14503,"Ġabsor":14504,"Ġë¨¹ìĹĪìĸ´ìļĶ":14505,"ìĮį":14506,"herit":14507,"Ġchicken":14508,"loor":14509,"props":14510,"ĠìĨĮìĦ¤":14511,"ancer":14512,"?âĢĿ":14513,"ensuremath":14514,"Ġestimate":14515,"ë°©ìĿĦ":14516,"ë¦¬ê·¸":14517,"Ġì§ĢëĤľëĭ¬":14518,"ĠPub":14519,"ìļ´ëĵľ":14520,"AY":14521,"ownt":14522,"ĠHead":14523,"ëŀ«íı¼":14524,"Ġfactory":14525,"ĠíĻķìĿ¸íķł":14526,"Ġdollars":14527,"Ġ\\\"":14528,"shape":14529,"Ġhook":14530,"ĠëĦĺëĤĺ":14531,"Ġì½ĺíħĲì¸ł":14532,"_+":14533,"diff":14534,"Ġwet":14535,"channel":14536,"Ġshell":14537,"ĠìķĦìĿ´íı°":14538,"Ġì¾Į":14539,"Ġë²¨":14540,"Ġpassing":14541,"Ġëª¸ìĿ´":14542,"ãĥ³":14543,"ĠìĨĮíĨµ":14544,"ĠDC":14545,"XT":14546,"iser":14547,".......":14548,"ìĦ¸ë¨¼":14549,"Ġëħ¼ìĿĺ":14550,"ĠìĭľìŀĳíĸĪëĭ¤":14551,"instagram":14552,"ĠÃ¨":14553,"ëªħìľ¼ë¡ľ":14554,"ëĥĦìĥĪ":14555,"Ġminim":14556,"Ġimagine":14557,"GS":14558,"`.":14559,"Ë·\\%":14560,"Ð½Ð¾Ð¹":14561,"ĠíĻķìłķ":14562,"Ġspeaking":14563,"ðŁĳį":14564,"register":14565,"ì°¨ë¡ľ":14566,"Ġìłľì£¼ëıĦ":14567,"Ġseeking":14568,"Ġê³ĦìłĪ":14569,"Ġregularly":14570,"ĠSP":14571,"Ġëª¨ìķĦ":14572,"yes":14573,"ëıĻë¬¼":14574,"fire":14575,"Ġmachines":14576,"ĠìĿµìĪĻ":14577,"Ġëĭ¤ìĿĮìĹĲ":14578,"Track":14579,"Ġëĵ¬ë¿į":14580,"cluded":14581,"ĠÐ¶":14582,"ìĭľíĤ¬":14583,"hered":14584,"Ġfemale":14585,"Ġë¬¼ìĹĲ":14586,"ë©´ìłģ":14587,"Ġdecades":14588,"Ġscientific":14589,"edit":14590,"addr":14591,"ìĿ´íĶĦ":14592,"Delete":14593,"ĠìĮį":14594,"Ġguard":14595,"ìĬĲ":14596,"ëĬ¦":14597,"uke":14598,"Ġsilver":14599,"ĠìĿ¸ê¸°ê°Ģ":14600,"Ġì°¨ê°Ģ":14601,"ĠíĽĪëł¨":14602,"Ġpas":14603,"ë¨¼íĬ¸":14604,"oved":14605,"ĠBi":14606,"ĠìĿ¸ìĭĿ":14607,"Find":14608,"Ġsight":14609,"ĠìĿĺíķľ":14610,"Sigma":14611,"Ġannounce":14612,"Ġpurchased":14613,"ĠDemocr":14614,"Ġordered":14615,"ë¥ĺë¥¼":14616,"ìĭĿìĤ¬":14617,"IME":14618,"ê²¸":14619,"render":14620,"Grid":14621,"Hz":14622,"kins":14623,"Ġmonthly":14624,"Ġì°¨ë¥¼":14625,"ë´ĲëıĦ":14626,"effect":14627,"ìĦ±ëıĦ":14628,"Ġfoods":14629,"ëĵľë¦¬ëĬĶ":14630,"EXT":14631,"ĠëĬĲê»´ì§ĢëĬĶ":14632,"ëıĦìļ°":14633,"ãģ¾":14634,"ĠÐ¿ÑĢÐµ":14635,"Assert":14636,"ĠMS":14637,"Ġíķľíİ¸":14638,"ì§ĪíĻĺ":14639,"Ġrows":14640,"Ġfrequently":14641,"ente":14642,"ĠRichard":14643,"ĠUI":14644,"Ġìĺ¤ë¥¸ìª½":14645,"ìĿĮë£Į":14646,"thlet":14647,"ĠCR":14648,"=\"\"":14649,"Ġclinical":14650,"êµ¬ë¡ľ":14651,"ĠìĻ¸ìĹĲëıĦ":14652,"deg":14653,"ĠíĶ¼ë¶ĢìĹĲ":14654,"ĠìŀĲìĦ¸íķľ":14655,"Ġë¼Ī":14656,"ë§ĪëĬĺ":14657,"ĠLem":14658,"_-":14659,"ailability":14660,"ìľ¨ìĿĦ":14661,"íķ´ì§Ģê³ł":14662,"SION":14663,"ĠëĤ´ìĿ¼":14664,"Ġsuc":14665,"Ġagents":14666,"Ġletters":14667,"ìŀĲì¹ĺ":14668,"ĠìĥĿìĿ¼":14669,"Ġkill":14670,"ÐµÑĢÐ°":14671,"íİĻ":14672,"Ë·=Ë·":14673,"ĠFROM":14674,"ĠiPhone":14675,"Bytes":14676,"Ġëĵ¤ìĹ¬":14677,"lers":14678,"acht":14679,"Ġhabit":14680,"Ġmel":14681,"Ġìļ¸ìĤ°":14682,"Show":14683,"Ġworse":14684,"Ġdifferences":14685,"ļê½ĥ":14686,"ĠManager":14687,"ĠìĪĺìłľ":14688,"ìĦľê°Ģ":14689,"ìĥīìĿĦ":14690,"Ġê°Ħëĭ¨íķľ":14691,"Ġì²łìłĢ":14692,"Ġsupplies":14693,"irl":14694,"Ġarchitecture":14695,"++;":14696,"Ġsmile":14697,"<<":14698,"Ġvertical":14699,"ĠLtd":14700,"eria":14701,"Ġinvent":14702,"ells":14703,"Ġëª¨ë°ĶìĿ¼":14704,"ĠìĶ¹":14705,"Ġexceed":14706,"ëł¤ìķ¼":14707,"Ġê¸Īì§Ģ":14708,"Invalid":14709,"ĠëĦ£ìĸ´ìĦľ":14710,"]]":14711,"Ġcoach":14712,"ĠëħĢìĦĿ":14713,"Ġpermission":14714,"Ġì²ŃëħĦ":14715,"unsigned":14716,"Second":14717,"Ġìĺ¤ëĬĺëıĦ":14718,"ĠRoyal":14719,"rer":14720,"&\\":14721,"ifi":14722,"ìŀĲë£Į":14723,"Ġpep":14724,"ĠĠĠĠĠĠĠĠĠĠĠĠĠĠĠĠĠĠĠĠĠĠĠĠ":14725,"youtube":14726,"ĠJud":14727,"ë©´ìĹĲìĦľ":14728,"Ġëª½":14729,"ĠíķĦìļĶíķĺëĭ¤":14730,"EQ":14731,"ĠÐ±Ñĭ":14732,"ĠLead":14733,"Ġchocolate":14734,"Ġcalc":14735,"Ġë§İìĿĢëį°":14736,"ĠBrown":14737,"zing":14738,"vs":14739,"íĥĢìĿ´":14740,"Ġlit":14741,"Math":14742,"Ġë§ĽìŀĪìĹĪìĸ´ìļĶ":14743,"Ġcandidates":14744,"yy":14745,"ĠìĿĺìĽĲìĿĢ":14746,"ĠëĤ´ìļ©ìĿĢ":14747,"Ġcolumns":14748,"ëĮĢë¹Ħ":14749,"Ġunable":14750,"Ġê·¸ê°Ģ":14751,
[...]
